{
  "version": "1.0",
  "truncation": null,
  "padding": null,
  "added_tokens": [
    {
      "id": 0,
      "content": "<pad>",
      "single_word": false,
      "lstrip": false,
      "rstrip": false,
      "normalized": false,
      "special": true
    },
    {
      "id": 1,
      "content": "<sos>",
      "single_word": false,
      "lstrip": false,
      "rstrip": false,
      "normalized": false,
      "special": true
    },
    {
      "id": 2,
      "content": "<eos>",
      "single_word": false,
      "lstrip": false,
      "rstrip": false,
      "normalized": false,
      "special": true
    },
    {
      "id": 3,
      "content": "<unk>",
      "single_word": false,
      "lstrip": false,
      "rstrip": false,
      "normalized": false,
      "special": true
    }
  ],
  "normalizer": null,
  "pre_tokenizer": {
    "type": "ByteLevel",
    "add_prefix_space": false,
    "trim_offsets": true,
    "use_regex": true
  },
  "post_processor": {
    "type": "ByteLevel",
    "add_prefix_space": true,
    "trim_offsets": false,
    "use_regex": true
  },
  "decoder": {
    "type": "ByteLevel",
    "add_prefix_space": true,
    "trim_offsets": true,
    "use_regex": true
  },
  "model": {
    "type": "BPE",
    "dropout": null,
    "unk_token": null,
    "continuing_subword_prefix": null,
    "end_of_word_suffix": null,
    "fuse_unk": false,
    "byte_fallback": false,
    "ignore_merges": false,
    "vocab": {
      "<pad>": 0,
      "<sos>": 1,
      "<eos>": 2,
      "<unk>": 3,
      "!": 4,
      "\"": 5,
      "#": 6,
      "$": 7,
      "%": 8,
      "&": 9,
      "'": 10,
      "(": 11,
      ")": 12,
      "*": 13,
      "+": 14,
      ",": 15,
      "-": 16,
      ".": 17,
      "/": 18,
      "0": 19,
      "1": 20,
      "2": 21,
      "3": 22,
      "4": 23,
      "5": 24,
      "6": 25,
      "7": 26,
      "8": 27,
      "9": 28,
      ":": 29,
      ";": 30,
      "<": 31,
      "=": 32,
      ">": 33,
      "?": 34,
      "@": 35,
      "A": 36,
      "B": 37,
      "C": 38,
      "D": 39,
      "E": 40,
      "F": 41,
      "G": 42,
      "H": 43,
      "I": 44,
      "J": 45,
      "K": 46,
      "L": 47,
      "M": 48,
      "N": 49,
      "O": 50,
      "P": 51,
      "Q": 52,
      "R": 53,
      "S": 54,
      "T": 55,
      "U": 56,
      "V": 57,
      "W": 58,
      "X": 59,
      "Y": 60,
      "Z": 61,
      "[": 62,
      "\\": 63,
      "]": 64,
      "^": 65,
      "_": 66,
      "`": 67,
      "a": 68,
      "b": 69,
      "c": 70,
      "d": 71,
      "e": 72,
      "f": 73,
      "g": 74,
      "h": 75,
      "i": 76,
      "j": 77,
      "k": 78,
      "l": 79,
      "m": 80,
      "n": 81,
      "o": 82,
      "p": 83,
      "q": 84,
      "r": 85,
      "s": 86,
      "t": 87,
      "u": 88,
      "v": 89,
      "w": 90,
      "x": 91,
      "y": 92,
      "z": 93,
      "{": 94,
      "|": 95,
      "}": 96,
      "~": 97,
      "¡": 98,
      "¢": 99,
      "£": 100,
      "¤": 101,
      "¥": 102,
      "¦": 103,
      "§": 104,
      "¨": 105,
      "©": 106,
      "ª": 107,
      "«": 108,
      "¬": 109,
      "®": 110,
      "¯": 111,
      "°": 112,
      "±": 113,
      "²": 114,
      "³": 115,
      "´": 116,
      "µ": 117,
      "¶": 118,
      "·": 119,
      "¸": 120,
      "¹": 121,
      "º": 122,
      "»": 123,
      "¼": 124,
      "½": 125,
      "¾": 126,
      "¿": 127,
      "À": 128,
      "Á": 129,
      "Â": 130,
      "Ã": 131,
      "Ä": 132,
      "Å": 133,
      "Æ": 134,
      "Ç": 135,
      "È": 136,
      "É": 137,
      "Ê": 138,
      "Ë": 139,
      "Ì": 140,
      "Í": 141,
      "Î": 142,
      "Ï": 143,
      "Ð": 144,
      "Ñ": 145,
      "Ò": 146,
      "Ó": 147,
      "Ô": 148,
      "Õ": 149,
      "Ö": 150,
      "×": 151,
      "Ø": 152,
      "Ù": 153,
      "Ú": 154,
      "Û": 155,
      "Ü": 156,
      "Ý": 157,
      "Þ": 158,
      "ß": 159,
      "à": 160,
      "á": 161,
      "â": 162,
      "ã": 163,
      "ä": 164,
      "å": 165,
      "æ": 166,
      "ç": 167,
      "è": 168,
      "é": 169,
      "ê": 170,
      "ë": 171,
      "ì": 172,
      "í": 173,
      "î": 174,
      "ï": 175,
      "ð": 176,
      "ñ": 177,
      "ò": 178,
      "ó": 179,
      "ô": 180,
      "õ": 181,
      "ö": 182,
      "÷": 183,
      "ø": 184,
      "ù": 185,
      "ú": 186,
      "û": 187,
      "ü": 188,
      "ý": 189,
      "þ": 190,
      "ÿ": 191,
      "Ā": 192,
      "ā": 193,
      "Ă": 194,
      "ă": 195,
      "Ą": 196,
      "ą": 197,
      "Ć": 198,
      "ć": 199,
      "Ĉ": 200,
      "ĉ": 201,
      "Ċ": 202,
      "ċ": 203,
      "Č": 204,
      "č": 205,
      "Ď": 206,
      "ď": 207,
      "Đ": 208,
      "đ": 209,
      "Ē": 210,
      "ē": 211,
      "Ĕ": 212,
      "ĕ": 213,
      "Ė": 214,
      "ė": 215,
      "Ę": 216,
      "ę": 217,
      "Ě": 218,
      "ě": 219,
      "Ĝ": 220,
      "ĝ": 221,
      "Ğ": 222,
      "ğ": 223,
      "Ġ": 224,
      "ġ": 225,
      "Ģ": 226,
      "ģ": 227,
      "Ĥ": 228,
      "ĥ": 229,
      "Ħ": 230,
      "ħ": 231,
      "Ĩ": 232,
      "ĩ": 233,
      "Ī": 234,
      "ī": 235,
      "Ĭ": 236,
      "ĭ": 237,
      "Į": 238,
      "į": 239,
      "İ": 240,
      "ı": 241,
      "Ĳ": 242,
      "ĳ": 243,
      "Ĵ": 244,
      "ĵ": 245,
      "Ķ": 246,
      "ķ": 247,
      "ĸ": 248,
      "Ĺ": 249,
      "ĺ": 250,
      "Ļ": 251,
      "ļ": 252,
      "Ľ": 253,
      "ľ": 254,
      "Ŀ": 255,
      "ŀ": 256,
      "Ł": 257,
      "ł": 258,
      "Ń": 259,
      "Ġt": 260,
      "he": 261,
      "Ġa": 262,
      "Ġthe": 263,
      "nd": 264,
      "Ġw": 265,
      "Ġ,": 266,
      "in": 267,
      "Ġs": 268,
      "re": 269,
      "Ġo": 270,
      "Ġ.": 271,
      "ha": 272,
      "is": 273,
      "Ġb": 274,
      "ou": 275,
      "Ġand": 276,
      "ll": 277,
      "ve": 278,
      "or": 279,
      "Ġf": 280,
      "Ġof": 281,
      "Ġ)": 282,
      "it": 283,
      "Ġ(": 284,
      "Ġm": 285,
      "es": 286,
      "ed": 287,
      "er": 288,
      "Ġd": 289,
      "Ġc": 290,
      "en": 291,
      "Ġy": 292,
      "on": 293,
      "ing": 294,
      "Ġto": 295,
      "Ġp": 296,
      "hi": 297,
      "hat": 298,
      "Ġbe": 299,
      "Ġin": 300,
      "Ġn": 301,
      "om": 302,
      "Ġyou": 303,
      "ar": 304,
      "at": 305,
      "Ġhe": 306,
      "And": 307,
      "Ġu": 308,
      "Ġth": 309,
      "ot": 310,
      "an": 311,
      "Ġthat": 312,
      "se": 313,
      "ay": 314,
      "Ġis": 315,
      "Ġha": 316,
      "Ġe": 317,
      "Ġl": 318,
      "ut": 319,
      "Ġg": 320,
      "st": 321,
      "ho": 322,
      "ce": 323,
      "Ġthey": 324,
      "ĠA": 325,
      "Ġfor": 326,
      "Ġthem": 327,
      "id": 328,
      "Ġhi": 329,
      "Ġnot": 330,
      "le": 331,
      "ow": 332,
      "ith": 333,
      "ĠI": 334,
      "ly": 335,
      "Ġhim": 336,
      "ent": 337,
      "ver": 338,
      "ch": 339,
      "Ġre": 340,
      "to": 341,
      "Ġ:": 342,
      "ill": 343,
      "Ġsa": 344,
      "gh": 345,
      "as": 346,
      "ĠH": 347,
      "ĠAll": 348,
      "ld": 349,
      "th": 350,
      "ir": 351,
      "ah": 352,
      "Ġun": 353,
      "Ġh": 354,
      "li": 355,
      "od": 356,
      "Ġwith": 357,
      "Ġwe": 358,
      "ĠAllah": 359,
      "hen": 360,
      "ion": 361,
      "Ġwill": 362,
      "ur": 363,
      "her": 364,
      "ĠW": 365,
      "Ġon": 366,
      "Ġit": 367,
      "ĠS": 368,
      "ess": 369,
      "ĠM": 370,
      "ght": 371,
      "if": 372,
      "Ġan": 373,
      "Ġwho": 374,
      "Ġunto": 375,
      "Ġwhi": 376,
      "ord": 377,
      "Ġhave": 378,
      "rom": 379,
      "Ġare": 380,
      "Ġas": 381,
      "us": 382,
      "ĠT": 383,
      "Ġwhich": 384,
      "ĠG": 385,
      "Ġse": 386,
      "ain": 387,
      "ri": 388,
      "ad": 389,
      "ĠL": 390,
      "me": 391,
      "Ġsha": 392,
      "Ġk": 393,
      "Ġfrom": 394,
      "Ġcom": 395,
      "ĠJ": 396,
      "Ġ?": 397,
      "al": 398,
      "Ġhis": 399,
      "Ġall": 400,
      "Ġyour": 401,
      "Ġde": 402,
      "Ġye": 403,
      "ven": 404,
      "Ġal": 405,
      "Ġtheir": 406,
      "ra": 407,
      "Ġsaid": 408,
      "Ġshall": 409,
      "Ġca": 410,
      "Ġ;": 411,
      "ter": 412,
      "ro": 413,
      "Ġman": 414,
      "Ġme": 415,
      "ak": 416,
      "ore": 417,
      "Ġdo": 418,
      "Ġwas": 419,
      "ĠLord": 420,
      "ĠHe": 421,
      "Ġwhen": 422,
      "lie": 423,
      "ct": 424,
      "ĠWe": 425,
      "Ġthis": 426,
      "est": 427,
      "il": 428,
      "ul": 429,
      "so": 430,
      "Ġpe": 431,
      "ĠAnd": 432,
      "Ġbut": 433,
      "Ġdis": 434,
      "ose": 435,
      "ĠP": 436,
      "ple": 437,
      "ĠGod": 438,
      "Ġsu": 439,
      "Ġthere": 440,
      "ive": 441,
      "Ġup": 442,
      "ers": 443,
      "Ġsay": 444,
      "Ġst": 445,
      "ings": 446,
      "Ġwor": 447,
      "Ġby": 448,
      "ight": 449,
      "red": 450,
      "ĠB": 451,
      "ge": 452,
      "ĠC": 453,
      "ĠO": 454,
      "Ġsp": 455,
      "ould": 456,
      "now": 457,
      "Ġfa": 458,
      "ment": 459,
      "Ġthose": 460,
      "and": 461,
      "fore": 462,
      "ong": 463,
      "ard": 464,
      "ople": 465,
      "ation": 466,
      "Ġwere": 467,
      "one": 468,
      "pt": 469,
      "Ġalso": 470,
      "Ġpeople": 471,
      "im": 472,
      "art": 473,
      "Ġus": 474,
      "esus": 475,
      "Ġgo": 476,
      "sel": 477,
      "Ġso": 478,
      "Ġmy": 479,
      "Ġknow": 480,
      "et": 481,
      "ris": 482,
      "ure": 483,
      "ru": 484,
      "Ġab": 485,
      "eth": 486,
      "Ġif": 487,
      "For": 488,
      "ĠJesus": 489,
      "ind": 490,
      "Ġne": 491,
      "Ġthou": 492,
      "Ġone": 493,
      "ĠD": 494,
      "Ġhad": 495,
      "Ġam": 496,
      "Ġex": 497,
      "Ġbelie": 498,
      "be": 499,
      "Ġor": 500,
      "Ġany": 501,
      "Ġinto": 502,
      "our": 503,
      "Ġwhat": 504,
      "Ġfe": 505,
      "Ġthen": 506,
      "ther": 507,
      "ake": 508,
      "Ġhas": 509,
      "Ġcon": 510,
      "ome": 511,
      "rou": 512,
      "ok": 513,
      "here": 514,
      "ant": 515,
      "But": 516,
      "Ġthings": 517,
      "ast": 518,
      "os": 519,
      "Ġag": 520,
      "ous": 521,
      "Ġaf": 522,
      "Ġat": 523,
      "Ġ-": 524,
      "ise": 525,
      "ac": 526,
      "Ġno": 527,
      "Ġout": 528,
      "Ġcome": 529,
      "ic": 530,
      "reat": 531,
      "vers": 532,
      "ness": 533,
      "ity": 534,
      "Ġwh": 535,
      "ves": 536,
      "Ġ!": 537,
      "pp": 538,
      "Ġpro": 539,
      "Ġear": 540,
      "ance": 541,
      "Ġagain": 542,
      "ost": 543,
      "ate": 544,
      "very": 545,
      "Ġupon": 546,
      "tain": 547,
      "ud": 548,
      "Ġho": 549,
      "Ġmay": 550,
      "Ġj": 551,
      "ved": 552,
      "Ġbec": 553,
      "ren": 554,
      "Ġbl": 555,
      "ade": 556,
      "ather": 557,
      "el": 558,
      "ace": 559,
      "Ġday": 560,
      "les": 561,
      "ab": 562,
      "Ġli": 563,
      "Ġcame": 564,
      "Ġbefore": 565,
      "way": 566,
      "Ġsee": 567,
      "Ġthese": 568,
      "Ġour": 569,
      "Ġsh": 570,
      "ĠThe": 571,
      "other": 572,
      "ath": 573,
      "urn": 574,
      "out": 575,
      "Ġmade": 576,
      "Then": 577,
      "Ġv": 578,
      "am": 579,
      "ig": 580,
      "au": 581,
      "own": 582,
      "uth": 583,
      "The": 584,
      "rist": 585,
      "ĠCh": 586,
      "Ġhea": 587,
      "ĠChrist": 588,
      "Ġwhom": 589,
      "ust": 590,
      "ĠSo": 591,
      "ever": 592,
      "Ġcomm": 593,
      "ci": 594,
      "res": 595,
      "Ġac": 596,
      "belie": 597,
      "Ġhat": 598,
      "ving": 599,
      "ward": 600,
      "ĠR": 601,
      "han": 602,
      "ke": 603,
      "Ġlo": 604,
      "we": 605,
      "un": 606,
      "ĠY": 607,
      "ence": 608,
      "eng": 609,
      "Ġevery": 610,
      "Ġdisbelie": 611,
      "Ġafter": 612,
      "Ġshould": 613,
      "ted": 614,
      "ĠE": 615,
      "ife": 616,
      "ruth": 617,
      "Ġbr": 618,
      "em": 619,
      "Ġearth": 620,
      "ep": 621,
      "Ġheaven": 622,
      "ful": 623,
      "Ġtor": 624,
      "Ġhath": 625,
      "ect": 626,
      "ĠHis": 627,
      "Ġri": 628,
      "wn": 629,
      "oun": 630,
      "Ġdown": 631,
      "ĠMess": 632,
      "Ġother": 633,
      "Ġsome": 634,
      "Ġworld": 635,
      "urely": 636,
      "Ġwr": 637,
      "Ġwould": 638,
      "Ġcall": 639,
      "ign": 640,
      "ray": 641,
      "mb": 642,
      "Ġsin": 643,
      "Ġsent": 644,
      "Ġtorment": 645,
      "Ġeven": 646,
      "ĠMesseng": 647,
      "ĠF": 648,
      "vil": 649,
      "Ġamong": 650,
      "ertain": 651,
      "self": 652,
      "Ġbeen": 653,
      "selves": 654,
      "Ġthee": 655,
      "Ġgood": 656,
      "Ġfo": 657,
      "ef": 658,
      "Ġmen": 659,
      "ĠN": 660,
      "Ġaway": 661,
      "Ġla": 662,
      "ave": 663,
      "Ġchi": 664,
      "eed": 665,
      "Ġshe": 666,
      "ither": 667,
      "cept": 668,
      "Ġagainst": 669,
      "iven": 670,
      "qu": 671,
      "Ġsaying": 672,
      "Ġfaith": 673,
      "ol": 674,
      "So": 675,
      "nder": 676,
      "Ġbelieve": 677,
      "Ġthy": 678,
      "ew": 679,
      "Ġper": 680,
      "Ġbless": 681,
      "ice": 682,
      "Ġthan": 683,
      "hed": 684,
      "ks": 685,
      "hip": 686,
      "ish": 687,
      "Ġgl": 688,
      "Ġser": 689,
      "ts": 690,
      "ause": 691,
      "Ġspe": 692,
      "Ġpl": 693,
      "ĠDay": 694,
      "phe": 695,
      "ction": 696,
      "ine": 697,
      "are": 698,
      "Ġcertain": 699,
      "ĠTh": 700,
      "Ġacc": 701,
      "Ġover": 702,
      "Ġbre": 703,
      "erc": 704,
      "Ġgreat": 705,
      "ire": 706,
      "Ġdes": 707,
      "Ġheart": 708,
      "ceive": 709,
      "Ġad": 710,
      "Ġway": 711,
      "Ġmany": 712,
      "Ġcan": 713,
      "Ġgu": 714,
      "ass": 715,
      "Ġgive": 716,
      "Ġlife": 717,
      "ans": 718,
      "Ġbecause": 719,
      "llow": 720,
      "Ġmight": 721,
      "ĠWho": 722,
      "ound": 723,
      "Ġturn": 724,
      "ily": 725,
      "ime": 726,
      "Ġwell": 727,
      "Ġfear": 728,
      "Ġabout": 729,
      "Ġnor": 730,
      "Ġwent": 731,
      "Ġown": 732,
      "usa": 733,
      "Ġpeace": 734,
      "Ġright": 735,
      "Ġalone": 736,
      "ies": 737,
      "Ġwhere": 738,
      "ĠIs": 739,
      "Ġdid": 740,
      "Ġevil": 741,
      "ĠHim": 742,
      "Ġhand": 743,
      "Ġher": 744,
      "irit": 745,
      "oth": 746,
      "ide": 747,
      "Ġlike": 748,
      "Ġtime": 749,
      "Ġson": 750,
      "Ġ]": 751,
      "Ġmake": 752,
      "ue": 753,
      "Ġ[": 754,
      "Ġtw": 755,
      "Ġsame": 756,
      "led": 757,
      "Ġmore": 758,
      "Ġdisbelievers": 759,
      "um": 760,
      "Ġpart": 761,
      "Ġword": 762,
      "ĠSurely": 763,
      "Ġonly": 764,
      "Ġpre": 765,
      "itt": 766,
      "ff": 767,
      "ied": 768,
      "ĠMessenger": 769,
      "Ġhow": 770,
      "Ġ'": 771,
      "Ġle": 772,
      "Ġlaw": 773,
      "Ġke": 774,
      "ook": 775,
      "oses": 776,
      "Ġserv": 777,
      "Ġr": 778,
      "Ġlet": 779,
      "Ġapp": 780,
      "Ġbet": 781,
      "Ġnow": 782,
      "all": 783,
      "ist": 784,
      "Ġgiven": 785,
      "Ġind": 786,
      "Ġoff": 787,
      "ĠMost": 788,
      "ount": 789,
      "Ġglor": 790,
      "ry": 791,
      "ame": 792,
      "ĠRe": 793,
      "rough": 794,
      "ious": 795,
      "Ġcommand": 796,
      "ach": 797,
      "ls": 798,
      "Ġen": 799,
      "Ġunder": 800,
      "Ġrec": 801,
      "ship": 802,
      "ree": 803,
      "Ġco": 804,
      "Ġar": 805,
      "Ġanother": 806,
      "Ġthrough": 807,
      "Ġres": 808,
      "Ġtru": 809,
      "Ġi": 810,
      "ĠMoses": 811,
      "ne": 812,
      "Ġput": 813,
      "Ġans": 814,
      "Ġsaith": 815,
      "ĠOur": 816,
      "Ġservant": 817,
      "ower": 818,
      "Ġdisci": 819,
      "dom": 820,
      "Ġchild": 821,
      "ples": 822,
      "Ġfir": 823,
      "Ġsure": 824,
      "ag": 825,
      "Ġreceive": 826,
      "rought": 827,
      "bra": 828,
      "ĠK": 829,
      "Ġent": 830,
      "ite": 831,
      "ked": 832,
      "ouse": 833,
      "Ġtherefore": 834,
      "ered": 835,
      "Ġfollow": 836,
      "arn": 837,
      "Ġforth": 838,
      "ĠThen": 839,
      "Ġprom": 840,
      "Ġneither": 841,
      "ham": 842,
      "Ġbeing": 843,
      "ĠBook": 844,
      "Ġcalled": 845,
      "end": 846,
      "Ġtruth": 847,
      "Ġwom": 848,
      "Ġsc": 849,
      "Ġjud": 850,
      "ĠFather": 851,
      "He": 852,
      "Ġbrought": 853,
      "ĠThey": 854,
      "Ġindeed": 855,
      "Ġhimself": 856,
      "Ġhouse": 857,
      "Ġdisciples": 858,
      "ĠYou": 859,
      "Ġtake": 860,
      "ink": 861,
      "hold": 862,
      "ort": 863,
      "ĠSign": 864,
      "ĠTruth": 865,
      "ĠBe": 866,
      "ations": 867,
      "oly": 868,
      "ised": 869,
      "Ġspeak": 870,
      "Ġdi": 871,
      "Ġgr": 872,
      "Ġthemselves": 873,
      "Ġange": 874,
      "Ġguid": 875,
      "Ġfather": 876,
      "Ġpass": 877,
      "Ġsurely": 878,
      "Ġte": 879,
      "ĠHell": 880,
      "Ġsub": 881,
      "able": 882,
      "Ġtwo": 883,
      "oh": 884,
      "edi": 885,
      "ĠPe": 886,
      "Ġrep": 887,
      "Ġbring": 888,
      "Ġra": 889,
      "Ġob": 890,
      "Ġking": 891,
      "ĠJew": 892,
      "uch": 893,
      "Ġcreat": 894,
      "Ġeat": 895,
      "iz": 896,
      "Ġforg": 897,
      "ĠMerc": 898,
      "Ġbeg": 899,
      "hing": 900,
      "Ġheard": 901,
      "Ġsuch": 902,
      "lp": 903,
      "Ġcertainly": 904,
      "Ġcl": 905,
      "Ġboth": 906,
      "Ġdead": 907,
      "ated": 908,
      "Ġhear": 909,
      "Ġwhile": 910,
      "aled": 911,
      "oin": 912,
      "Ġkeep": 913,
      "Ġpri": 914,
      "ĠQ": 915,
      "eds": 916,
      "thren": 917,
      "They": 918,
      "Ġrem": 919,
      "pen": 920,
      "ning": 921,
      "Ġpray": 922,
      "ĠThis": 923,
      "Ġtoward": 924,
      "Ġcont": 925,
      "vel": 926,
      "Ġden": 927,
      "Ġexcept": 928,
      "Ġcast": 929,
      "Ġused": 930,
      "hes": 931,
      "Ġwat": 932,
      "Ġmost": 933,
      "Ġdeath": 934,
      "Ġblessings": 935,
      "ull": 936,
      "ack": 937,
      "part": 938,
      "vid": 939,
      "Ġcha": 940,
      "Ġbrethren": 941,
      "Ġworship": 942,
      "wered": 943,
      "ĠIt": 944,
      "Ġwrong": 945,
      "eous": 946,
      "Ġhelp": 947,
      "Ġdays": 948,
      "Ġnothing": 949,
      "ĠSon": 950,
      "Ġyet": 951,
      "Ġim": 952,
      "Ġsou": 953,
      "ĠAllahs": 954,
      "Ġspirit": 955,
      "Ġhearts": 956,
      "ble": 957,
      "Ġanswered": 958,
      "ĠJews": 959,
      "Ġwit": 960,
      "ĠPha": 961,
      "ĠBut": 962,
      "ledge": 963,
      "oved": 964,
      "Ġchildren": 965,
      "Ġgra": 966,
      "Ġsaw": 967,
      "Ġheavens": 968,
      "aul": 969,
      "less": 970,
      "oc": 971,
      "Ġreward": 972,
      "Ġwithout": 973,
      "Ġset": 974,
      "Ġdest": 975,
      "Ġret": 976,
      "thing": 977,
      "Ġlove": 978,
      "Ġfirst": 979,
      "Ġrej": 980,
      "ĠCom": 981,
      "rise": 982,
      "af": 983,
      "Ġtook": 984,
      "ary": 985,
      "Now": 986,
      "ĠMy": 987,
      "Ġdeli": 988,
      "Ġdeeds": 989,
      "Ġknowledge": 990,
      "ress": 991,
      "Ġtak": 992,
      "ult": 993,
      "Ġtem": 994,
      "Ġey": 995,
      "Ġgave": 996,
      "Ġplace": 997,
      "ĠQur": 998,
      "Ġple": 999,
      "Ġpower": 1000,
      "Ġend": 1001,
      "ĠFor": 1002,
      "Ġlive": 1003,
      "ĠMusa": 1004,
      "soever": 1005,
      "Ġworks": 1006,
      "Ġprophe": 1007,
      "den": 1008,
      "Ġcomp": 1009,
      "Say": 1010,
      "Ġreve": 1011,
      "ĠQuran": 1012,
      "Ġbest": 1013,
      "illed": 1014,
      "Ġseek": 1015,
      "lig": 1016,
      "gether": 1017,
      "Ġbecome": 1018,
      "iving": 1019,
      "rib": 1020,
      "ĠOne": 1021,
      "Ġaccord": 1022,
      "Ġglory": 1023,
      "ms": 1024,
      "ĠHoly": 1025,
      "Ġsuff": 1026,
      "Ġbrother": 1027,
      "Ġrighteous": 1028,
      "Ġangels": 1029,
      "Ġdone": 1030,
      "ute": 1031,
      "Ġbelieved": 1032,
      "herefore": 1033,
      "use": 1034,
      "Ġpath": 1035,
      "oss": 1036,
      "ĠComm": 1037,
      "Ġtogether": 1038,
      "Ġbod": 1039,
      "Ġfound": 1040,
      "Ġcle": 1041,
      "Ġits": 1042,
      "ified": 1043,
      "Ġbelievers": 1044,
      "Ġkingdom": 1045,
      "ars": 1046,
      "Ġaff": 1047,
      "Ġservants": 1048,
      "Ġwitness": 1049,
      "Ġreturn": 1050,
      "sp": 1051,
      "Ġwork": 1052,
      "ond": 1053,
      "oub": 1054,
      "braham": 1055,
      "Ġback": 1056,
      "Ġmuch": 1057,
      "Ġseen": 1058,
      "Ġcreated": 1059,
      "Ġdr": 1060,
      "Ġtoo": 1061,
      "ĠAbraham": 1062,
      "Ġro": 1063,
      "Ġnight": 1064,
      "Ġhast": 1065,
      "Ġnever": 1066,
      "ĠSigns": 1067,
      "Ġguidance": 1068,
      "Ġpriest": 1069,
      "cre": 1070,
      "ove": 1071,
      "ĠU": 1072,
      "Ġhar": 1073,
      "ĠIf": 1074,
      "Ġname": 1075,
      "Ġland": 1076,
      "Ġyourselves": 1077,
      "Ġpromise": 1078,
      "aring": 1079,
      "lem": 1080,
      "Ġsend": 1081,
      "Ġjust": 1082,
      "Ġbes": 1083,
      "Ġtowards": 1084,
      "ify": 1085,
      "itud": 1086,
      "Ġrevealed": 1087,
      "age": 1088,
      "cl": 1089,
      "pe": 1090,
      "asure": 1091,
      "after": 1092,
      "Surely": 1093,
      "ndeed": 1094,
      "ering": 1095,
      "ĠPro": 1096,
      "Ver": 1097,
      "Ġdoub": 1098,
      "ĠHere": 1099,
      "ĠRevel": 1100,
      "lt": 1101,
      "Ġcity": 1102,
      "Ġpun": 1103,
      "Ġbel": 1104,
      "atter": 1105,
      "iful": 1106,
      "ĠJer": 1107,
      "Ġsins": 1108,
      "Ġjudg": 1109,
      "ĠPeter": 1110,
      "Ġaccording": 1111,
      "Ġopen": 1112,
      "Ġwhose": 1113,
      "Verily": 1114,
      "ces": 1115,
      "ild": 1116,
      "ens": 1117,
      "Ġlight": 1118,
      "Ġhigh": 1119,
      "ions": 1120,
      "Th": 1121,
      "That": 1122,
      "Ġpers": 1123,
      "Ġhands": 1124,
      "ared": 1125,
      "mit": 1126,
      "ĠPaul": 1127,
      "ruit": 1128,
      "ĠMessengers": 1129,
      "Ġwater": 1130,
      "ĠHereafter": 1131,
      "ner": 1132,
      "Ġsho": 1133,
      "ors": 1134,
      "Ġthing": 1135,
      "Ġstra": 1136,
      "ĠDo": 1137,
      "Ġbody": 1138,
      "Ġfind": 1139,
      "Ġfles": 1140,
      "Ġmind": 1141,
      "memb": 1142,
      "Ġdoes": 1143,
      "Ġchief": 1144,
      "Ġflesh": 1145,
      "When": 1146,
      "oice": 1147,
      "Ġpres": 1148,
      "usalem": 1149,
      "ĠCommand": 1150,
      "ĠJerusalem": 1151,
      "Ġid": 1152,
      "Ġgod": 1153,
      "alse": 1154,
      "Ġwhatever": 1155,
      "ob": 1156,
      "read": 1157,
      "Ġfalse": 1158,
      "ĠProphe": 1159,
      "cess": 1160,
      "ood": 1161,
      "ĠSp": 1162,
      "ie": 1163,
      "not": 1164,
      "Ġbehold": 1165,
      "ty": 1166,
      "Ġfull": 1167,
      "urre": 1168,
      "Ġstr": 1169,
      "aught": 1170,
      "Ġpunish": 1171,
      "Ġqu": 1172,
      "Ġpur": 1173,
      "Ġask": 1174,
      "Ġeyes": 1175,
      "Ġdoubt": 1176,
      "ĠWhat": 1177,
      "Ġcannot": 1178,
      "ally": 1179,
      "itude": 1180,
      "Ġhaving": 1181,
      "Ġever": 1182,
      "ased": 1183,
      "Ġdepart": 1184,
      "Ġtrue": 1185,
      "ck": 1186,
      "Ġfruit": 1187,
      "Ġpious": 1188,
      "ohn": 1189,
      "urrection": 1190,
      "oers": 1191,
      "ried": 1192,
      "Ġspake": 1193,
      "Who": 1194,
      "Ġexce": 1195,
      "Ġunderst": 1196,
      "ĠSpirit": 1197,
      "vour": 1198,
      "Ġmar": 1199,
      "bey": 1200,
      "Ġconf": 1201,
      "ision": 1202,
      "Ġcause": 1203,
      "Ġlook": 1204,
      "If": 1205,
      "ners": 1206,
      "ĠJohn": 1207,
      "Ġnew": 1208,
      "itten": 1209,
      "Ġidol": 1210,
      "til": 1211,
      "Ġtr": 1212,
      "iss": 1213,
      "ween": 1214,
      "Ġwritten": 1215,
      "Ġbetween": 1216,
      "ali": 1217,
      "Ġmatter": 1218,
      "orn": 1219,
      "Ġmother": 1220,
      "Ġknows": 1221,
      "Ġvi": 1222,
      "Ġremain": 1223,
      "Ġmult": 1224,
      "ick": 1225,
      "ized": 1226,
      "Ġrememb": 1227,
      "ĠWh": 1228,
      "Ġreceived": 1229,
      "ĠMercy": 1230,
      "Ġstraight": 1231,
      "ware": 1232,
      "ished": 1233,
      "Ġlong": 1234,
      "ĠThat": 1235,
      "Ġstand": 1236,
      "round": 1237,
      "for": 1238,
      "Ġint": 1239,
      "Ġexp": 1240,
      "Ġothers": 1241,
      "ĠRevelations": 1242,
      "Ġru": 1243,
      "Ġwife": 1244,
      "Ġsto": 1245,
      "Ġdue": 1246,
      "ĠSat": 1247,
      "alk": 1248,
      "roy": 1249,
      "Ġdrink": 1250,
      "fe": 1251,
      "vered": 1252,
      "Ġraised": 1253,
      "Ġwhoever": 1254,
      "eft": 1255,
      "Ġdestroy": 1256,
      "Ġvery": 1257,
      "aster": 1258,
      "Ġbetter": 1259,
      "ient": 1260,
      "Ġposs": 1261,
      "Ġlest": 1262,
      "Ġgri": 1263,
      "Ġhon": 1264,
      "Ġcometh": 1265,
      "Ġaccept": 1266,
      "Ġeverything": 1267,
      "Ġwa": 1268,
      "Ġfl": 1269,
      "ĠEver": 1270,
      "ĠNo": 1271,
      "Ġturned": 1272,
      "Ġwomen": 1273,
      "apt": 1274,
      "ia": 1275,
      "ph": 1276,
      "Ġful": 1277,
      "Ġmerc": 1278,
      "Ġpr": 1279,
      "Ġleft": 1280,
      "Ġcons": 1281,
      "Ġrepent": 1282,
      "ĠProphet": 1283,
      "umb": 1284,
      "Ġmin": 1285,
      "Ġmis": 1286,
      "Ġcould": 1287,
      "Ġnone": 1288,
      "ĠJud": 1289,
      "Ġwords": 1290,
      "ase": 1291,
      "of": 1292,
      "Ġver": 1293,
      "ates": 1294,
      "Ġshew": 1295,
      "Ġpunishment": 1296,
      "All": 1297,
      "ways": 1298,
      "ittle": 1299,
      "Ġappoin": 1300,
      "og": 1301,
      "oy": 1302,
      "Ġbear": 1303,
      "ĠAl": 1304,
      "ĠMary": 1305,
      "Ġwhole": 1306,
      "rael": 1307,
      "ĠIsrael": 1308,
      "Ġappe": 1309,
      "Ġresp": 1310,
      "ĠKnow": 1311,
      "Ġunderstand": 1312,
      "Ġmust": 1313,
      "Ġhum": 1314,
      "imon": 1315,
      "Ġcommit": 1316,
      "Ġwrongd": 1317,
      "Ġtaken": 1318,
      "ee": 1319,
      "fect": 1320,
      "Ġthi": 1321,
      "Ġfar": 1322,
      "arad": 1323,
      "ason": 1324,
      "Ġsupp": 1325,
      "ments": 1326,
      "Ġgrace": 1327,
      "This": 1328,
      "aradise": 1329,
      "ches": 1330,
      "ged": 1331,
      "per": 1332,
      "hether": 1333,
      "Ġlittle": 1334,
      "Ġfall": 1335,
      "Ġable": 1336,
      "ached": 1337,
      "Ġenter": 1338,
      "Ġtill": 1339,
      "ition": 1340,
      "Ġrest": 1341,
      "Ġdevil": 1342,
      "Ġthough": 1343,
      "Ġdeny": 1344,
      "Ġreject": 1345,
      "cer": 1346,
      "just": 1347,
      "row": 1348,
      "und": 1349,
      "yp": 1350,
      "Ġfore": 1351,
      "ark": 1352,
      "Ġhere": 1353,
      "thy": 1354,
      "Ġuntil": 1355,
      "riend": 1356,
      "ĠParadise": 1357,
      "Ġknown": 1358,
      "Ġord": 1359,
      "Ġgrant": 1360,
      "Ġdelivered": 1361,
      "Ġclear": 1362,
      "ĠSatan": 1363,
      "Ġpra": 1364,
      "Ġcommun": 1365,
      "ĠMerciful": 1366,
      "ual": 1367,
      "Ġkn": 1368,
      "Ġprov": 1369,
      "eloved": 1370,
      "Ġcommanded": 1371,
      "Ġrighteousness": 1372,
      "Ġsl": 1373,
      "Ġben": 1374,
      "ating": 1375,
      "Ġwills": 1376,
      "ĠBeloved": 1377,
      "Ġgosp": 1378,
      "Ġwoman": 1379,
      "Ġjudgment": 1380,
      "Ġgospel": 1381,
      "Ġsy": 1382,
      "Ġbu": 1383,
      "ities": 1384,
      "ener": 1385,
      "Ġpat": 1386,
      "Ġmeans": 1387,
      "Ġchar": 1388,
      "Ġfulf": 1389,
      "az": 1390,
      "igh": 1391,
      "Ġasked": 1392,
      "Ġshalt": 1393,
      "raoh": 1394,
      "Ġhold": 1395,
      "Ġtemple": 1396,
      "wise": 1397,
      "iness": 1398,
      "Ġbapt": 1399,
      "him": 1400,
      "Ġsea": 1401,
      "iles": 1402,
      "ĠPray": 1403,
      "Ġtrust": 1404,
      "ĠPharise": 1405,
      "Ġverily": 1406,
      "ail": 1407,
      "ĠGent": 1408,
      "Ġalways": 1409,
      "ighty": 1410,
      "Ġart": 1411,
      "Ġjudge": 1412,
      "Ġtell": 1413,
      "ligion": 1414,
      "ced": 1415,
      "Ġhour": 1416,
      "Ġdist": 1417,
      "well": 1418,
      "ible": 1419,
      "the": 1420,
      "Ġtre": 1421,
      "ory": 1422,
      "Ġmak": 1423,
      "ste": 1424,
      "Ġhyp": 1425,
      "Ġface": 1426,
      "Ġblessed": 1427,
      "ĠPharaoh": 1428,
      "ĠForg": 1429,
      "Ġmercy": 1430,
      "Ġappointed": 1431,
      "ĠGentiles": 1432,
      "ĠZ": 1433,
      "Ġdark": 1434,
      "host": 1435,
      "Ġfast": 1436,
      "Ġnear": 1437,
      "ately": 1438,
      "Ġhypoc": 1439,
      "Ġsat": 1440,
      "Ġsight": 1441,
      "Ġfriend": 1442,
      "omp": 1443,
      "Ġthink": 1444,
      "Ġread": 1445,
      "irc": 1446,
      "Ġspok": 1447,
      "Ġabove": 1448,
      "Ġfathers": 1449,
      "Ġforgiven": 1450,
      "Ġshow": 1451,
      "ught": 1452,
      "lee": 1453,
      "ĠIn": 1454,
      "ĠIndeed": 1455,
      "ĠSay": 1456,
      "Ġkill": 1457,
      "ĠDa": 1458,
      "Ġblood": 1459,
      "ĠThou": 1460,
      "brahim": 1461,
      "Ġbestow": 1462,
      "Ġbelong": 1463,
      "Ġbo": 1464,
      "Ġch": 1465,
      "Ġhid": 1466,
      "Ġsave": 1467,
      "ĠRes": 1468,
      "Ġknew": 1469,
      "Whi": 1470,
      "ched": 1471,
      "ĠVerily": 1472,
      "Ġter": 1473,
      "Ġast": 1474,
      "Ġwarn": 1475,
      "Ġwhether": 1476,
      "isdom": 1477,
      "Ġbli": 1478,
      "Ġcoming": 1479,
      "ĠJose": 1480,
      "sol": 1481,
      "Ġsoon": 1482,
      "Ġidols": 1483,
      "Ġwrongdoers": 1484,
      "Ġblind": 1485,
      "ix": 1486,
      "Ġtest": 1487,
      "Ġhead": 1488,
      "hood": 1489,
      "Ġchur": 1490,
      "ĠResurrection": 1491,
      "ĠJoseph": 1492,
      "Ġcount": 1493,
      "Ġpo": 1494,
      "ĠThere": 1495,
      "Ġlaid": 1496,
      "ĠBelie": 1497,
      "Ġspoken": 1498,
      "Be": 1499,
      "Ġtou": 1500,
      "Ġobey": 1501,
      "Ġfire": 1502,
      "Ġinter": 1503,
      "rison": 1504,
      "ountain": 1505,
      "Ġperfect": 1506,
      "Ġpreach": 1507,
      "ircum": 1508,
      "ea": 1509,
      "men": 1510,
      "ps": 1511,
      "Ġest": 1512,
      "ides": 1513,
      "ently": 1514,
      "ĠGhost": 1515,
      "Ġdoing": 1516,
      "Ġcompan": 1517,
      "bb": 1518,
      "Ġwalk": 1519,
      "Ġdwell": 1520,
      "ened": 1521,
      "str": 1522,
      "Ġunc": 1523,
      "ode": 1524,
      "Ġvoice": 1525,
      "Ġforgive": 1526,
      "Ġmultitude": 1527,
      "ĠPharisees": 1528,
      "ĠForgiving": 1529,
      "band": 1530,
      "ss": 1531,
      "Ġsign": 1532,
      "rew": 1533,
      "ister": 1534,
      "Ġbur": 1535,
      "Ġsal": 1536,
      "Ġhus": 1537,
      "alth": 1538,
      "Ġdef": 1539,
      "Ġdesire": 1540,
      "ĠUs": 1541,
      "Do": 1542,
      "In": 1543,
      "It": 1544,
      "Ġcho": 1545,
      "ĠLast": 1546,
      "Ġhope": 1547,
      "abl": 1548,
      "Ġdie": 1549,
      "edient": 1550,
      "Ġcontin": 1551,
      "Ġstood": 1552,
      "ĠKnowing": 1553,
      "Jesus": 1554,
      "Wherefore": 1555,
      "Ġwisdom": 1556,
      "ĠIbrahim": 1557,
      "Ġsel": 1558,
      "Ġmanif": 1559,
      "Ġbegan": 1560,
      "Ġpossess": 1561,
      "Ġhusband": 1562,
      "Ġap": 1563,
      "Ġsm": 1564,
      "Ġship": 1565,
      "ites": 1566,
      "Ġreg": 1567,
      "Ġfavour": 1568,
      "ardens": 1569,
      "Ġwhy": 1570,
      "Ġholy": 1571,
      "Ġbread": 1572,
      "Ġsubmit": 1573,
      "Ġgrie": 1574,
      "ured": 1575,
      "ority": 1576,
      "Ġfight": 1577,
      "Ġmountain": 1578,
      "tern": 1579,
      "ĠPres": 1580,
      "Ġkept": 1581,
      "Ġpriests": 1582,
      "Ġdeparted": 1583,
      "ĠPrayer": 1584,
      "ined": 1585,
      "Ġmor": 1586,
      "Ġtown": 1587,
      "Ġlay": 1588,
      "Ġwealth": 1589,
      "Ġmanner": 1590,
      "Ġfact": 1591,
      "Ġfeet": 1592,
      "Ġsoul": 1593,
      "Ġtrans": 1594,
      "ĠWhy": 1595,
      "Allah": 1596,
      "ience": 1597,
      "vere": 1598,
      "Ġcar": 1599,
      "Ġkind": 1600,
      "Ġyears": 1601,
      "Ġprophets": 1602,
      "Ġaffli": 1603,
      "ield": 1604,
      "ĠBelievers": 1605,
      "There": 1606,
      "ited": 1607,
      "ĠMus": 1608,
      "rog": 1609,
      "Ġste": 1610,
      "Ġenem": 1611,
      "Ġfirm": 1612,
      "ĠPresence": 1613,
      "Therefore": 1614,
      "ken": 1615,
      "med": 1616,
      "att": 1617,
      "Ġsac": 1618,
      "ĠWhen": 1619,
      "ĠWise": 1620,
      "ĠGl": 1621,
      "Ġabode": 1622,
      "Ġdesp": 1623,
      "Ġentered": 1624,
      "Ġapost": 1625,
      "ned": 1626,
      "Ġpa": 1627,
      "Ġprison": 1628,
      "Ġgener": 1629,
      "Ġass": 1630,
      "cted": 1631,
      "ĠDin": 1632,
      "Ġfell": 1633,
      "Ġprof": 1634,
      "Ġliving": 1635,
      "Ġgreater": 1636,
      "Ġgods": 1637,
      "oud": 1638,
      "Ġinf": 1639,
      "Ġthine": 1640,
      "Ġforb": 1641,
      "Ġref": 1642,
      "ift": 1643,
      "Ġdisp": 1644,
      "Ġconcer": 1645,
      "Ġfollowed": 1646,
      "Ġreturned": 1647,
      "ircumc": 1648,
      "ĠMusli": 1649,
      "mon": 1650,
      "miss": 1651,
      "Ġsecre": 1652,
      "alted": 1653,
      "Ġneed": 1654,
      "Ġimm": 1655,
      "Ġsuffer": 1656,
      "Ġhypocr": 1657,
      "Ġtri": 1658,
      "Ġsw": 1659,
      "Ġsake": 1660,
      "ĠGali": 1661,
      "Ġdev": 1662,
      "ĠCa": 1663,
      "Ġanyone": 1664,
      "aste": 1665,
      "Ġatt": 1666,
      "Ġrather": 1667,
      "Ġansw": 1668,
      "Ġpassed": 1669,
      "Ġthir": 1670,
      "ma": 1671,
      "ting": 1672,
      "reation": 1673,
      "its": 1674,
      "Ġcoun": 1675,
      "Ġthree": 1676,
      "right": 1677,
      "Ġdisob": 1678,
      "Ġaccount": 1679,
      "Ġpartners": 1680,
      "vided": 1681,
      "ĠDavid": 1682,
      "Ġmanifest": 1683,
      "ap": 1684,
      "ub": 1685,
      "ang": 1686,
      "Ġones": 1687,
      "ained": 1688,
      "Ġimp": 1689,
      "Ġwait": 1690,
      "Ġdarkness": 1691,
      "Have": 1692,
      "ai": 1693,
      "ng": 1694,
      "ror": 1695,
      "Ġbound": 1696,
      "ĠAd": 1697,
      "Ġreason": 1698,
      "Ġsep": 1699,
      "pped": 1700,
      "Ġleave": 1701,
      "ĠReligion": 1702,
      "Ġcond": 1703,
      "Ġnews": 1704,
      "ili": 1705,
      "ues": 1706,
      "Ġali": 1707,
      "Ġsaved": 1708,
      "ĠHow": 1709,
      "Ġwhosoever": 1710,
      "Ġseven": 1711,
      "ility": 1712,
      "Ġanything": 1713,
      "Ġjoy": 1714,
      "Ġdesi": 1715,
      "agog": 1716,
      "edience": 1717,
      "ribes": 1718,
      "Ġrepentance": 1719,
      "Ġpatience": 1720,
      "Ġfulfilled": 1721,
      "Ġestabl": 1722,
      "We": 1723,
      "ject": 1724,
      "ser": 1725,
      "Ġtong": 1726,
      "Ġact": 1727,
      "Ġsor": 1728,
      "ought": 1729,
      "ert": 1730,
      "ones": 1731,
      "cend": 1732,
      "lic": 1733,
      "ript": 1734,
      "Ġmeat": 1735,
      "ants": 1736,
      "osed": 1737,
      "Ġdisbelief": 1738,
      "ounty": 1739,
      "Ġteach": 1740,
      "Ġexcell": 1741,
      "Ġpraise": 1742,
      "Which": 1743,
      "Ġastray": 1744,
      "Ġforbid": 1745,
      "uff": 1746,
      "Ġtree": 1747,
      "hered": 1748,
      "reth": 1749,
      "Ġold": 1750,
      "Ġdire": 1751,
      "enance": 1752,
      "irs": 1753,
      "Ġstre": 1754,
      "uthority": 1755,
      "ĠYour": 1756,
      "Ġadv": 1757,
      "Ġlead": 1758,
      "Ġarrog": 1759,
      "Ġprophet": 1760,
      "Ġperson": 1761,
      "Ġpresent": 1762,
      "Ġhonour": 1763,
      "Ġbelongs": 1764,
      "As": 1765,
      "ial": 1766,
      "Ġer": 1767,
      "Ġcur": 1768,
      "Ġtold": 1769,
      "hind": 1770,
      "Ġbehind": 1771,
      "ĠSimon": 1772,
      "ĠMaster": 1773,
      "ific": 1774,
      "Ġsuc": 1775,
      "ames": 1776,
      "ĠFire": 1777,
      "ctions": 1778,
      "ĠIsa": 1779,
      "Ġforgiveness": 1780,
      "Ġchurch": 1781,
      "Let": 1782,
      "nagog": 1783,
      "Ġfree": 1784,
      "Ġcor": 1785,
      "Ġpay": 1786,
      "Ġget": 1787,
      "ĠMe": 1788,
      "Ġstri": 1789,
      "Ġext": 1790,
      "amed": 1791,
      "Ġthanks": 1792,
      "Ġglad": 1793,
      "Ġprep": 1794,
      "Ġhard": 1795,
      "Ġdestroyed": 1796,
      "ĠAlm": 1797,
      "Ġsynagog": 1798,
      "Ġconcerning": 1799,
      "ĠMuslims": 1800,
      "Ġhypocrites": 1801,
      "ĠGalilee": 1802,
      "ec": 1803,
      "gy": 1804,
      "Ġapart": 1805,
      "Ġwise": 1806,
      "Ġma": 1807,
      "race": 1808,
      "Ġears": 1809,
      "Ġsouls": 1810,
      "Ġbesides": 1811,
      "Ġrejected": 1812,
      "ĠAlmighty": 1813,
      "ilt": 1814,
      "ĠPil": 1815,
      "Ġsust": 1816,
      "Ġremember": 1817,
      "Ġbenef": 1818,
      "ian": 1819,
      "oe": 1820,
      "Ġswe": 1821,
      "outh": 1822,
      "Ġfilled": 1823,
      "Ġmag": 1824,
      "Ġmouth": 1825,
      "Ġcru": 1826,
      "Ġut": 1827,
      "Ġgone": 1828,
      "ention": 1829,
      "ĠWarn": 1830,
      "als": 1831,
      "Ġsold": 1832,
      "rupt": 1833,
      "Ġexam": 1834,
      "Ġsons": 1835,
      "Ġscribes": 1836,
      "ring": 1837,
      "uf": 1838,
      "ying": 1839,
      "Ġwind": 1840,
      "Ġsick": 1841,
      "Ġcried": 1842,
      "Ġpure": 1843,
      "ote": 1844,
      "Ġsun": 1845,
      "Ġworthy": 1846,
      "Ġabund": 1847,
      "Ġseeing": 1848,
      "Ġspend": 1849,
      "Ġforever": 1850,
      "Indeed": 1851,
      "rance": 1852,
      "uh": 1853,
      "up": 1854,
      "Ġtaught": 1855,
      "uring": 1856,
      "Ġmeet": 1857,
      "Ġwors": 1858,
      "ediately": 1859,
      "ock": 1860,
      "ĠNoah": 1861,
      "Ġbaptized": 1862,
      "Ġill": 1863,
      "ins": 1864,
      "Ġside": 1865,
      "rer": 1866,
      "Ġmine": 1867,
      "Ġchan": 1868,
      "Ġins": 1869,
      "otect": 1870,
      "Ġev": 1871,
      "Ġreal": 1872,
      "Ġsabb": 1873,
      "Ġunjust": 1874,
      "Ġonce": 1875,
      "Ġfam": 1876,
      "Ġthought": 1877,
      "Ġwrath": 1878,
      "Ġpreached": 1879,
      "Ġtempt": 1880,
      "Ġappear": 1881,
      "Ġsacr": 1882,
      "Ġapostles": 1883,
      "Ġsustenance": 1884,
      "Ġworshi": 1885,
      "Ġsabbath": 1886,
      "ians": 1887,
      "Ġsk": 1888,
      "Ġopp": 1889,
      "ists": 1890,
      "Ġeld": 1891,
      "ĠAs": 1892,
      "ents": 1893,
      "usuf": 1894,
      "Ġsec": 1895,
      "ives": 1896,
      "Ġwhatsoever": 1897,
      "Ġprostr": 1898,
      "emed": 1899,
      "Ġglorify": 1900,
      "Ġangel": 1901,
      "Ġpleased": 1902,
      "ternal": 1903,
      "Ġimmediately": 1904,
      "ripture": 1905,
      "kind": 1906,
      "Ġauthority": 1907,
      "Ġpoly": 1908,
      "verse": 1909,
      "ĠHer": 1910,
      "ĠHour": 1911,
      "Ġseed": 1912,
      "Ġstate": 1913,
      "icient": 1914,
      "Ġpromised": 1915,
      "Ġgranted": 1916,
      "Ġpolythe": 1917,
      "ling": 1918,
      "te": 1919,
      "Ġought": 1920,
      "Ġcro": 1921,
      "semb": 1922,
      "Ġlast": 1923,
      "Ġgat": 1924,
      "ĠAn": 1925,
      "Ġform": 1926,
      "used": 1927,
      "ĠJac": 1928,
      "Ġmyself": 1929,
      "Ġexalted": 1930,
      "Ġworldly": 1931,
      "Ġfool": 1932,
      "Ġperse": 1933,
      "Ġlawful": 1934,
      "Ġdenied": 1935,
      "Ġdeliver": 1936,
      "Ġpleasure": 1937,
      "ĠJacob": 1938,
      "Or": 1939,
      "To": 1940,
      "fast": 1941,
      "gress": 1942,
      "Ġdif": 1943,
      "Ġcreation": 1944,
      "Ġeternal": 1945,
      "Ġweak": 1946,
      "Ġcomes": 1947,
      "Ġdecl": 1948,
      "Ġmankind": 1949,
      "Ġmeasure": 1950,
      "soci": 1951,
      "ize": 1952,
      "Ġbegin": 1953,
      "Ġbeloved": 1954,
      "Ġexceed": 1955,
      "Ġcommitted": 1956,
      "Ġcountry": 1957,
      "Ġself": 1958,
      "Ġsecret": 1959,
      "Ġsuccess": 1960,
      "aim": 1961,
      "cc": 1962,
      "Ġtrou": 1963,
      "Ġtaste": 1964,
      "Ġinc": 1965,
      "Ġinher": 1966,
      "Ġincre": 1967,
      "Ġel": 1968,
      "uted": 1969,
      "ĠOn": 1970,
      "elve": 1971,
      "Ġparty": 1972,
      "itting": 1973,
      "Ġscripture": 1974,
      "Ġspiritual": 1975,
      "Ġdevils": 1976,
      "Ġorder": 1977,
      "Ġbuild": 1978,
      "Ġbestowed": 1979,
      "opt": 1980,
      "oic": 1981,
      "ĠV": 1982,
      "Ġes": 1983,
      "Ġrise": 1984,
      "hose": 1985,
      "leep": 1986,
      "ases": 1987,
      "Ġassoci": 1988,
      "Ġseized": 1989,
      "Ġdec": 1990,
      "iled": 1991,
      "Ġstone": 1992,
      "Ġspread": 1993,
      "Ġfeel": 1994,
      "asts": 1995,
      "ĠThese": 1996,
      "Ġguard": 1997,
      "Ġtwelve": 1998,
      "Ġclot": 1999,
      "Ġopened": 2000,
      "Ġminister": 2001,
      "Ġhuman": 2002,
      "Ġdisobedient": 2003,
      "ĠHerod": 2004,
      "Ġtra": 2005,
      "Ġaro": 2006,
      "Ġlord": 2007,
      "ĠLot": 2008,
      "Ġalread": 2009,
      "Ġfab": 2010,
      "imes": 2011,
      "Ġbecame": 2012,
      "Ġworlds": 2013,
      "ĠKind": 2014,
      "Ġremembrance": 2015,
      "Ġintend": 2016,
      "Ġburden": 2017,
      "Ġutter": 2018,
      "Ġgathered": 2019,
      "Ġinherit": 2020,
      "Ġarose": 2021,
      "Ġalready": 2022,
      "Ye": 2023,
      "aves": 2024,
      "vation": 2025,
      "Ġve": 2026,
      "Ġfix": 2027,
      "Ġcal": 2028,
      "Ġcircumc": 2029,
      "Ġlust": 2030,
      "Ġfew": 2031,
      "ĠYusuf": 2032,
      "Ġthyself": 2033,
      "Ġwhereas": 2034,
      "Ġguided": 2035,
      "Ġdestru": 2036,
      "Ġviol": 2037,
      "solute": 2038,
      "Ġmountains": 2039,
      "Ġtransgress": 2040,
      "Ġcruc": 2041,
      "chi": 2042,
      "ten": 2043,
      "vi": 2044,
      "reme": 2045,
      "Ġbro": 2046,
      "Ġbond": 2047,
      "Ġfour": 2048,
      "Ġdaught": 2049,
      "Ġlab": 2050,
      "ĠGardens": 2051,
      "ĠPower": 2052,
      "ĠBounty": 2053,
      "Ġheavenly": 2054,
      "ĠNuh": 2055,
      "Ġblessing": 2056,
      "Ġbetray": 2057,
      "Ġtruthful": 2058,
      "Ġdiv": 2059,
      "ĠPeople": 2060,
      "Ġobedience": 2061,
      "Ġmatters": 2062,
      "Ġrun": 2063,
      "ĠJuda": 2064,
      "Ġfriends": 2065,
      "la": 2066,
      "sen": 2067,
      "uid": 2068,
      "lled": 2069,
      "Ġmid": 2070,
      "Ġcour": 2071,
      "Ġpar": 2072,
      "Ġnamed": 2073,
      "Ġlist": 2074,
      "Ġgiving": 2075,
      "ĠGo": 2076,
      "ric": 2077,
      "Ġprovided": 2078,
      "Ġjoin": 2079,
      "These": 2080,
      "ĠEgy": 2081,
      "areth": 2082,
      "Ġadmon": 2083,
      "Ġmighty": 2084,
      "Ġlikewise": 2085,
      "Ġrul": 2086,
      "ĠBehold": 2087,
      "Ġsought": 2088,
      "Ġstrong": 2089,
      "Ġmorning": 2090,
      "Ġalive": 2091,
      "ĠEgypt": 2092,
      "What": 2093,
      "ber": 2094,
      "Ġdra": 2095,
      "ons": 2096,
      "hild": 2097,
      "omin": 2098,
      "Ġemb": 2099,
      "Ġground": 2100,
      "Ġbecom": 2101,
      "Ġlie": 2102,
      "Ġvain": 2103,
      "Ġadopt": 2104,
      "Ġran": 2105,
      "lessed": 2106,
      "Ġpersist": 2107,
      "Ġuncle": 2108,
      "Ġchosen": 2109,
      "Ġprofit": 2110,
      "Ġestablish": 2111,
      "Ġbenefit": 2112,
      "Ġevild": 2113,
      "Ġelders": 2114,
      "hildren": 2115,
      "fort": 2116,
      "ier": 2117,
      "Ġign": 2118,
      "Ġwar": 2119,
      "Ġmo": 2120,
      "Ġduring": 2121,
      "ont": 2122,
      "Ġyoung": 2123,
      "ĠAware": 2124,
      "icked": 2125,
      "tained": 2126,
      "rents": 2127,
      "ĠEste": 2128,
      "Ġrich": 2129,
      "Ġadd": 2130,
      "Ġfearing": 2131,
      "Ġcommandment": 2132,
      "Ġenj": 2133,
      "Ġprayer": 2134,
      "Ġfruits": 2135,
      "Ġpoor": 2136,
      "ĠEsteemed": 2137,
      "iv": 2138,
      "last": 2139,
      "man": 2140,
      "Ġsit": 2141,
      "orious": 2142,
      "ution": 2143,
      "Ġsain": 2144,
      "raid": 2145,
      "Ġmean": 2146,
      "Ġdoct": 2147,
      "ĠChildren": 2148,
      "Ġfellow": 2149,
      "Ġafraid": 2150,
      "reng": 2151,
      "Ġwherein": 2152,
      "Ġappro": 2153,
      "Ġarm": 2154,
      "ĠKing": 2155,
      "Ġflow": 2156,
      "Ġsalvation": 2157,
      "ĠCaes": 2158,
      "Ġdirection": 2159,
      "Ġerror": 2160,
      "ĠPilate": 2161,
      "Ġpolytheists": 2162,
      "Ġpersec": 2163,
      "Ġfixed": 2164,
      "either": 2165,
      "iers": 2166,
      "min": 2167,
      "ually": 2168,
      "Ġmon": 2169,
      "Ġpal": 2170,
      "Ġinjust": 2171,
      "ompen": 2172,
      "Ġhapp": 2173,
      "Ġlim": 2174,
      "Ġgre": 2175,
      "ĠAr": 2176,
      "Ġtherein": 2177,
      "Ġstreng": 2178,
      "aced": 2179,
      "Ġearn": 2180,
      "ĠYe": 2181,
      "Ġfoot": 2182,
      "Ġgives": 2183,
      "Ġsubject": 2184,
      "Ġraise": 2185,
      "Ġeye": 2186,
      "Ġstanding": 2187,
      "Ġminist": 2188,
      "Ġcondem": 2189,
      "Ġfamily": 2190,
      "Ġignor": 2191,
      "Ġsaints": 2192,
      "Ġinjustice": 2193,
      "How": 2194,
      "day": 2195,
      "sed": 2196,
      "xcept": 2197,
      "Ġsil": 2198,
      "Ġdoth": 2199,
      "Ġnigh": 2200,
      "Ġequ": 2201,
      "Ġled": 2202,
      "Ġrebe": 2203,
      "Ġcomple": 2204,
      "ĠWell": 2205,
      "Ġstay": 2206,
      "oney": 2207,
      "ouses": 2208,
      "Ġsheep": 2209,
      "Ġfaithful": 2210,
      "Ġaccomp": 2211,
      "Ġobser": 2212,
      "Ġcloud": 2213,
      "ully": 2214,
      "Ġquest": 2215,
      "Ġprotect": 2216,
      "Ġhumili": 2217,
      "Ġsubmitted": 2218,
      "Ġprepared": 2219,
      "Ġfabric": 2220,
      "Ġdestruction": 2221,
      "By": 2222,
      "Ġris": 2223,
      "Ġwant": 2224,
      "Ġsan": 2225,
      "Ġbir": 2226,
      "Ġhealed": 2227,
      "ching": 2228,
      "ĠSuff": 2229,
      "ĠLut": 2230,
      "Ġdep": 2231,
      "ĠHearing": 2232,
      "ety": 2233,
      "antly": 2234,
      "Ġsinners": 2235,
      "ertainly": 2236,
      "ĠNow": 2237,
      "rying": 2238,
      "Ġrecord": 2239,
      "Ġrecompen": 2240,
      "Ġbegat": 2241,
      "Ġprayed": 2242,
      "Ġrejoice": 2243,
      "Ġready": 2244,
      "Ġexcellent": 2245,
      "Ġdoctr": 2246,
      "liness": 2247,
      "old": 2248,
      "with": 2249,
      "ze": 2250,
      "Ġround": 2251,
      "Ġwives": 2252,
      "Ġwicked": 2253,
      "inn": 2254,
      "Ġsom": 2255,
      "Ġsim": 2256,
      "Ġfield": 2257,
      "Ġdied": 2258,
      "hili": 2259,
      "seen": 2260,
      "Ġele": 2261,
      "light": 2262,
      "Ġkilled": 2263,
      "Ġdece": 2264,
      "Ġourselves": 2265,
      "Ġlearn": 2266,
      "umber": 2267,
      "Ġrespect": 2268,
      "Ġunderstanding": 2269,
      "Ġpreaching": 2270,
      "Ġthird": 2271,
      "Ġsynagogue": 2272,
      "Ġmagic": 2273,
      "Ġexample": 2274,
      "Ġassociate": 2275,
      "ĠJudaea": 2276,
      "Ġunclean": 2277,
      "ear": 2278,
      "pet": 2279,
      "ret": 2280,
      "Ġborn": 2281,
      "Ġfive": 2282,
      "Ġpie": 2283,
      "ater": 2284,
      "Ġthr": 2285,
      "Ġthus": 2286,
      "Ġeach": 2287,
      "get": 2288,
      "Ġvir": 2289,
      "Ġdisbelieve": 2290,
      "Ġsomeone": 2291,
      "Ġguide": 2292,
      "Ġharm": 2293,
      "form": 2294,
      "Ġmischi": 2295,
      "Ġcommunic": 2296,
      "Ġcharity": 2297,
      "Ġcontinue": 2298,
      "uredly": 2299,
      "Ġstead": 2300,
      "Ġparents": 2301,
      "Ġcorrupt": 2302,
      "ĠWarner": 2303,
      "Ġsky": 2304,
      "Ġbeginning": 2305,
      "Ġesc": 2306,
      "ile": 2307,
      "kes": 2308,
      "ued": 2309,
      "vous": 2310,
      "Ġwild": 2311,
      "ough": 2312,
      "Ġdri": 2313,
      "Ġpub": 2314,
      "Ġheld": 2315,
      "Ġlost": 2316,
      "Ġgain": 2317,
      "ĠAre": 2318,
      "Ġrel": 2319,
      "Ġreached": 2320,
      "Ġhouses": 2321,
      "Ġsevere": 2322,
      "rol": 2323,
      "Ġgoing": 2324,
      "ets": 2325,
      "aces": 2326,
      "ateful": 2327,
      "Ġjinn": 2328,
      "ams": 2329,
      "Ġdisbelieved": 2330,
      "Ġriches": 2331,
      "ceived": 2332,
      "Ġturning": 2333,
      "Ġsubmiss": 2334,
      "Ġrejoic": 2335,
      "Ġsuffered": 2336,
      "Ġfalsehood": 2337,
      "Ġpurp": 2338,
      "Ġvict": 2339,
      "Ġterm": 2340,
      "Ġcompany": 2341,
      "attle": 2342,
      "Ġanswer": 2343,
      "Ġextreme": 2344,
      "Ġevildoers": 2345,
      "Those": 2346,
      "cy": 2347,
      "vail": 2348,
      "Ġoath": 2349,
      "Ġocc": 2350,
      "Ġnumber": 2351,
      "Ġgift": 2352,
      "stru": 2353,
      "ĠAb": 2354,
      "ĠHave": 2355,
      "irac": 2356,
      "ĠJames": 2357,
      "Ġcare": 2358,
      "Ġmemb": 2359,
      "Ġfeast": 2360,
      "Ġthence": 2361,
      "oke": 2362,
      "ĠEli": 2363,
      "Ġserve": 2364,
      "Ġcoven": 2365,
      "Ġresurrection": 2366,
      "Ġhearing": 2367,
      "Saying": 2368,
      "Ġclean": 2369,
      "Ġwitnesses": 2370,
      "Ġrespite": 2371,
      "Ġenemy": 2372,
      "ĠGlorious": 2373,
      "Ġtongue": 2374,
      "Ġsanct": 2375,
      "Ġmischief": 2376,
      "cha": 2377,
      "ib": 2378,
      "lam": 2379,
      "vy": 2380,
      "ism": 2381,
      "ising": 2382,
      "Ġburn": 2383,
      "oured": 2384,
      "Ġmoney": 2385,
      "Ġcut": 2386,
      "Ġheed": 2387,
      "Ġeas": 2388,
      "Ġred": 2389,
      "Ġhome": 2390,
      "ĠSee": 2391,
      "Ġshare": 2392,
      "vent": 2393,
      "Ġcapt": 2394,
      "ulch": 2395,
      "ourne": 2396,
      "Ġjourne": 2397,
      "Ġshort": 2398,
      "ĠHimself": 2399,
      "Ġhelper": 2400,
      "Ġbene": 2401,
      "Ġregard": 2402,
      "Ġtrial": 2403,
      "Ġsepulch": 2404,
      "Ġcurse": 2405,
      "ĠSufficient": 2406,
      "Ġrecompense": 2407,
      "Ġdoctrine": 2408,
      "Ġsteadfast": 2409,
      "Ġtimes": 2410,
      "Ġsound": 2411,
      "Ġsitting": 2412,
      "Ġbar": 2413,
      "Ġce": 2414,
      "Ġinm": 2415,
      "ats": 2416,
      "Ġloss": 2417,
      "ĠAmen": 2418,
      "Ġhund": 2419,
      "ĠSt": 2420,
      "ifice": 2421,
      "ĠLet": 2422,
      "iling": 2423,
      "ĠPhili": 2424,
      "ĠGodfe": 2425,
      "Ġfaces": 2426,
      "Ġvine": 2427,
      "Ġwrite": 2428,
      "arer": 2429,
      "Ġbreak": 2430,
      "Ġdescend": 2431,
      "Ġleast": 2432,
      "Ġrain": 2433,
      "ĠWhom": 2434,
      "Ġstraightway": 2435,
      "Ġprovision": 2436,
      "Ġsmall": 2437,
      "Ġgrievous": 2438,
      "Ġenemies": 2439,
      "Ġgeneration": 2440,
      "Ġswear": 2441,
      "Ġcourse": 2442,
      "Ġjourney": 2443,
      "Ġhundred": 2444,
      "ĠGodfearing": 2445,
      "No": 2446,
      "aut": 2447,
      "bit": 2448,
      "ging": 2449,
      "ias": 2450,
      "op": 2451,
      "uce": 2452,
      "Ġfur": 2453,
      "Ġpain": 2454,
      "Ġem": 2455,
      "Ġgar": 2456,
      "Ġgather": 2457,
      "ows": 2458,
      "Ġassemb": 2459,
      "ality": 2460,
      "Ġdisg": 2461,
      "cious": 2462,
      "Ġloved": 2463,
      "Ġperish": 2464,
      "Ġthank": 2465,
      "Ġoffend": 2466,
      "ages": 2467,
      "Ġfollowing": 2468,
      "Ġprovide": 2469,
      "Ġtreasure": 2470,
      "Ġmakes": 2471,
      "ĠZak": 2472,
      "Ġdesires": 2473,
      "rers": 2474,
      "Ġsecond": 2475,
      "Ġelse": 2476,
      "Ġcrucified": 2477,
      "Where": 2478,
      "ft": 2479,
      "gri": 2480,
      "ka": 2481,
      "lu": 2482,
      "Ġsleep": 2483,
      "Ġow": 2484,
      "Ġda": 2485,
      "Ġinv": 2486,
      "ari": 2487,
      "Ġeither": 2488,
      "Ġevid": 2489,
      "Ġlose": 2490,
      "Ġuni": 2491,
      "ĠSha": 2492,
      "Ġyea": 2493,
      "Ġstill": 2494,
      "Ġknowing": 2495,
      "unity": 2496,
      "Ġbelieveth": 2497,
      "Ġturns": 2498,
      "ĠIslam": 2499,
      "Ġglorified": 2500,
      "Ġenc": 2501,
      "Ġoblig": 2502,
      "Ġconfir": 2503,
      "Ġshewed": 2504,
      "Ġdistress": 2505,
      "Ġwaiting": 2506,
      "Ġadvice": 2507,
      "ĠIsaac": 2508,
      "Ġworshipped": 2509,
      "Ġmidst": 2510,
      "Ġpurpose": 2511,
      "Ġcovenant": 2512,
      "Ġinmates": 2513,
      "Not": 2514,
      "On": 2515,
      "cus": 2516,
      "fully": 2517,
      "lom": 2518,
      "mad": 2519,
      "obey": 2520,
      "pes": 2521,
      "uham": 2522,
      "Ġtid": 2523,
      "Ġwine": 2524,
      "Ġmur": 2525,
      "Ġmirac": 2526,
      "Ġdust": 2527,
      "Ġheal": 2528,
      "Ġlif": 2529,
      "stem": 2530,
      "vern": 2531,
      "Ġrequ": 2532,
      "Ġweep": 2533,
      "Ġdoeth": 2534,
      "Ġdisobey": 2535,
      "Ġstart": 2536,
      "Ġstones": 2537,
      "ĠSolom": 2538,
      "Ġcalling": 2539,
      "Ġsince": 2540,
      "Ġadmit": 2541,
      "Ġoffer": 2542,
      "Ġwomb": 2543,
      "Ġeverlast": 2544,
      "Ġaccepted": 2545,
      "Ġmaking": 2546,
      "ĠAdam": 2547,
      "Ġoppress": 2548,
      "Ġfoolish": 2549,
      "Ġexceeding": 2550,
      "Ġaccompl": 2551,
      "Ġsepulchre": 2552,
      "Ġuniverse": 2553,
      "uhammad": 2554,
      "Ġtidings": 2555,
      "Ġeverlasting": 2556,
      "Neither": 2557,
      "crib": 2558,
      "ip": 2559,
      "over": 2560,
      "sand": 2561,
      "Ġtar": 2562,
      "Ġsing": 2563,
      "velled": 2564,
      "ening": 2565,
      "Ġpast": 2566,
      "Ġnat": 2567,
      "Ġuse": 2568,
      "Ġlow": 2569,
      "owed": 2570,
      "Ġreach": 2571,
      "lied": 2572,
      "Ġwithin": 2573,
      "ĠMak": 2574,
      "ĠMuhammad": 2575,
      "Ġdoor": 2576,
      "ils": 2577,
      "ulter": 2578,
      "erses": 2579,
      "Ġknoweth": 2580,
      "Ġthousand": 2581,
      "Ġexh": 2582,
      "Ġproof": 2583,
      "Ġvis": 2584,
      "ortion": 2585,
      "Ġsuffering": 2586,
      "ĠUm": 2587,
      "Ġbesee": 2588,
      "ĠProphethood": 2589,
      "ĠGlory": 2590,
      "Ġarrogance": 2591,
      "Ġsacrifice": 2592,
      "ĠVerses": 2593,
      "Ġmembers": 2594,
      "aving": 2595,
      "dden": 2596,
      "vol": 2597,
      "yond": 2598,
      "Ġtal": 2599,
      "ining": 2600,
      "orah": 2601,
      "ery": 2602,
      "erness": 2603,
      "Ġdam": 2604,
      "ots": 2605,
      "Ġless": 2606,
      "Ġlos": 2607,
      "Ġforward": 2608,
      "ĠWord": 2609,
      "mend": 2610,
      "Ġcomfort": 2611,
      "Ġdeep": 2612,
      "Ġsudden": 2613,
      "ively": 2614,
      "ĠBest": 2615,
      "Ġgovern": 2616,
      "Ġabide": 2617,
      "ĠDid": 2618,
      "ung": 2619,
      "Ġbrings": 2620,
      "Ġspeci": 2621,
      "Ġadulter": 2622,
      "Ġways": 2623,
      "Ġspeaketh": 2624,
      "Ġwronged": 2625,
      "Ġbesought": 2626,
      "feren": 2627,
      "Ġhidden": 2628,
      "Ġtestimon": 2629,
      "Ġtouched": 2630,
      "Ġinterp": 2631,
      "Ġintercess": 2632,
      "Ġsigns": 2633,
      "Ġdesired": 2634,
      "Ġcircumcision": 2635,
      "Ġlabour": 2636,
      "Ġparable": 2637,
      "Ġlimits": 2638,
      "Ġquestion": 2639,
      "ĠElias": 2640,
      "ĠSolomon": 2641,
      "aven": 2642,
      "bu": 2643,
      "ech": 2644,
      "na": 2645,
      "ys": 2646,
      "Ġves": 2647,
      "Ġwilt": 2648,
      "Ġfin": 2649,
      "Ġdomin": 2650,
      "Ġcol": 2651,
      "eness": 2652,
      "onour": 2653,
      "Ġhen": 2654,
      "Ġgardens": 2655,
      "asphe": 2656,
      "ĠWhere": 2657,
      "ĠSa": 2658,
      "ĠSam": 2659,
      "ĠMighty": 2660,
      "ĠTake": 2661,
      "aded": 2662,
      "Ġmere": 2663,
      "Ġgold": 2664,
      "ething": 2665,
      "Ġconce": 2666,
      "Ġblasphe": 2667,
      "cience": 2668,
      "Ġoffered": 2669,
      "ĠPeace": 2670,
      "Ġaffa": 2671,
      "Ġjustice": 2672,
      "Ġjustified": 2673,
      "ĠRevelation": 2674,
      "theless": 2675,
      "Ġwarning": 2676,
      "Ġsepar": 2677,
      "Ġsorrow": 2678,
      "Ġbroken": 2679,
      "uidance": 2680,
      "Ġmonth": 2681,
      "Ġwilderness": 2682,
      "cribed": 2683,
      "ĠMakka": 2684,
      "Ġtestimony": 2685,
      "Ġvessel": 2686,
      "Even": 2687,
      "Except": 2688,
      "act": 2689,
      "aqu": 2690,
      "gin": 2691,
      "uc": 2692,
      "Ġed": 2693,
      "Ġtalk": 2694,
      "Ġaware": 2695,
      "ishes": 2696,
      "Ġmess": 2697,
      "Ġmock": 2698,
      "Ġdrew": 2699,
      "Ġtoday": 2700,
      "Ġpas": 2701,
      "Ġbef": 2702,
      "Ġbeha": 2703,
      "aron": 2704,
      "otten": 2705,
      "Ġeff": 2706,
      "Ġunseen": 2707,
      "Ġshad": 2708,
      "Ġspr": 2709,
      "abas": 2710,
      "ĠNor": 2711,
      "ĠNaz": 2712,
      "Ġplan": 2713,
      "Ġrecited": 2714,
      "Ġtruly": 2715,
      "Ġgrow": 2716,
      "Ġwatch": 2717,
      "ĠJudas": 2718,
      "Ġsystem": 2719,
      "Ġbold": 2720,
      "Ġanswering": 2721,
      "Ġcross": 2722,
      "Ġtroub": 2723,
      "Ġpersistently": 2724,
      "Ġobserve": 2725,
      "Ġrisen": 2726,
      "Ġsomething": 2727,
      "ĠPhilip": 2728,
      "Ġfurther": 2729,
      "Ġexhort": 2730,
      "ĠUmma": 2731,
      "Ġbeseech": 2732,
      "aqub": 2733,
      "fter": 2734,
      "pl": 2735,
      "ya": 2736,
      "Ġten": 2737,
      "Ġtab": 2738,
      "Ġtrib": 2739,
      "Ġwond": 2740,
      "Ġmention": 2741,
      "ense": 2742,
      "arun": 2743,
      "ĠAaron": 2744,
      "Ġhinder": 2745,
      "Ġrele": 2746,
      "Ġung": 2747,
      "ĠTru": 2748,
      "Ġcase": 2749,
      "Ġcaught": 2750,
      "Ġdise": 2751,
      "Ġthereof": 2752,
      "Ġneg": 2753,
      "eware": 2754,
      "Ġrecall": 2755,
      "Ġresid": 2756,
      "Ġrepro": 2757,
      "Ġtaking": 2758,
      "Ġdrown": 2759,
      "Ġquick": 2760,
      "Ġlooked": 2761,
      "Ġpossible": 2762,
      "Ġconscience": 2763,
      "Ġordained": 2764,
      "stead": 2765,
      "ompass": 2766,
      "Ġafflict": 2767,
      "Ġstreams": 2768,
      "Ġdifferen": 2769,
      "Ġclothes": 2770,
      "Ġlusts": 2771,
      "Ġdaughter": 2772,
      "Ġlisten": 2773,
      "ĠCaesar": 2774,
      "Ġstrength": 2775,
      "Ġrebell": 2776,
      "Ġpublic": 2777,
      "Ġextremely": 2778,
      "Ġencompass": 2779,
      "Ġlosers": 2780,
      "Ġhence": 2781,
      "by": 2782,
      "nic": 2783,
      "uard": 2784,
      "xt": 2785,
      "Ġactions": 2786,
      "Ġwid": 2787,
      "Ġsur": 2788,
      "Ġsix": 2789,
      "ises": 2790,
      "Ġbus": 2791,
      "oura": 2792,
      "Ġcent": 2793,
      "oning": 2794,
      "onia": 2795,
      "atch": 2796,
      "ider": 2797,
      "Ġrebu": 2798,
      "ĠSaul": 2799,
      "ĠTorah": 2800,
      "Ġseason": 2801,
      "ĠLight": 2802,
      "ters": 2803,
      "ĠBy": 2804,
      "ĠBarn": 2805,
      "ical": 2806,
      "Ġprosp": 2807,
      "abb": 2808,
      "Ġpartak": 2809,
      "Ġrecite": 2810,
      "Ġthroughout": 2811,
      "Ġdisciple": 2812,
      "Ġcontr": 2813,
      "Ġchast": 2814,
      "Ġtaketh": 2815,
      "ĠCommunity": 2816,
      "Ġstrang": 2817,
      "Ġtongues": 2818,
      "Ġprostrate": 2819,
      "viour": 2820,
      "Ġadmonition": 2821,
      "Ġdraw": 2822,
      "Ġmoon": 2823,
      "Ġcomplete": 2824,
      "Ġeasy": 2825,
      "Ġlifted": 2826,
      "ĠBarnabas": 2827,
      "Know": 2828,
      "iment": 2829,
      "lis": 2830,
      "oid": 2831,
      "rated": 2832,
      "wor": 2833,
      "yr": 2834,
      "Ġeng": 2835,
      "hest": 2836,
      "Ġage": 2837,
      "Ġwal": 2838,
      "inite": 2839,
      "Ġsister": 2840,
      "iting": 2841,
      "Ġmaster": 2842,
      "Ġcattle": 2843,
      "Ġbeyond": 2844,
      "Ġnation": 2845,
      "Ġlying": 2846,
      "Ġreligion": 2847,
      "Ġuna": 2848,
      "Ġwilling": 2849,
      "ĠSh": 2850,
      "ĠSy": 2851,
      "Ġasham": 2852,
      "uses": 2853,
      "venge": 2854,
      "sover": 2855,
      "ĠCertainly": 2856,
      "Ġabs": 2857,
      "Ġabound": 2858,
      "Ġnecess": 2859,
      "Ġnext": 2860,
      "acks": 2861,
      "ĠYes": 2862,
      "Ġeveryone": 2863,
      "Ġevening": 2864,
      "ĠNay": 2865,
      "Ġspeech": 2866,
      "Ġplaces": 2867,
      "assion": 2868,
      "Ġteac": 2869,
      "Ġcreate": 2870,
      "Ġsett": 2871,
      "Ġmarry": 2872,
      "ĠMaryam": 2873,
      "Ġappeared": 2874,
      "Ġcommunities": 2875,
      "Ġhide": 2876,
      "Ġselves": 2877,
      "mission": 2878,
      "Ġsword": 2879,
      "Ġarrogant": 2880,
      "Ġdeclared": 2881,
      "Ġbecomes": 2882,
      "Ġmeaning": 2883,
      "Ġrejoicing": 2884,
      "Ġpainful": 2885,
      "ĠZakat": 2886,
      "Ġowing": 2887,
      "Ġadultery": 2888,
      "Ġeffect": 2889,
      "ĠNazareth": 2890,
      "Ġashamed": 2891,
      "Wh": 2892,
      "ape": 2893,
      "cause": 2894,
      "gment": 2895,
      "uge": 2896,
      "Ġwo": 2897,
      "Ġbra": 2898,
      "Ġdre": 2899,
      "Ġcup": 2900,
      "Ġincl": 2901,
      "ances": 2902,
      "Ġloud": 2903,
      "Ġgir": 2904,
      "Ġgrou": 2905,
      "Ġforce": 2906,
      "Ġunbelie": 2907,
      "Ġhumb": 2908,
      "ĠMaced": 2909,
      "ifts": 2910,
      "Ġanim": 2911,
      "ĠGreat": 2912,
      "Ġdeceive": 2913,
      "Ġmet": 2914,
      "ctive": 2915,
      "Ġabsolute": 2916,
      "Ġexc": 2917,
      "Ġfeared": 2918,
      "Ġconvers": 2919,
      "osqu": 2920,
      "osition": 2921,
      "Ġblame": 2922,
      "Ġlies": 2923,
      "Ġvision": 2924,
      "ĠEs": 2925,
      "ĠEx": 2926,
      "Ġreceiveth": 2927,
      "Ġhelped": 2928,
      "Ġseeking": 2929,
      "ĠUn": 2930,
      "Ġjudged": 2931,
      "Ġpersu": 2932,
      "Ġprod": 2933,
      "ĠAlms": 2934,
      "Ġcommunity": 2935,
      "Ġfulfil": 2936,
      "Ġnearness": 2937,
      "Ġtouch": 2938,
      "Ġgrieve": 2939,
      "Ġtowns": 2940,
      "aib": 2941,
      "Ġacts": 2942,
      "Ġsoldiers": 2943,
      "ĠOnly": 2944,
      "Ġenjoin": 2945,
      "Ġflowing": 2946,
      "Ġequal": 2947,
      "Ġcaptain": 2948,
      "Ġpassover": 2949,
      "Ġprosper": 2950,
      "After": 2951,
      "Un": 2952,
      "ek": 2953,
      "ired": 2954,
      "ike": 2955,
      "know": 2956,
      "wful": 2957,
      "Ġaround": 2958,
      "Ġbacks": 2959,
      "Ġfig": 2960,
      "Ġcities": 2961,
      "Ġpi": 2962,
      "Ġbeaut": 2963,
      "Ġgifts": 2964,
      "Ġfornic": 2965,
      "Ġhung": 2966,
      "ĠWould": 2967,
      "ĠGree": 2968,
      "Ġseize": 2969,
      "ria": 2970,
      "Ġwhence": 2971,
      "arden": 2972,
      "Ġgoeth": 2973,
      "ures": 2974,
      "ability": 2975,
      "Ġheavy": 2976,
      "ĠYaqub": 2977,
      "Ġaccus": 2978,
      "Ġpartner": 2979,
      "Ġcove": 2980,
      "Ġgrain": 2981,
      "Ġobtained": 2982,
      "Ġremove": 2983,
      "Ġprophes": 2984,
      "Ġsends": 2985,
      "ifying": 2986,
      "Ġconfid": 2987,
      "Ġexpl": 2988,
      "Ġprin": 2989,
      "Ġholds": 2990,
      "Ġgenerations": 2991,
      "Ġdispute": 2992,
      "Ġforbidden": 2993,
      "Ġsacrific": 2994,
      "Ġcondemn": 2995,
      "Ġdeceit": 2996,
      "Ġvirt": 2997,
      "Ġescape": 2998,
      "Ġvictory": 2999,
      "ĠShall": 3000,
      "ĠMacedonia": 3001,
      "Ġconversation": 3002,
      "Is": 3003,
      "ds": 3004,
      "ell": 3005,
      "fer": 3006,
      "pher": 3007,
      "then": 3008,
      "Ġtreat": 3009,
      "hem": 3010,
      "Ġwoe": 3011,
      "Ġbas": 3012,
      "Ġbook": 3013,
      "Ġflee": 3014,
      "Ġmut": 3015,
      "ern": 3016,
      "ency": 3017,
      "Ġinstead": 3018,
      "Ġlau": 3019,
      "ĠAra": 3020,
      "Ġrevel": 3021,
      "Ġsafe": 3022,
      "ĠHarun": 3023,
      "Ġwilled": 3024,
      "Ġaside": 3025,
      "Ġyear": 3026,
      "ĠBlessed": 3027,
      "Ġmyst": 3028,
      "Ġbelieving": 3029,
      "Ġadorn": 3030,
      "Ġcommandments": 3031,
      "Ġrecog": 3032,
      "Ġpriv": 3033,
      "Ġspirits": 3034,
      "Ġplease": 3035,
      "Ġbrothers": 3036,
      "Ġworketh": 3037,
      "Ġhighly": 3038,
      "Ġpresence": 3039,
      "Ġlooking": 3040,
      "ĠJudgment": 3041,
      "Ġsupplic": 3042,
      "Ġpract": 3043,
      "Ġboast": 3044,
      "ssuredly": 3045,
      "Ġpossessed": 3046,
      "ification": 3047,
      "Ġincrease": 3048,
      "Ġembra": 3049,
      "Ġgreet": 3050,
      "Ġignorant": 3051,
      "Ġsilver": 3052,
      "Ġbeneath": 3053,
      "Ġinterpret": 3054,
      "Ġintercession": 3055,
      "Ġrecogn": 3056,
      "Re": 3057,
      "Woe": 3058,
      "aj": 3059,
      "cil": 3060,
      "rat": 3061,
      "yard": 3062,
      "heth": 3063,
      "has": 3064,
      "Ġcr": 3065,
      "Ġyield": 3066,
      "oned": 3067,
      "arge": 3068,
      "asing": 3069,
      "ĠTo": 3070,
      "ĠTim": 3071,
      "aint": 3072,
      "Ġkne": 3073,
      "Ġdeter": 3074,
      "Ġcauses": 3075,
      "road": 3076,
      "ulation": 3077,
      "Ġabroad": 3078,
      "Ġamaz": 3079,
      "beit": 3080,
      "Ġconse": 3081,
      "acle": 3082,
      "Ġliars": 3083,
      "Ġbran": 3084,
      "Ġperpet": 3085,
      "Ġadvers": 3086,
      "Ġgiveth": 3087,
      "Ġdilig": 3088,
      "Ġobedient": 3089,
      "Ġeateth": 3090,
      "Ġcontrol": 3091,
      "Ġhelpers": 3092,
      "Ġrose": 3093,
      "Ġchiefs": 3094,
      "Ġbuilt": 3095,
      "Ġpatient": 3096,
      "Ġchurches": 3097,
      "Ġcompanion": 3098,
      "Ġdevot": 3099,
      "Ġcounsel": 3100,
      "Ġteaching": 3101,
      "Ġabundance": 3102,
      "Ġworshipp": 3103,
      "Ġtrouble": 3104,
      "Ġscriptures": 3105,
      "Ġruler": 3106,
      "Ġclouds": 3107,
      "ĠAbsolute": 3108,
      "Ġvineyard": 3109,
      "Ġsingle": 3110,
      "Ġgovernor": 3111,
      "Ġmerely": 3112,
      "Ġmonths": 3113,
      "Ġcentur": 3114,
      "Ġwalked": 3115,
      "Ġunaware": 3116,
      "Ġwonder": 3117,
      "ikewise": 3118,
      "Blessed": 3119,
      "aw": 3120,
      "bour": 3121,
      "come": 3122,
      "io": 3123,
      "most": 3124,
      "ply": 3125,
      "under": 3126,
      "reed": 3127,
      "rest": 3128,
      "Ġbow": 3129,
      "vest": 3130,
      "Ġmove": 3131,
      "Ġdro": 3132,
      "ene": 3133,
      "Ġheat": 3134,
      "Ġep": 3135,
      "Ġgate": 3136,
      "Ġgarden": 3137,
      "Ġforget": 3138,
      "Ġren": 3139,
      "Ġreap": 3140,
      "Ġhither": 3141,
      "Ġitself": 3142,
      "ĠGuidance": 3143,
      "rible": 3144,
      "alt": 3145,
      "Ġalong": 3146,
      "Ġalms": 3147,
      "ulaim": 3148,
      "ĠBring": 3149,
      "run": 3150,
      "Ġneigh": 3151,
      "Ġexec": 3152,
      "Ġbelief": 3153,
      "Ġattain": 3154,
      "Ġproved": 3155,
      "Ġliber": 3156,
      "unto": 3157,
      "Ġfears": 3158,
      "Ġwhereof": 3159,
      "Ġscatt": 3160,
      "Ġdivided": 3161,
      "Ġprayers": 3162,
      "Ġgrave": 3163,
      "Ġendure": 3164,
      "Ġbodies": 3165,
      "Ġafflu": 3166,
      "ĠProphets": 3167,
      "Ġconfess": 3168,
      "Ġmisg": 3169,
      "Ġcharge": 3170,
      "Ġmorrow": 3171,
      "vereign": 3172,
      "Ġafflicted": 3173,
      "Ġdespite": 3174,
      "Ġsynagogues": 3175,
      "Ġinheritance": 3176,
      "Ġrulers": 3177,
      "Ġstayed": 3178,
      "Ġbirth": 3179,
      "Ġdaily": 3180,
      "Ġtroubled": 3181,
      "Ġresidents": 3182,
      "Ġneighbour": 3183,
      "Nor": 3184,
      "Of": 3185,
      "mand": 3186,
      "much": 3187,
      "Ġven": 3188,
      "Ġwrought": 3189,
      "Ġbed": 3190,
      "Ġbare": 3191,
      "Ġbount": 3192,
      "Ġfra": 3193,
      "Ġfun": 3194,
      "Ġmount": 3195,
      "Ġdumb": 3196,
      "Ġportion": 3197,
      "hie": 3198,
      "Ġbeat": 3199,
      "Ġlu": 3200,
      "Ġlarge": 3201,
      "Ġhur": 3202,
      "ĠSe": 3203,
      "Ġang": 3204,
      "Ġascend": 3205,
      "ĠTham": 3206,
      "Ġshame": 3207,
      "Ġcomfor": 3208,
      "Ġdeb": 3209,
      "Ġsuper": 3210,
      "Ġsays": 3211,
      "Ġstars": 3212,
      "ĠCan": 3213,
      "ption": 3214,
      "Ġfeed": 3215,
      "Ġwhite": 3216,
      "ppa": 3217,
      "Ġcommon": 3218,
      "Ġloaves": 3219,
      "ĠEvery": 3220,
      "Ġfood": 3221,
      "quire": 3222,
      "Ġpermission": 3223,
      "Ġrightly": 3224,
      "Ġwherever": 3225,
      "Ġparts": 3226,
      "Ġpartic": 3227,
      "Ġcover": 3228,
      "Ġarri": 3229,
      "Ġpromises": 3230,
      "ĠBooks": 3231,
      "Ġdivers": 3232,
      "Ġbringeth": 3233,
      "Ġclay": 3234,
      "Ġcontent": 3235,
      "Ġpleases": 3236,
      "Ġworking": 3237,
      "Ġroot": 3238,
      "Ġopenly": 3239,
      "Ġview": 3240,
      "Ġremained": 3241,
      "Ġconsider": 3242,
      "Ġcharged": 3243,
      "Ġbaptism": 3244,
      "ĠZac": 3245,
      "Ġaston": 3246,
      "Behold": 3247,
      "Ġdefi": 3248,
      "Ġcarry": 3249,
      "Ġcouncil": 3250,
      "ertitude": 3251,
      "Ġformer": 3252,
      "ĠPowerful": 3253,
      "Ġbetrayed": 3254,
      "Ġhappened": 3255,
      "Ġpieces": 3256,
      "Ġmiracles": 3257,
      "ĠSamar": 3258,
      "Ġtabern": 3259,
      "Ġrevelation": 3260,
      "Ġdeterm": 3261,
      "ieth": 3262,
      "lit": 3263,
      "uaib": 3264,
      "head": 3265,
      "Ġavail": 3266,
      "Ġwand": 3267,
      "Ġsow": 3268,
      "lly": 3269,
      "orne": 3270,
      "Ġfier": 3271,
      "itation": 3272,
      "Ġmoved": 3273,
      "erable": 3274,
      "Ġcust": 3275,
      "Ġtot": 3276,
      "Ġnations": 3277,
      "oman": 3278,
      "arch": 3279,
      "uting": 3280,
      "ceed": 3281,
      "Ġhig": 3282,
      "lect": 3283,
      "asmuch": 3284,
      "ĠHand": 3285,
      "ury": 3286,
      "ĠSil": 3287,
      "ĠMad": 3288,
      "Ġseeth": 3289,
      "rigin": 3290,
      "Ġdeaf": 3291,
      "Ġdecre": 3292,
      "Ġupper": 3293,
      "Ġstation": 3294,
      "Ġstru": 3295,
      "Ġearned": 3296,
      "Ġlikes": 3297,
      "Ġvill": 3298,
      "evertheless": 3299,
      "resh": 3300,
      "Ġafterward": 3301,
      "Ġwrote": 3302,
      "ĠFear": 3303,
      "Ġamongst": 3304,
      "Ġdeser": 3305,
      "Ġcommanding": 3306,
      "Ġrecon": 3307,
      "aged": 3308,
      "Ġentire": 3309,
      "Ġgrateful": 3310,
      "Ġgraves": 3311,
      "Ġcompassion": 3312,
      "Ġfoundation": 3313,
      "Ġhaste": 3314,
      "itudes": 3315,
      "Ġprescribed": 3316,
      "Ġunderstood": 3317,
      "Ġmarvelled": 3318,
      "Ġmothers": 3319,
      "Ġrule": 3320,
      "Ġgrief": 3321,
      "Ġdenying": 3322,
      "Ġslain": 3323,
      "Ġhypocris": 3324,
      "While": 3325,
      "Ġcompanions": 3326,
      "Ġdwelling": 3327,
      "Ġcontinued": 3328,
      "Ġcarried": 3329,
      "serv": 3330,
      "Ġmeeting": 3331,
      "ĠAnt": 3332,
      "Ġdaughters": 3333,
      "Ġenjoy": 3334,
      "Ġfootst": 3335,
      "Ġsimil": 3336,
      "Ġoaths": 3337,
      "ĠSeeing": 3338,
      "Ġmurd": 3339,
      "ĠSaviour": 3340,
      "Ġblasphem": 3341,
      "Ġbefall": 3342,
      "Ġdrowned": 3343,
      "ourable": 3344,
      "Ġpartakers": 3345,
      "Ġcontrary": 3346,
      "worthy": 3347,
      "Ġcovet": 3348,
      "Ġinterpretation": 3349,
      "Ġcenturion": 3350,
      "ulaiman": 3351,
      "ĠThamud": 3352,
      "fold": 3353,
      "gg": 3354,
      "iod": 3355,
      "iqu": 3356,
      "mity": 3357,
      "ollow": 3358,
      "rate": 3359,
      "rateful": 3360,
      "xed": 3361,
      "Ġaward": 3362,
      "Ġwish": 3363,
      "Ġbid": 3364,
      "Ġbones": 3365,
      "Ġfil": 3366,
      "Ġfish": 3367,
      "Ġoft": 3368,
      "Ġcra": 3369,
      "Ġcry": 3370,
      "Ġcertitude": 3371,
      "Ġbehe": 3372,
      "Ġbelied": 3373,
      "Ġinha": 3374,
      "Ġiniqu": 3375,
      "Ġnar": 3376,
      "Ġthorn": 3377,
      "ange": 3378,
      "Ġfors": 3379,
      "Ġfort": 3380,
      "Ġforty": 3381,
      "Ġreign": 3382,
      "ĠHad": 3383,
      "Ġunright": 3384,
      "Ġanc": 3385,
      "ĠGrace": 3386,
      "rias": 3387,
      "alous": 3388,
      "Ġdeed": 3389,
      "Ġcaused": 3390,
      "aked": 3391,
      "ĠGodw": 3392,
      "ĠCont": 3393,
      "Ġagree": 3394,
      "Ġwhither": 3395,
      "Ġval": 3396,
      "iveness": 3397,
      "Ġperceive": 3398,
      "Ġperiod": 3399,
      "Ġaccuse": 3400,
      "Ġgreatly": 3401,
      "Ġservice": 3402,
      "Ġindec": 3403,
      "Ġoffence": 3404,
      "Ġenlight": 3405,
      "Ġputting": 3406,
      "Ġguides": 3407,
      "Ġclose": 3408,
      "Ġroom": 3409,
      "Thou": 3410,
      "Ġmarri": 3411,
      "Ġmultitudes": 3412,
      "forth": 3413,
      "Ġrespons": 3414,
      "Ġkilling": 3415,
      "ĠDaw": 3416,
      "Ġwarned": 3417,
      "Ġuncircumc": 3418,
      "Ġfavours": 3419,
      "Ġfighting": 3420,
      "Ġinfir": 3421,
      "aias": 3422,
      "Ġstret": 3423,
      "Ġabundantly": 3424,
      "Ġchange": 3425,
      "ĠArk": 3426,
      "Ġpiece": 3427,
      "Ġdrive": 3428,
      "Ġaccomplished": 3429,
      "Ġsuddenly": 3430,
      "Ġaffairs": 3431,
      "Ġvessels": 3432,
      "ĠShuaib": 3433,
      "ioch": 3434,
      "Ġscattered": 3435,
      "Ġdetermined": 3436,
      "Ġhypocrisy": 3437,
      "ĠAntioch": 3438,
      "Likewise": 3439,
      "cing": 3440,
      "ding": 3441,
      "ereth": 3442,
      "gain": 3443,
      "uous": 3444,
      "wel": 3445,
      "Ġtyr": 3446,
      "Ġair": 3447,
      "Ġorigin": 3448,
      "harias": 3449,
      "Ġfishes": 3450,
      "itable": 3451,
      "erved": 3452,
      "Ġinstru": 3453,
      "omuch": 3454,
      "arly": 3455,
      "ariness": 3456,
      "atory": 3457,
      "Ġhell": 3458,
      "Ġlod": 3459,
      "Ġgn": 3460,
      "iring": 3461,
      "Ġunla": 3462,
      "Ġhor": 3463,
      "urity": 3464,
      "ĠShe": 3465,
      "ĠMight": 3466,
      "ĠMag": 3467,
      "Ġann": 3468,
      "Ġkin": 3469,
      "ĠJon": 3470,
      "Ġdemand": 3471,
      "Ġcap": 3472,
      "estors": 3473,
      "Ġdish": 3474,
      "ĠPr": 3475,
      "ĠPra": 3476,
      "Ġsayest": 3477,
      "Ġstray": 3478,
      "ĠBeware": 3479,
      "ĠCome": 3480,
      "ĠCreat": 3481,
      "Ġspo": 3482,
      "Ġknowest": 3483,
      "Ġbelieves": 3484,
      "osing": 3485,
      "aches": 3486,
      "els": 3487,
      "une": 3488,
      "Ġdisbelieving": 3489,
      "ĠEn": 3490,
      "ĠEphe": 3491,
      "Ġbride": 3492,
      "Ġshepher": 3493,
      "ĠThy": 3494,
      "ĠIsha": 3495,
      "Ġoffering": 3496,
      "Ġreck": 3497,
      "Ġhousehold": 3498,
      "Ġliveth": 3499,
      "ribution": 3500,
      "Ġharvest": 3501,
      "Ġminds": 3502,
      "Whoever": 3503,
      "Ġidolat": 3504,
      "formed": 3505,
      "Ġslaught": 3506,
      "Ġtrees": 3507,
      "Ġwalking": 3508,
      "Ġsmote": 3509,
      "Ġfirmly": 3510,
      "Ġsecrets": 3511,
      "Ġthirst": 3512,
      "Ġcounted": 3513,
      "Well": 3514,
      "Ġexcellence": 3515,
      "ĠAsia": 3516,
      "Ġintends": 3517,
      "Ġdivine": 3518,
      "Ġrunning": 3519,
      "ĠArt": 3520,
      "Ġearnest": 3521,
      "Ġministered": 3522,
      "Ġbirds": 3523,
      "Ġsanctified": 3524,
      "Ġspecial": 3525,
      "Ġrelease": 3526,
      "Ġungrateful": 3527,
      "Ġrebuked": 3528,
      "osque": 3529,
      "ĠEsaias": 3530,
      "Ġpiety": 3531,
      "Ġfornication": 3532,
      "Ġmutual": 3533,
      "Ġconsequ": 3534,
      "ĠZacharias": 3535,
      "Ġastonished": 3536,
      "Ġcustom": 3537,
      "Ġinhabit": 3538,
      "Ġunrighteous": 3539,
      "Ġancestors": 3540,
      "ĠDawud": 3541,
      "ĠEphes": 3542,
      "Having": 3543,
      "Musa": 3544,
      "Nevertheless": 3545,
      "You": 3546,
      "Yet": 3547,
      "ale": 3548,
      "bs": 3549,
      "blis": 3550,
      "cks": 3551,
      "rone": 3552,
      "vious": 3553,
      "Ġaw": 3554,
      "int": 3555,
      "Ġsn": 3556,
      "Ġbright": 3557,
      "Ġbounty": 3558,
      "Ġfill": 3559,
      "ital": 3560,
      "Ġmom": 3561,
      "Ġmad": 3562,
      "Ġdrun": 3563,
      "Ġche": 3564,
      "Ġcrying": 3565,
      "Ġph": 3566,
      "Ġpen": 3567,
      "Ġpour": 3568,
      "Ġinj": 3569,
      "Ġheirs": 3570,
      "Ġund": 3571,
      "othe": 3572,
      "ane": 3573,
      "Ġlam": 3574,
      "owers": 3575,
      "vert": 3576,
      "verted": 3577,
      "ĠHigh": 3578,
      "ĠHonour": 3579,
      "limin": 3580,
      "oday": 3581,
      "ĠSad": 3582,
      "ĠSel": 3583,
      "ĠSulaiman": 3584,
      "ĠMake": 3585,
      "adi": 3586,
      "ĠLe": 3587,
      "ĠLaw": 3588,
      "Ġalt": 3589,
      "Ġdisli": 3590,
      "Ġdiscl": 3591,
      "Ġworse": 3592,
      "ĠBeth": 3593,
      "ĠOr": 3594,
      "Ġsplit": 3595,
      "rust": 3596,
      "ĠDam": 3597,
      "Ġexcl": 3598,
      "Ġfema": 3599,
      "oked": 3600,
      "asters": 3601,
      "Ġearly": 3602,
      "Ġblow": 3603,
      "ĠTheir": 3604,
      "Ġachie": 3605,
      "Ġhate": 3606,
      "ĠEven": 3607,
      "ection": 3608,
      "ĠName": 3609,
      "Ġperceived": 3610,
      "Ġplant": 3611,
      "ĠThrone": 3612,
      "asses": 3613,
      "Ġcoll": 3614,
      "Ġresour": 3615,
      "Ġspeaking": 3616,
      "Ġrepe": 3617,
      "Ġraiment": 3618,
      "Ġprice": 3619,
      "Ġtakes": 3620,
      "Ġstrife": 3621,
      "Ġmark": 3622,
      "alih": 3623,
      "Ġlongs": 3624,
      "Ġexpect": 3625,
      "Ġwrongdo": 3626,
      "Ġclearly": 3627,
      "Ġmaketh": 3628,
      "Ġterror": 3629,
      "Ġheads": 3630,
      "Ġapostle": 3631,
      "Ġdisobedience": 3632,
      "Ġsorce": 3633,
      "Ġmaid": 3634,
      "Ġmale": 3635,
      "Ġwinds": 3636,
      "Ġabundant": 3637,
      "Ġtempted": 3638,
      "Ġdeclare": 3639,
      "Ġincreased": 3640,
      "Ġclothed": 3641,
      "Ġcalf": 3642,
      "Ġbonds": 3643,
      "Ġjoined": 3644,
      "Ġadded": 3645,
      "Ġapproach": 3646,
      "Ġarmies": 3647,
      "Ġministry": 3648,
      "Ġcondemned": 3649,
      "Ġignorance": 3650,
      "Howbeit": 3651,
      "Ġfabricated": 3652,
      "Ġthrone": 3653,
      "Ġdriven": 3654,
      "Ġoccas": 3655,
      "Ġgarment": 3656,
      "Ġdisgrace": 3657,
      "Ġtreasures": 3658,
      "Ġevident": 3659,
      "Ġnatur": 3660,
      "Ġmesseng": 3661,
      "Ġdifferent": 3662,
      "Ġchastise": 3663,
      "Ġengaged": 3664,
      "Ġdream": 3665,
      "Ġhumble": 3666,
      "Ġpersuaded": 3667,
      "Ġconfidence": 3668,
      "Ġmystery": 3669,
      "Ġliberty": 3670,
      "Ġfierce": 3671,
      "ĠGodwariness": 3672,
      "Ġunlawful": 3673,
      "ĠCreator": 3674,
      "Ġinhabitants": 3675,
      "Ġmoment": 3676,
      "ĠSelf": 3677,
      "Ġfemale": 3678,
      "Pe": 3679,
      "air": 3680,
      "ament": 3681,
      "bed": 3682,
      "lf": 3683,
      "lay": 3684,
      "ny": 3685,
      "oll": 3686,
      "ration": 3687,
      "Ġwall": 3688,
      "Ġfas": 3689,
      "itter": 3690,
      "Ġmain": 3691,
      "edfast": 3692,
      "Ġdry": 3693,
      "Ġdwel": 3694,
      "Ġcri": 3695,
      "Ġbeasts": 3696,
      "ator": 3697,
      "ative": 3698,
      "Ġlater": 3699,
      "ĠArise": 3700,
      "ĠIblis": 3701,
      "Ġreally": 3702,
      "Ġrevenge": 3703,
      "ĠHouse": 3704,
      "hers": 3705,
      "ĠSac": 3706,
      "ĠSust": 3707,
      "Ġanoin": 3708,
      "ĠTy": 3709,
      "Ġsect": 3710,
      "ainer": 3711,
      "Ġcommend": 3712,
      "Ġdet": 3713,
      "ctly": 3714,
      "Ġdisc": 3715,
      "ĠPer": 3716,
      "Ġsayings": 3717,
      "Ġstir": 3718,
      "Ġstedfast": 3719,
      "ĠBar": 3720,
      "ĠCle": 3721,
      "ĠCall": 3722,
      "Ġsphere": 3723,
      "bered": 3724,
      "bearing": 3725,
      "asted": 3726,
      "ables": 3727,
      "Ġliar": 3728,
      "aum": 3729,
      "Ġheareth": 3730,
      "Ġriver": 3731,
      "Ġrivers": 3732,
      "Ġsomew": 3733,
      "Ġsinner": 3734,
      "Ġsinned": 3735,
      "Ġperform": 3736,
      "Ġplain": 3737,
      "Ġplaced": 3738,
      "area": 3739,
      "Ġbreasts": 3740,
      "Ġgreatest": 3741,
      "Ġwherewith": 3742,
      "Ġleaven": 3743,
      "Ġreply": 3744,
      "Ġpraying": 3745,
      "Ġimage": 3746,
      "Ġsetting": 3747,
      "ressed": 3748,
      "Ġroad": 3749,
      "Ġhasten": 3750,
      "Ġhonourable": 3751,
      "Ġfallen": 3752,
      "Ġrestore": 3753,
      "azar": 3754,
      "Because": 3755,
      "Ġtouching": 3756,
      "Ġcarrying": 3757,
      "Ġkinds": 3758,
      "Ġassuredly": 3759,
      "Ġrefuge": 3760,
      "Ġestablished": 3761,
      "ĠPilgri": 3762,
      "Ġchanged": 3763,
      "Ġreality": 3764,
      "Ġincid": 3765,
      "Ġranks": 3766,
      "ĠCaesarea": 3767,
      "Ġgreen": 3768,
      "Ġdepri": 3769,
      "Ġoccur": 3770,
      "Ġobligatory": 3771,
      "Ġwonders": 3772,
      "Ġrebellious": 3773,
      "Ġpublicans": 3774,
      "Ġwidows": 3775,
      "Ġstrangers": 3776,
      "ĠExalted": 3777,
      "ĠArab": 3778,
      "Ġembraced": 3779,
      "Ġamazed": 3780,
      "vereignty": 3781,
      "Ġtabernacle": 3782,
      "Ġcovetous": 3783,
      "ĠControl": 3784,
      "ĠPraise": 3785,
      "ĠIshaq": 3786,
      "otheus": 3787,
      "Ġdwelt": 3788,
      "Assuredly": 3789,
      "His": 3790,
      "hma": 3791,
      "mail": 3792,
      "mpet": 3793,
      "naum": 3794,
      "rain": 3795,
      "ume": 3796,
      "uced": 3797,
      "Ġing": 3798,
      "Ġtable": 3799,
      "ines": 3800,
      "Ġsle": 3801,
      "Ġsour": 3802,
      "Ġsown": 3803,
      "Ġsides": 3804,
      "Ġsense": 3805,
      "Ġbot": 3806,
      "orted": 3807,
      "Ġfled": 3808,
      "iter": 3809,
      "itus": 3810,
      "Ġmer": 3811,
      "Ġmasters": 3812,
      "erly": 3813,
      "Ġdign": 3814,
      "Ġdread": 3815,
      "Ġplight": 3816,
      "Ġinform": 3817,
      "Ġnames": 3818,
      "Ġthither": 3819,
      "Ġelimin": 3820,
      "stand": 3821,
      "ĠHud": 3822,
      "ĠSal": 3823,
      "ĠSalih": 3824,
      "ĠMan": 3825,
      "Ġasleep": 3826,
      "ĠTell": 3827,
      "Ġseat": 3828,
      "ribe": 3829,
      "Ġkings": 3830,
      "Ġkiss": 3831,
      "ĠJo": 3832,
      "Ġyourself": 3833,
      "aken": 3834,
      "Ġwashed": 3835,
      "ests": 3836,
      "esty": 3837,
      "Ġworth": 3838,
      "ĠBl": 3839,
      "ĠCreation": 3840,
      "Ġabid": 3841,
      "Ġneeds": 3842,
      "Ġexist": 3843,
      "Ġafar": 3844,
      "Ġprove": 3845,
      "aba": 3846,
      "Ġcamel": 3847,
      "Ġvan": 3848,
      "Ġvall": 3849,
      "Ġvoid": 3850,
      "ĠChristians": 3851,
      "cip": 3852,
      "ĠRising": 3853,
      "Ġloosed": 3854,
      "eps": 3855,
      "Ġcalleth": 3856,
      "Ġsinful": 3857,
      "ĠFa": 3858,
      "ĠFollow": 3859,
      "Ġbreast": 3860,
      "ĠIshma": 3861,
      "ĠIsmail": 3862,
      "Ġpreced": 3863,
      "itteth": 3864,
      "Ġglorious": 3865,
      "Ġgrad": 3866,
      "Ġsubst": 3867,
      "Ġcreature": 3868,
      "Ġeating": 3869,
      "Ġremoved": 3870,
      "ocked": 3871,
      "Ġloveth": 3872,
      "Ġsufficient": 3873,
      "Ġbeside": 3874,
      "Ġstrait": 3875,
      "Ġminded": 3876,
      "member": 3877,
      "ĠCommandments": 3878,
      "Ġfully": 3879,
      "Ġstrate": 3880,
      "Ġconfer": 3881,
      "Ġtrad": 3882,
      "Ġmultip": 3883,
      "Ġruined": 3884,
      "pernaum": 3885,
      "Ġbuy": 3886,
      "azing": 3887,
      "Ġsalute": 3888,
      "Ġhusbandmen": 3889,
      "Ġaffliction": 3890,
      "Ġsacred": 3891,
      "Ġswine": 3892,
      "ĠCapernaum": 3893,
      "aped": 3894,
      "Ġalike": 3895,
      "Ġcursed": 3896,
      "Ġmaj": 3897,
      "Ġillum": 3898,
      "Ġtemptation": 3899,
      "Ġcalam": 3900,
      "Ġarmy": 3901,
      "Ġstrengthen": 3902,
      "Ġbarren": 3903,
      "Ġgarments": 3904,
      "Ġoffended": 3905,
      "Ġstarted": 3906,
      "Ġoppression": 3907,
      "Ġtarry": 3908,
      "Ġnature": 3909,
      "Ġsprings": 3910,
      "Ġencompassed": 3911,
      "Ġhenceforth": 3912,
      "ĠSyria": 3913,
      "Ġbrake": 3914,
      "Ġgroup": 3915,
      "Ġunbelief": 3916,
      "Until": 3917,
      "Ġaccusation": 3918,
      "Ġdeceitful": 3919,
      "ĠTimotheus": 3920,
      "Ġbranches": 3921,
      "Ġepist": 3922,
      "Ġlux": 3923,
      "Ġcomforted": 3924,
      "Ġsuperi": 3925,
      "Ġbeheld": 3926,
      "Ġiniquity": 3927,
      "Ġthorns": 3928,
      "Ġmarriage": 3929,
      "Ġphys": 3930,
      "ĠDamas": 3931,
      "Ġresources": 3932,
      "Ġoccasion": 3933,
      "Ġnatural": 3934,
      "Ġchastisement": 3935,
      "ĠSustainer": 3936,
      "ĠPilgrim": 3937,
      "Ġbott": 3938,
      "Ġvalle": 3939,
      "ĠIshmael": 3940,
      "Certainly": 3941,
      "Every": 3942,
      "Paul": 3943,
      "See": 3944,
      "Take": 3945,
      "allow": 3946,
      "eus": 3947,
      "gro": 3948,
      "phan": 3949,
      "rating": 3950,
      "uz": 3951,
      "uck": 3952,
      "val": 3953,
      "Ġta": 3954,
      "inth": 3955,
      "ination": 3956,
      "Ġbal": 3957,
      "Ġband": 3958,
      "Ġbind": 3959,
      "Ġfr": 3960,
      "Ġfet": 3961,
      "Ġmali": 3962,
      "Ġcow": 3963,
      "ences": 3964,
      "Ġpertain": 3965,
      "Ġpowers": 3966,
      "hil": 3967,
      "Ġbew": 3968,
      "Ġbearing": 3969,
      "Ġinst": 3970,
      "Ġlin": 3971,
      "Ġlack": 3972,
      "Ġlang": 3973,
      "uty": 3974,
      "lex": 3975,
      "Ġrevol": 3976,
      "Ġsailed": 3977,
      "Ġunle": 3978,
      "lict": 3979,
      "ĠWill": 3980,
      "ĠSid": 3981,
      "ordan": 3982,
      "ĠToday": 3983,
      "ĠGab": 3984,
      "ĠGuard": 3985,
      "riel": 3986,
      "ĠLazar": 3987,
      "ĠJust": 3988,
      "ĠJordan": 3989,
      "Ġdevour": 3990,
      "Ġmeek": 3991,
      "oreover": 3992,
      "Ġdoors": 3993,
      "Ġwash": 3994,
      "ĠLords": 3995,
      "Ġsta": 3996,
      "Ġstick": 3997,
      "ĠBapt": 3998,
      "Ġspent": 3999,
      "Ġspace": 4000,
      "Ġfair": 4001,
      "imate": 4002,
      "Ġsober": 4003,
      "Ġcontain": 4004,
      "Ġconsol": 4005,
      "Ġagon": 4006,
      "Ġwhis": 4007,
      "Ġhost": 4008,
      "Ġholiness": 4009,
      "Ġje": 4010,
      "Ġblack": 4011,
      "Their": 4012,
      "resp": 4013,
      "Ġloose": 4014,
      "Ġwriting": 4015,
      "mber": 4016,
      "ĠFest": 4017,
      "ception": 4018,
      "Ġserp": 4019,
      "Ġdesert": 4020,
      "othing": 4021,
      "Ġcoasts": 4022,
      "Ġarg": 4023,
      "Ġfollowers": 4024,
      "Ġobject": 4025,
      "izing": 4026,
      "Ġforgotten": 4027,
      "pens": 4028,
      "Ġdenial": 4029,
      "Ġcleans": 4030,
      "Ġrock": 4031,
      "Ġharden": 4032,
      "Ġshown": 4033,
      "Ġgodliness": 4034,
      "Ġstrange": 4035,
      "Ġmarried": 4036,
      "Ġfasting": 4037,
      "Ġshowed": 4038,
      "Ġterrible": 4039,
      "Ġobeyed": 4040,
      "Ġdwellers": 4041,
      "Ġdwelleth": 4042,
      "Ġsalut": 4043,
      "Ġkindred": 4044,
      "Ġdespise": 4045,
      "Ġpaid": 4046,
      "Ġpersons": 4047,
      "Ġinsight": 4048,
      "Ġinsomuch": 4049,
      "Ġunjustly": 4050,
      "Ġveget": 4051,
      "Ġcrucify": 4052,
      "Ġbondage": 4053,
      "Ġdivor": 4054,
      "Ġparables": 4055,
      "Ġprotection": 4056,
      "Ġhumiliation": 4057,
      "Ġcommunicate": 4058,
      "Ġcorruption": 4059,
      "Ġemig": 4060,
      "Ġconfirm": 4061,
      "Ġweeping": 4062,
      "Ġsincere": 4063,
      "Ġtarried": 4064,
      "Ġconceal": 4065,
      "Ġseparate": 4066,
      "Ġshadow": 4067,
      "Ġdisease": 4068,
      "Ġsettled": 4069,
      "Whom": 4070,
      "Ġanimals": 4071,
      "Ġrecognize": 4072,
      "Ġdrop": 4073,
      "Ġaffluent": 4074,
      "Ġdebt": 4075,
      "Ġindecency": 4076,
      "Ġenlightening": 4077,
      "Ġuncircumcision": 4078,
      "Ġkinship": 4079,
      "ĠProtect": 4080,
      "Ġbridegro": 4081,
      "Ġidolaters": 4082,
      "Ġunrighteousness": 4083,
      "ĠEphesus": 4084,
      "Ġaltar": 4085,
      "Ġmaintain": 4086,
      "ĠSacred": 4087,
      "Ġspheres": 4088,
      "Ġincident": 4089,
      "ĠDamascus": 4090,
      "Ġvalley": 4091,
      "Ġlangu": 4092,
      "ĠGabriel": 4093,
      "ĠLazarus": 4094,
      "ĠBaptist": 4095,
      "Ġbridegroom": 4096,
      "Are": 4097,
      "Again": 4098,
      "From": 4099,
      "duce": 4100,
      "eg": 4101,
      "eves": 4102,
      "gs": 4103,
      "ius": 4104,
      "land": 4105,
      "mp": 4106,
      "ops": 4107,
      "rt": 4108,
      "teth": 4109,
      "uish": 4110,
      "Ġir": 4111,
      "Ġrou": 4112,
      "Ġide": 4113,
      "Ġtro": 4114,
      "Ġahead": 4115,
      "Ġwin": 4116,
      "Ġwages": 4117,
      "ina": 4118,
      "Ġsurn": 4119,
      "isions": 4120,
      "Ġbad": 4121,
      "Ġbought": 4122,
      "Ġbitter": 4123,
      "ouris": 4124,
      "vell": 4125,
      "Ġfine": 4126,
      "Ġfresh": 4127,
      "Ġmod": 4128,
      "Ġmedi": 4129,
      "Ġdon": 4130,
      "Ġpals": 4131,
      "Ġbeings": 4132,
      "Ġnaked": 4133,
      "omes": 4134,
      "Ġheir": 4135,
      "Ġthrust": 4136,
      "Ġhair": 4137,
      "stain": 4138,
      "ceiving": 4139,
      "ĠAcha": 4140,
      "Ġhind": 4141,
      "Ġresol": 4142,
      "Ġsail": 4143,
      "Ġsakes": 4144,
      "Ġunless": 4145,
      "Ġhomes": 4146,
      "lier": 4147,
      "lius": 4148,
      "ional": 4149,
      "ura": 4150,
      "Ġasunder": 4151,
      "ĠThose": 4152,
      "ĠGive": 4153,
      "ĠLy": 4154,
      "ĠOf": 4155,
      "Ġsoft": 4156,
      "ruly": 4157,
      "inder": 4158,
      "Ġorphan": 4159,
      "Ġfelt": 4160,
      "ically": 4161,
      "Ġprovid": 4162,
      "Ġshut": 4163,
      "ĠRem": 4164,
      "Ġloc": 4165,
      "ĠYea": 4166,
      "ĠExcept": 4167,
      "Ġotherwise": 4168,
      "Ġgoods": 4169,
      "Ġshed": 4170,
      "ansom": 4171,
      "ĠWhosoever": 4172,
      "ounded": 4173,
      "Ġparties": 4174,
      "Ġleaves": 4175,
      "Ġleaving": 4176,
      "Ġransom": 4177,
      "Ġletter": 4178,
      "Ġoffic": 4179,
      "Ġenough": 4180,
      "Ġcool": 4181,
      "Ġresc": 4182,
      "Ġbringing": 4183,
      "Ġobtain": 4184,
      "Ġclaim": 4185,
      "Ġwithered": 4186,
      "Ġtemp": 4187,
      "Ġlived": 4188,
      "ossible": 4189,
      "Ġpurity": 4190,
      "ission": 4191,
      "Ġappoint": 4192,
      "Ġthief": 4193,
      "Ġthieves": 4194,
      "Ġsupport": 4195,
      "Ġslave": 4196,
      "Ġsatans": 4197,
      "Ġhusbands": 4198,
      "Ġships": 4199,
      "Ġgrieved": 4200,
      "Ġsteward": 4201,
      "Ġneedy": 4202,
      "Ġdevi": 4203,
      "Ġimpossible": 4204,
      "ruption": 4205,
      "Ġsuccessors": 4206,
      "Ġinheritors": 4207,
      "Ġcircumcised": 4208,
      "Ġviolence": 4209,
      "Ġtransgressors": 4210,
      "Ġadopted": 4211,
      "Ġsubjected": 4212,
      "Ġrespective": 4213,
      "ibility": 4214,
      "Ġbenevol": 4215,
      "Ġceased": 4216,
      "Ġassemble": 4217,
      "Ġevidence": 4218,
      "Ġaccomplish": 4219,
      "Ġvisible": 4220,
      "Ġmentioned": 4221,
      "Ġneglect": 4222,
      "Knowing": 4223,
      "Ġnecessity": 4224,
      "Ġexcuse": 4225,
      "Ġenjoined": 4226,
      "ĠGreeks": 4227,
      "Ġsacrifices": 4228,
      "Ġvirtue": 4229,
      "ratitude": 4230,
      "Ġkneel": 4231,
      "Ġrent": 4232,
      "Ġvener": 4233,
      "Ġhurt": 4234,
      "Ġavailable": 4235,
      "Ġwandering": 4236,
      "Ġcraft": 4237,
      "Ġshepherd": 4238,
      "ĠSadduce": 4239,
      "Ġachieve": 4240,
      "Ġingratitude": 4241,
      "Ġsource": 4242,
      "Ġdignity": 4243,
      "Ġepistle": 4244,
      "ĠPilgrimage": 4245,
      "Ġconsolation": 4246,
      "pensation": 4247,
      "Ġlanguage": 4248,
      "Ġtroops": 4249,
      "ĠSadducees": 4250,
      "At": 4251,
      "Moreover": 4252,
      "Sal": 4253,
      "Yea": 4254,
      "dal": 4255,
      "fruit": 4256,
      "finite": 4257,
      "gard": 4258,
      "gone": 4259,
      "lter": 4260,
      "long": 4261,
      "mor": 4262,
      "mos": 4263,
      "side": 4264,
      "uct": 4265,
      "Ġze": 4266,
      "Ġaright": 4267,
      "Ġwra": 4268,
      "Ġoil": 4269,
      "Ġoint": 4270,
      "haps": 4271,
      "Ġbased": 4272,
      "Ġbattle": 4273,
      "vey": 4274,
      "Ġfer": 4275,
      "Ġfing": 4276,
      "Ġfat": 4277,
      "Ġoften": 4278,
      "Ġmater": 4279,
      "Ġmocked": 4280,
      "Ġcorn": 4281,
      "Ġcircum": 4282,
      "enes": 4283,
      "Ġbeware": 4284,
      "Ġinn": 4285,
      "Ġnum": 4286,
      "arc": 4287,
      "Ġthrow": 4288,
      "Ġec": 4289,
      "Ġeight": 4290,
      "Ġlep": 4291,
      "ĠAz": 4292,
      "ided": 4293,
      "ahf": 4294,
      "Ġwithd": 4295,
      "Ġwept": 4296,
      "urd": 4297,
      "ĠWay": 4298,
      "ĠMart": 4299,
      "ĠMosque": 4300,
      "ifieth": 4301,
      "ĠTitus": 4302,
      "Ġshake": 4303,
      "Ġdeceived": 4304,
      "Ġdoest": 4305,
      "Ġpear": 4306,
      "ĠAndrew": 4307,
      "Ġdisag": 4308,
      "Ġstar": 4309,
      "Ġstat": 4310,
      "Ġstumb": 4311,
      "ĠBet": 4312,
      "Ġfault": 4313,
      "Ġabstain": 4314,
      "ĠDiv": 4315,
      "Ġexerc": 4316,
      "Ġbeliever": 4317,
      "acher": 4318,
      "Ġoutward": 4319,
      "Ġproper": 4320,
      "Ġproceed": 4321,
      "Ġearlier": 4322,
      "Ġblown": 4323,
      "Ġseeks": 4324,
      "cia": 4325,
      "Ġhated": 4326,
      "Ġloves": 4327,
      "ĠYet": 4328,
      "tedly": 4329,
      "Ġevent": 4330,
      "Ġshelter": 4331,
      "Ġperman": 4332,
      "Ġspec": 4333,
      "Ġovert": 4334,
      "Ġdesist": 4335,
      "Ġherself": 4336,
      "Ġprevail": 4337,
      "Ġradi": 4338,
      "Ġenmity": 4339,
      "Ġcock": 4340,
      "Ġcovered": 4341,
      "Ġreside": 4342,
      "Ġresist": 4343,
      "Ġresult": 4344,
      "Ġfollows": 4345,
      "Ġscour": 4346,
      "ĠBearer": 4347,
      "Ġsubserv": 4348,
      "Ġforgot": 4349,
      "Ġbegotten": 4350,
      "Ġclos": 4351,
      "Ġcontem": 4352,
      "Ġdeniers": 4353,
      "Ġcasting": 4354,
      "Ġchaste": 4355,
      "Ġimag": 4356,
      "Ġrewarded": 4357,
      "Ġdelight": 4358,
      "ribute": 4359,
      "Ġaffir": 4360,
      "oubtedly": 4361,
      "Ġquar": 4362,
      "Ġpurs": 4363,
      "Ġfulness": 4364,
      "Ġmerciful": 4365,
      "Ġsupposed": 4366,
      "Ġgrants": 4367,
      "ĠPharisee": 4368,
      "Ġtremb": 4369,
      "ĠInfinite": 4370,
      "Ġtestify": 4371,
      "Ġtestament": 4372,
      "Ġforgives": 4373,
      "Ġdefile": 4374,
      "Ġsteal": 4375,
      "Ġrefused": 4376,
      "Ġdisputing": 4377,
      "Ġattention": 4378,
      "uffering": 4379,
      "Ġleaders": 4380,
      "Ġstrive": 4381,
      "Ġprepare": 4382,
      "Ġthoughts": 4383,
      "Ġcrooked": 4384,
      "aimed": 4385,
      "Ġburdens": 4386,
      "Ġcalm": 4387,
      "Ġlabou": 4388,
      "Ġfellowship": 4389,
      "Ġpersecuted": 4390,
      "Ġsimply": 4391,
      "Ġelect": 4392,
      "Ġlearned": 4393,
      "Ġthrown": 4394,
      "Ġsubmissiveness": 4395,
      "Ġassembled": 4396,
      "Ġdawn": 4397,
      "Ġobligation": 4398,
      "Ġmurm": 4399,
      "Ġmiracle": 4400,
      "Ġrequired": 4401,
      "Ġdisobeyed": 4402,
      "Ġfoolishness": 4403,
      "Ġdamsel": 4404,
      "Ġcolour": 4405,
      "Ġmocking": 4406,
      "Ġbehalf": 4407,
      "Ġtribulation": 4408,
      "Ġabsurd": 4409,
      "Ġadorned": 4410,
      "Ġcrown": 4411,
      "Ġexecute": 4412,
      "Ġmisguid": 4413,
      "Ġbounties": 4414,
      "Ġdefiance": 4415,
      "ĠSamaria": 4416,
      "ĠSilas": 4417,
      "Ġsimilar": 4418,
      "ĠMagdal": 4419,
      "Ġslaughter": 4420,
      "Ġcheer": 4421,
      "Ġlongsuffering": 4422,
      "standing": 4423,
      "ĠFavour": 4424,
      "Ġstrategy": 4425,
      "Ġcalamity": 4426,
      "ĠGuardian": 4427,
      "Ġjealous": 4428,
      "ĠFestus": 4429,
      "Ġpalsy": 4430,
      "Salute": 4431,
      "Ġmaterial": 4432,
      "Ġsubservient": 4433,
      "Go": 4434,
      "Has": 4435,
      "One": 4436,
      "With": 4437,
      "Your": 4438,
      "brew": 4439,
      "eli": 4440,
      "ebed": 4441,
      "father": 4442,
      "fty": 4443,
      "ges": 4444,
      "ger": 4445,
      "gar": 4446,
      "king": 4447,
      "rates": 4448,
      "Ġtas": 4449,
      "Ġtresp": 4450,
      "hend": 4451,
      "Ġaction": 4452,
      "Ġsore": 4453,
      "reci": 4454,
      "rehend": 4455,
      "isted": 4456,
      "Ġfought": 4457,
      "itions": 4458,
      "Ġmong": 4459,
      "Ġmour": 4460,
      "erm": 4461,
      "erv": 4462,
      "Ġdate": 4463,
      "Ġcou": 4464,
      "Ġcarn": 4465,
      "Ġpound": 4466,
      "Ġpoin": 4467,
      "Ġpatter": 4468,
      "Ġinven": 4469,
      "Ġinvent": 4470,
      "omas": 4471,
      "Ġyouth": 4472,
      "Ġult": 4473,
      "Ġthreat": 4474,
      "anias": 4475,
      "Ġhang": 4476,
      "Ġlad": 4477,
      "Ġlum": 4478,
      "Ġlift": 4479,
      "Ġgro": 4480,
      "Ġgained": 4481,
      "ĠAp": 4482,
      "ĠAgri": 4483,
      "Ġforces": 4484,
      "Ġsalt": 4485,
      "ĠHaj": 4486,
      "Ġunknow": 4487,
      "lies": 4488,
      "lives": 4489,
      "ĠWor": 4490,
      "ĠWoe": 4491,
      "ĠSin": 4492,
      "ĠSura": 4493,
      "ĠMel": 4494,
      "ifies": 4495,
      "Ġasp": 4496,
      "Ġsealed": 4497,
      "ĠLo": 4498,
      "Ġshaken": 4499,
      "Ġalway": 4500,
      "Ġtheirs": 4501,
      "rac": 4502,
      "akes": 4503,
      "Ġdost": 4504,
      "Ġdoings": 4505,
      "ĠHelp": 4506,
      "ĠHebrew": 4507,
      "Ġwhenever": 4508,
      "Ġdisple": 4509,
      "Ġsum": 4510,
      "Ġsuck": 4511,
      "Ġupro": 4512,
      "ĠBlast": 4513,
      "Ġsport": 4514,
      "Ġsperm": 4515,
      "Ġneck": 4516,
      "Ġexcess": 4517,
      "Ġexact": 4518,
      "Ġconst": 4519,
      "Ġconstru": 4520,
      "Ġconvey": 4521,
      "Ġagreed": 4522,
      "Ġprocl": 4523,
      "Ġliken": 4524,
      "Ġshining": 4525,
      "Ġvoic": 4526,
      "ĠSoon": 4527,
      "ĠRa": 4528,
      "emption": 4529,
      "Ġtort": 4530,
      "ĠNeither": 4531,
      "Ġplots": 4532,
      "Ġoverp": 4533,
      "Ġwherefore": 4534,
      "Ġwhereby": 4535,
      "Ġprefer": 4536,
      "Ġrid": 4537,
      "ĠRec": 4538,
      "ĠKaba": 4539,
      "Ġteeth": 4540,
      "Ġreport": 4541,
      "Ġraising": 4542,
      "Ġeaten": 4543,
      "velop": 4544,
      "Ġchains": 4545,
      "lessly": 4546,
      "Ġseeketh": 4547,
      "Ġpaths": 4548,
      "Ġnights": 4549,
      "mities": 4550,
      "ĠMessengership": 4551,
      "Ġbeholding": 4552,
      "Ġpurified": 4553,
      "Ġremains": 4554,
      "Ġlonger": 4555,
      "Ġdrinking": 4556,
      "ĠKnower": 4557,
      "Ġsupper": 4558,
      "Ġfalling": 4559,
      "Ġdistin": 4560,
      "ĠZebed": 4561,
      "Ġtestified": 4562,
      "Ġchose": 4563,
      "Ġkindness": 4564,
      "Ġprisoner": 4565,
      "Ġprisoners": 4566,
      "Ġassum": 4567,
      "Ġattra": 4568,
      "Ġthirty": 4569,
      "Ġreasoned": 4570,
      "Ġactiv": 4571,
      "Ġhardship": 4572,
      "Ġbenefits": 4573,
      "Ġmagn": 4574,
      "Ġappearance": 4575,
      "Ġsecure": 4576,
      "Ġprostration": 4577,
      "Ġdiff": 4578,
      "Ġdiffer": 4579,
      "Ġfeeling": 4580,
      "Ġintended": 4581,
      "Ġveil": 4582,
      "Ġviolent": 4583,
      "Ġprofitable": 4584,
      "Ġpersecut": 4585,
      "Ġquestions": 4586,
      "Ġhumiliating": 4587,
      "Ġfabricate": 4588,
      "withstanding": 4589,
      "Ġwickedness": 4590,
      "Ġsomet": 4591,
      "Ġescaped": 4592,
      "Ġsubmission": 4593,
      "Ġrejoiced": 4594,
      "Ġshortly": 4595,
      "Ġdisgust": 4596,
      "Ġconfirmed": 4597,
      "Ġexceedingly": 4598,
      "Ġtalents": 4599,
      "Ġdamn": 4600,
      "ĠWords": 4601,
      "Ġcolt": 4602,
      "Ġaffair": 4603,
      "ucid": 4604,
      "Ġboldly": 4605,
      "Ġtribute": 4606,
      "Ġwondered": 4607,
      "Ġneglig": 4608,
      "Ġwidow": 4609,
      "Ġabsent": 4610,
      "Ġgird": 4611,
      "Ġanimal": 4612,
      "Ġblameless": 4613,
      "ĠUnseen": 4614,
      "Ġproduced": 4615,
      "Ġbeautiful": 4616,
      "Ġcondemnation": 4617,
      "Ġbask": 4618,
      "Ġdevoted": 4619,
      "Ġworshipping": 4620,
      "Ġreconci": 4621,
      "Ġinfirmities": 4622,
      "ĠJonas": 4623,
      "Ġstrayed": 4624,
      "Ġanointed": 4625,
      "ĠTyre": 4626,
      "Ġdetail": 4627,
      "Ġsomewhat": 4628,
      "ĠArabic": 4629,
      "Ġconferred": 4630,
      "Ġtradition": 4631,
      "Ġbottles": 4632,
      "Ġfront": 4633,
      "Ġmalice": 4634,
      "Ġlinen": 4635,
      "ĠSidon": 4636,
      "Ġstaff": 4637,
      "Ġhardened": 4638,
      "Ġhindered": 4639,
      "Ġorphans": 4640,
      "Ġointment": 4641,
      "Ġfervent": 4642,
      "ĠMartha": 4643,
      "Ġpearls": 4644,
      "Ġpermanent": 4645,
      "Ġmisguided": 4646,
      "ĠMagdalene": 4647,
      "Ġpattern": 4648,
      "ĠAgrippa": 4649,
      "ĠHajj": 4650,
      "ĠZebedee": 4651,
      "Bre": 4652,
      "Beware": 4653,
      "God": 4654,
      "app": 4655,
      "cari": 4656,
      "een": 4657,
      "erers": 4658,
      "gan": 4659,
      "guard": 4660,
      "ium": 4661,
      "joice": 4662,
      "more": 4663,
      "sal": 4664,
      "tes": 4665,
      "uel": 4666,
      "yl": 4667,
      "yya": 4668,
      "heat": 4669,
      "Ġarise": 4670,
      "Ġwaste": 4671,
      "Ġwheat": 4672,
      "Ġsed": 4673,
      "Ġshi": 4674,
      "Ġsort": 4675,
      "had": 4676,
      "har": 4677,
      "hand": 4678,
      "Ġban": 4679,
      "Ġborne": 4680,
      "orough": 4681,
      "Ġfre": 4682,
      "Ġfaint": 4683,
      "itate": 4684,
      "Ġmed": 4685,
      "Ġdying": 4686,
      "Ġcrow": 4687,
      "Ġbears": 4688,
      "Ġbelly": 4689,
      "Ġinward": 4690,
      "Ġnouris": 4691,
      "aries": 4692,
      "Ġthorough": 4693,
      "anna": 4694,
      "aying": 4695,
      "Ġlower": 4696,
      "Ġgates": 4697,
      "ential": 4698,
      "Ġreme": 4699,
      "Ġresemb": 4700,
      "Ġsavour": 4701,
      "Ġunt": 4702,
      "ĠWhi": 4703,
      "ĠMen": 4704,
      "ĠMim": 4705,
      "ĠMahf": 4706,
      "ush": 4707,
      "ĠTH": 4708,
      "Ġsell": 4709,
      "Ġsever": 4710,
      "Ġsection": 4711,
      "rice": 4712,
      "ĠLam": 4713,
      "Ġalleg": 4714,
      "Ġyours": 4715,
      "Ġdeg": 4716,
      "racted": 4717,
      "Ġcand": 4718,
      "Ġmans": 4719,
      "Ġthereon": 4720,
      "Ġstor": 4721,
      "ĠOlives": 4722,
      "Ġspare": 4723,
      "Ġspring": 4724,
      "Ġfail": 4725,
      "ander": 4726,
      "Ġgoes": 4727,
      "Ġgoats": 4728,
      "Ġexalt": 4729,
      "bel": 4730,
      "Ġconc": 4731,
      "Ġconcl": 4732,
      "Ġconstr": 4733,
      "Ġattained": 4734,
      "ices": 4735,
      "Ġvast": 4736,
      "ĠSovereignty": 4737,
      "cial": 4738,
      "ĠRome": 4739,
      "hany": 4740,
      "Ġlofty": 4741,
      "Ġshouldest": 4742,
      "Ġcalls": 4743,
      "Ġlame": 4744,
      "Ġperhaps": 4745,
      "Ġblesses": 4746,
      "ĠThomas": 4747,
      "Ġaccused": 4748,
      "Ġdesol": 4749,
      "Ġdesiring": 4750,
      "Ġadult": 4751,
      "ĠWhose": 4752,
      "Ġwhereunto": 4753,
      "ĠIscari": 4754,
      "Ġtwice": 4755,
      "Ġmoreover": 4756,
      "Ġprecious": 4757,
      "Ġrot": 4758,
      "Ġletters": 4759,
      "Ġoffsp": 4760,
      "ĠReck": 4761,
      "Ġens": 4762,
      "Ġenvy": 4763,
      "Ġenquire": 4764,
      "Ġputteth": 4765,
      "Ġentertain": 4766,
      "Ġentering": 4767,
      "ĠBeaut": 4768,
      "Ġgrass": 4769,
      "Ġtender": 4770,
      "Ġremission": 4771,
      "Ġwatching": 4772,
      "Ġgrapes": 4773,
      "Ġgavest": 4774,
      "Ġlives": 4775,
      "Ġaffection": 4776,
      "Ġnevertheless": 4777,
      "Ġpunished": 4778,
      "Ġfindeth": 4779,
      "ĠCommands": 4780,
      "alize": 4781,
      "Ġintention": 4782,
      "Ġhonoured": 4783,
      "Ġacceptable": 4784,
      "Ġflock": 4785,
      "Ġsupposing": 4786,
      "Ġprovoke": 4787,
      "Ġhours": 4788,
      "Ġdisting": 4789,
      "Ġshows": 4790,
      "Being": 4791,
      "strate": 4792,
      "Ġburied": 4793,
      "Ġmanifold": 4794,
      "Ġafflictions": 4795,
      "Ġprofess": 4796,
      "Ġdisputed": 4797,
      "Ġsufferings": 4798,
      "Ġswallow": 4799,
      "Ġdevast": 4800,
      "Ġattend": 4801,
      "Ġsorry": 4802,
      "ĠWarners": 4803,
      "Ġspending": 4804,
      "upon": 4805,
      "ĠAnanias": 4806,
      "Ġweakness": 4807,
      "ccord": 4808,
      "Ġelucid": 4809,
      "Ġguardian": 4810,
      "Ġtransgression": 4811,
      "Ġcourt": 4812,
      "Ġbecoming": 4813,
      "Ġmoving": 4814,
      "Ġpersecute": 4815,
      "Ġpalm": 4816,
      "Ġpalms": 4817,
      "Ġsubjection": 4818,
      "Ġsilence": 4819,
      "Ġrising": 4820,
      "Ġuncleanness": 4821,
      "Ġcommunication": 4822,
      "Ġburned": 4823,
      "Ġburning": 4824,
      "Ġredemption": 4825,
      "Ġthankful": 4826,
      "Ġlesson": 4827,
      "Ġdominion": 4828,
      "Ġsorrowful": 4829,
      "Ġexhortation": 4830,
      "Ġungod": 4831,
      "ĠTrue": 4832,
      "Ġreproach": 4833,
      "Ġquickly": 4834,
      "Ġrebellion": 4835,
      "Ġbusiness": 4836,
      "abbas": 4837,
      "Ġcompletely": 4838,
      "Why": 4839,
      "Ġgroups": 4840,
      "Ġexchan": 4841,
      "Ġproduce": 4842,
      "Ġhunger": 4843,
      "ĠGreek": 4844,
      "Ġprophesy": 4845,
      "Ġexplain": 4846,
      "Ġvirtuous": 4847,
      "Ġlaugh": 4848,
      "Ġsafeguard": 4849,
      "Ġdiligently": 4850,
      "Ġcompanionship": 4851,
      "Ġparticles": 4852,
      "Ġtotal": 4853,
      "Ġhighest": 4854,
      "Ġfootsteps": 4855,
      "Ġbidden": 4856,
      "Ġfilthy": 4857,
      "Ġresponsibility": 4858,
      "Ġspoils": 4859,
      "Ġreckoning": 4860,
      "Ġdrunken": 4861,
      "Ġinjun": 4862,
      "ĠLawh": 4863,
      "Ġdislike": 4864,
      "Ġmaidens": 4865,
      "ĠBarabbas": 4866,
      "ĠPraiseworthy": 4867,
      "Ġdreadful": 4868,
      "Ġbalance": 4869,
      "Ġmeekness": 4870,
      "Ġcleansed": 4871,
      "Ġvegetation": 4872,
      "ĠProtector": 4873,
      "Ġiron": 4874,
      "ĠAchaia": 4875,
      "Ġdisagree": 4876,
      "ĠBethany": 4877,
      "Ġtask": 4878,
      "Ġcarnal": 4879,
      "ĠApoll": 4880,
      "Ġunknown": 4881,
      "Ġvoices": 4882,
      "Ġattractive": 4883,
      "Ġdamnation": 4884,
      "Brethren": 4885,
      "Ġremem": 4886,
      "ĠMahfuz": 4887,
      "ĠIscariot": 4888,
      "Ġoffspring": 4889,
      "Ibrahim": 4890,
      "My": 4891,
      "aid": 4892,
      "aren": 4893,
      "cript": 4894,
      "hul": 4895,
      "iet": 4896,
      "mong": 4897,
      "ool": 4898,
      "pers": 4899,
      "phas": 4900,
      "sist": 4901,
      "yan": 4902,
      "Ġtit": 4903,
      "Ġtasted": 4904,
      "Ġav": 4905,
      "Ġwest": 4906,
      "Ġwide": 4907,
      "reet": 4908,
      "regard": 4909,
      "Ġox": 4910,
      "Ġbab": 4911,
      "llies": 4912,
      "orient": 4913,
      "Ġfif": 4914,
      "Ġfru": 4915,
      "itness": 4916,
      "itute": 4917,
      "itality": 4918,
      "Ġmot": 4919,
      "Ġmil": 4920,
      "eries": 4921,
      "Ġtol": 4922,
      "Ġtoil": 4923,
      "Ġpred": 4924,
      "Ġposition": 4925,
      "Ġbellies": 4926,
      "Ġnine": 4927,
      "Ġnought": 4928,
      "aration": 4929,
      "Ġthrice": 4930,
      "anse": 4931,
      "anced": 4932,
      "Ġeast": 4933,
      "Ġeun": 4934,
      "ĠApp": 4935,
      "ĠAuthority": 4936,
      "leth": 4937,
      "lying": 4938,
      "though": 4939,
      "Ġunve": 4940,
      "live": 4941,
      "Ġweight": 4942,
      "ĠSir": 4943,
      "romise": 4944,
      "ĠTable": 4945,
      "ĠTherefore": 4946,
      "Ġseal": 4947,
      "Ġseats": 4948,
      "meth": 4949,
      "Ġshape": 4950,
      "Ġcompensation": 4951,
      "ĠJE": 4952,
      "ales": 4953,
      "Ġdear": 4954,
      "ilant": 4955,
      "uls": 4956,
      "ular": 4957,
      "Ġdisord": 4958,
      "Ġdiscer": 4959,
      "Ġdisregard": 4960,
      "Ġdisorient": 4961,
      "ĠPromise": 4962,
      "Ġstoned": 4963,
      "Ġbygone": 4964,
      "ĠBen": 4965,
      "ĠCorne": 4966,
      "Ġspit": 4967,
      "imately": 4968,
      "ĠDe": 4969,
      "ĠDomin": 4970,
      "Ġorna": 4971,
      "ude": 4972,
      "rence": 4973,
      "Ġseemed": 4974,
      "Ġvig": 4975,
      "Ġvari": 4976,
      "Ġheav": 4977,
      "Ġwhomsoever": 4978,
      "cies": 4979,
      "Ġacknow": 4980,
      "ĠEss": 4981,
      "ĠElis": 4982,
      "Ġearthqu": 4983,
      "Ġfold": 4984,
      "ĠNot": 4985,
      "Ġserved": 4986,
      "ĠThus": 4987,
      "Ġdidst": 4988,
      "Ġtwain": 4989,
      "Ġprevent": 4990,
      "Ġlend": 4991,
      "Ġoffice": 4992,
      "Ġcommands": 4993,
      "Ġputs": 4994,
      "ĠBecause": 4995,
      "Ġwatched": 4996,
      "Ġchamber": 4997,
      "Ġhelpless": 4998,
      "Ġgracious": 4999,
      "Ġretribution": 5000,
      "ĠComp": 5001,
      "Ġcompris": 5002,
      "Ġreveal": 5003,
      "Ġsending": 5004,
      "ension": 5005,
      "Ġshoes": 5006,
      "ĠCommandment": 5007,
      "Ġgodly": 5008,
      "Ġpurcha": 5009,
      "ĠWhatever": 5010,
      "Whosoever": 5011,
      "Ġtrade": 5012,
      "Ġintimate": 5013,
      "Ġexpress": 5014,
      "ĠSatans": 5015,
      "Ġhonest": 5016,
      "Ġaccepting": 5017,
      "Ġrepented": 5018,
      "Ġmisfort": 5019,
      "Ġmiserly": 5020,
      "Ġappearing": 5021,
      "Ġcommits": 5022,
      "Ġforefather": 5023,
      "ĠPrayers": 5024,
      "Ġtrusted": 5025,
      "Ġjudgeth": 5026,
      "Ġdistracted": 5027,
      "ĠThough": 5028,
      "Ġboat": 5029,
      "Ġponder": 5030,
      "Ġburst": 5031,
      "Ġregion": 5032,
      "Ġdespair": 5033,
      "Ġpairs": 5034,
      "Ġinflu": 5035,
      "ĠMuslim": 5036,
      "Ġtribe": 5037,
      "Ġconduct": 5038,
      "Ġadvance": 5039,
      "Ġerr": 5040,
      "Ġfreely": 5041,
      "Ġgets": 5042,
      "Ġgladly": 5043,
      "Ġsweet": 5044,
      "Ġmouths": 5045,
      "Ġchance": 5046,
      "Ġsecurity": 5047,
      "Ġprostrating": 5048,
      "Ġcrops": 5049,
      "Ġfools": 5050,
      "ĠOnes": 5051,
      "Ġbuilding": 5052,
      "Ġdecree": 5053,
      "Ġministers": 5054,
      "Ġtravell": 5055,
      "Ġlistener": 5056,
      "Ġadmonish": 5057,
      "Ġdrawn": 5058,
      "Ġembod": 5059,
      "Ġbecometh": 5060,
      "Ġaddition": 5061,
      "Ġpersecution": 5062,
      "Ġpalace": 5063,
      "Ġhappen": 5064,
      "Ġlimit": 5065,
      "Ġfooted": 5066,
      "Ġhumiliated": 5067,
      "ĠStep": 5068,
      "Ġdescended": 5069,
      "ariyya": 5070,
      "Ġhealing": 5071,
      "Ġwombs": 5072,
      "Ġfinished": 5073,
      "Ġdominance": 5074,
      "Ġseparated": 5075,
      "Ġmessage": 5076,
      "Ġbusy": 5077,
      "Ġabsolutely": 5078,
      "Ġbeauty": 5079,
      "Ġprincip": 5080,
      "Ġprivately": 5081,
      "Ġperpetrated": 5082,
      "Ġtotally": 5083,
      "Ġhigher": 5084,
      "ĠMadina": 5085,
      "ĠMadyan": 5086,
      "Ġstrugg": 5087,
      "Ġvillage": 5088,
      "Ġfortune": 5089,
      "Ġvalue": 5090,
      "Ġdishonour": 5091,
      "ĠEnter": 5092,
      "Ġearnestly": 5093,
      "Ġexclus": 5094,
      "Ġplanted": 5095,
      "Ġwrongdoing": 5096,
      "Ġsorcerers": 5097,
      "Peter": 5098,
      "Ġslew": 5099,
      "ĠJoppa": 5100,
      "Ġabideth": 5101,
      "Ġgradually": 5102,
      "Ġluxur": 5103,
      "Ġpertaining": 5104,
      "Ġagonizing": 5105,
      "Ġidea": 5106,
      "Ġofficers": 5107,
      "Ġneglectful": 5108,
      "Ġwrapped": 5109,
      "ĠDivine": 5110,
      "Ġexercise": 5111,
      "Ġradiant": 5112,
      "Ġcloser": 5113,
      "ĠHelper": 5114,
      "Ġactivities": 5115,
      "Ġbaskets": 5116,
      "ĠReckoning": 5117,
      "ccording": 5118,
      "ĠApollos": 5119,
      "cription": 5120,
      "Ġeunuch": 5121,
      "ĠCornelius": 5122,
      "ĠEssence": 5123,
      "Ġforefathers": 5124,
      "Ali": 5125,
      "Grace": 5126,
      "Pil": 5127,
      "Simon": 5128,
      "Whether": 5129,
      "born": 5130,
      "cin": 5131,
      "dr": 5132,
      "eem": 5133,
      "go": 5134,
      "leness": 5135,
      "ped": 5136,
      "rus": 5137,
      "tic": 5138,
      "ug": 5139,
      "ups": 5140,
      "van": 5141,
      "Ġtread": 5142,
      "Ġwed": 5143,
      "Ġwol": 5144,
      "ince": 5145,
      "inity": 5146,
      "Ġsus": 5147,
      "Ġsens": 5148,
      "Ġop": 5149,
      "Ġoce": 5150,
      "Ġolive": 5151,
      "hal": 5152,
      "Ġbig": 5153,
      "Ġboy": 5154,
      "ouble": 5155,
      "Ġfow": 5156,
      "Ġfate": 5157,
      "itiz": 5158,
      "itched": 5159,
      "Ġmart": 5160,
      "Ġmist": 5161,
      "Ġmix": 5162,
      "Ġdig": 5163,
      "Ġdang": 5164,
      "Ġduty": 5165,
      "Ġdouble": 5166,
      "Ġcos": 5167,
      "Ġcups": 5168,
      "Ġpot": 5169,
      "Ġpull": 5170,
      "Ġpress": 5171,
      "Ġpoured": 5172,
      "hib": 5173,
      "hidr": 5174,
      "Ġnet": 5175,
      "Ġninth": 5176,
      "ara": 5177,
      "atives": 5178,
      "Ġthrew": 5179,
      "utes": 5180,
      "Ġgrew": 5181,
      "Ġgenes": 5182,
      "stances": 5183,
      "ĠAssuredly": 5184,
      "ĠAlex": 5185,
      "enting": 5186,
      "chised": 5187,
      "Ġrear": 5188,
      "Ġreaches": 5189,
      "Ġrealize": 5190,
      "Ġunm": 5191,
      "Ġunable": 5192,
      "odom": 5193,
      "Ġweigh": 5194,
      "Ġweek": 5195,
      "ĠWatch": 5196,
      "ĠSit": 5197,
      "ĠSodom": 5198,
      "ĠMatt": 5199,
      "ĠMaj": 5200,
      "ĠTur": 5201,
      "ĠTro": 5202,
      "Ġsex": 5203,
      "Ġseas": 5204,
      "Ġkins": 5205,
      "alon": 5206,
      "Ġdelay": 5207,
      "Ġdevelop": 5208,
      "ults": 5209,
      "Ġdisruption": 5210,
      "Ġdisapp": 5211,
      "Ġstep": 5212,
      "ĠCor": 5213,
      "Ġspite": 5214,
      "Ġfame": 5215,
      "rud": 5216,
      "Ġability": 5217,
      "Ġnearer": 5218,
      "Ġnecks": 5219,
      "ĠDhul": 5220,
      "Ġamb": 5221,
      "bear": 5222,
      "Ġorgan": 5223,
      "Ġconceived": 5224,
      "acked": 5225,
      "reated": 5226,
      "Ġhosp": 5227,
      "Ġhopes": 5228,
      "Ġmayest": 5229,
      "abeth": 5230,
      "ĠThess": 5231,
      "aming": 5232,
      "cially": 5233,
      "Ġacqu": 5234,
      "ĠRight": 5235,
      "ĠRel": 5236,
      "ĠRabb": 5237,
      "Ġloins": 5238,
      "Ġdisbeliever": 5239,
      "ĠEat": 5240,
      "ounted": 5241,
      "ĠMessage": 5242,
      "Ġwouldest": 5243,
      "mbs": 5244,
      "Ġtormented": 5245,
      "ĠFeli": 5246,
      "Ġgoodness": 5247,
      "Ġserious": 5248,
      "Ġpled": 5249,
      "Ġplot": 5250,
      "Ġplent": 5251,
      "arest": 5252,
      "Ġcanst": 5253,
      "Ġrights": 5254,
      "Ġherd": 5255,
      "Ġparted": 5256,
      "Ġenv": 5257,
      "Ġrecitation": 5258,
      "Ġcoats": 5259,
      "Ġtrumpet": 5260,
      "ĠKhidr": 5261,
      "Ġentereth": 5262,
      "Ġforthwith": 5263,
      "inkling": 5264,
      "Ġpassing": 5265,
      "Ġtears": 5266,
      "Ġsubd": 5267,
      "Ġforgave": 5268,
      "Ġkeeps": 5269,
      "Ġkeeping": 5270,
      "Ġkeepers": 5271,
      "ĠQib": 5272,
      "Ġexceptional": 5273,
      "Ġtemper": 5274,
      "Ġpowerful": 5275,
      "Ġendowed": 5276,
      "Ġroof": 5277,
      "Ġjudges": 5278,
      "Ġlightning": 5279,
      "mitted": 5280,
      "Ġshore": 5281,
      "Ġfinding": 5282,
      "Ġpreserved": 5283,
      "Ġpurify": 5284,
      "Whose": 5285,
      "Ġstandeth": 5286,
      "Ġintent": 5287,
      "Ġintense": 5288,
      "Ġexpanse": 5289,
      "Ġruin": 5290,
      "Ġstop": 5291,
      "Ġwaves": 5292,
      "Ġflo": 5293,
      "iaphas": 5294,
      "Ġconside": 5295,
      "Ġconsult": 5296,
      "Ġshewing": 5297,
      "Ġhumility": 5298,
      "Ġordin": 5299,
      "Ġprovisions": 5300,
      "Ġbaptize": 5301,
      "Ġtreacher": 5302,
      "ĠPharaohs": 5303,
      "Ġfriendship": 5304,
      "Ġboiling": 5305,
      "Ġperfection": 5306,
      "Ġdefinite": 5307,
      "ablish": 5308,
      "Ġcontinu": 5309,
      "Ġcontinually": 5310,
      "Ġpossessions": 5311,
      "Ġlayers": 5312,
      "Ġdespis": 5313,
      "Ġdespised": 5314,
      "Ġinflict": 5315,
      "Ġtrium": 5316,
      "Ġdevout": 5317,
      "ĠCaiaphas": 5318,
      "Ġattent": 5319,
      "Ġpaying": 5320,
      "Ġstripes": 5321,
      "Ġdeliverance": 5322,
      "Ġpleasures": 5323,
      "Ġsecretly": 5324,
      "Ġsuccessful": 5325,
      "Ġincor": 5326,
      "ĠOneness": 5327,
      "Ġdecomp": 5328,
      "Ġguardians": 5329,
      "Ġyounger": 5330,
      "Ġmonit": 5331,
      "Ġpalaces": 5332,
      "Ġaccompan": 5333,
      "Ġprotector": 5334,
      "Ġfields": 5335,
      "Ġeleven": 5336,
      "Ġmagicians": 5337,
      "Ġvirgin": 5338,
      "Ġgains": 5339,
      "Ġrelation": 5340,
      "Ġsubmissive": 5341,
      "ĠZakariyya": 5342,
      "Ġconfirms": 5343,
      "Ġoppressed": 5344,
      "Ġtalked": 5345,
      "avened": 5346,
      "Ġafflicts": 5347,
      "Ġsixth": 5348,
      "Ġrebuke": 5349,
      "Ġsisters": 5350,
      "Ġwillingly": 5351,
      "Ġteachers": 5352,
      "Ġsettle": 5353,
      "Ġdreams": 5354,
      "Ġinclined": 5355,
      "Unto": 5356,
      "Ġhungred": 5357,
      "Ġlaun": 5358,
      "Ġprivate": 5359,
      "Ġsupplication": 5360,
      "Ġpractice": 5361,
      "Ġboasting": 5362,
      "Ġgreeting": 5363,
      "Ġadversity": 5364,
      "Ġdiligence": 5365,
      "Ġdevotion": 5366,
      "Ġfrag": 5367,
      "ĠSevere": 5368,
      "Ġanger": 5369,
      "Ġdefiant": 5370,
      "ĠSamarit": 5371,
      "Ġsoweth": 5372,
      "Ġdecreed": 5373,
      "Ġreconc": 5374,
      "Ġfootstool": 5375,
      "Ġfilth": 5376,
      "Ġforsaken": 5377,
      "Ġagreement": 5378,
      "Ġresponsible": 5379,
      "Ġstretched": 5380,
      "Ġgnas": 5381,
      "Ġpenny": 5382,
      "Ġrepeated": 5383,
      "Ġmarket": 5384,
      "Ġmessenger": 5385,
      "Ġmessengers": 5386,
      "Ġfascin": 5387,
      "ĠPerfect": 5388,
      "Ġcovetousness": 5389,
      "Ġworthless": 5390,
      "ĠBliss": 5391,
      "Ġpreceding": 5392,
      "Ġsuperiority": 5393,
      "Seeing": 5394,
      "Ġunleavened": 5395,
      "Ġwhisper": 5396,
      "Ġserpent": 5397,
      "Ġargue": 5398,
      "Ġdivorce": 5399,
      "ĠReminder": 5400,
      "Ġcircumstances": 5401,
      "Ġwithdra": 5402,
      "Ġpursu": 5403,
      "Ġlabourers": 5404,
      "Ġmurmured": 5405,
      "Ġtrespasses": 5406,
      "Ġcouches": 5407,
      "Ġultimately": 5408,
      "Ġladen": 5409,
      "ĠMelchised": 5410,
      "ĠTHE": 5411,
      "Ġdistinguish": 5412,
      "ĠElisabeth": 5413,
      "Ġmisfortune": 5414,
      "Alif": 5415,
      "Pilate": 5416,
      "Ġfowls": 5417,
      "Ġdanger": 5418,
      "ĠThessalon": 5419,
      "ĠFelix": 5420,
      "ĠQibla": 5421,
      "ĠMelchisedec": 5422,
      "Ab": 5423,
      "Al": 5424,
      "According": 5425,
      "En": 5426,
      "Men": 5427,
      "Man": 5428,
      "Some": 5429,
      "Till": 5430,
      "ait": 5431,
      "che": 5432,
      "com": 5433,
      "cast": 5434,
      "cribe": 5435,
      "eep": 5436,
      "erer": 5437,
      "iver": 5438,
      "ihil": 5439,
      "jam": 5440,
      "look": 5441,
      "oples": 5442,
      "pter": 5443,
      "pro": 5444,
      "ran": 5445,
      "sy": 5446,
      "vitable": 5447,
      "wa": 5448,
      "wift": 5449,
      "ym": 5450,
      "yren": 5451,
      "Ġvers": 5452,
      "Ġamend": 5453,
      "Ġawful": 5454,
      "nds": 5455,
      "Ġward": 5456,
      "Ġsowed": 5457,
      "Ġsitteth": 5458,
      "rees": 5459,
      "Ġbade": 5460,
      "oureth": 5461,
      "Ġfit": 5462,
      "Ġfreed": 5463,
      "Ġmort": 5464,
      "Ġmosqu": 5465,
      "esse": 5466,
      "Ġcatch": 5467,
      "Ġcitiz": 5468,
      "eneth": 5469,
      "Ġtow": 5470,
      "Ġpor": 5471,
      "Ġprou": 5472,
      "Ġbeareth": 5473,
      "Ġinformed": 5474,
      "Ġnon": 5475,
      "Ġnay": 5476,
      "Ġnice": 5477,
      "arious": 5478,
      "Ġthro": 5479,
      "ank": 5480,
      "ann": 5481,
      "set": 5482,
      "Ġhan": 5483,
      "Ġhall": 5484,
      "Ġere": 5485,
      "Ġlas": 5486,
      "Ġlots": 5487,
      "Ġghost": 5488,
      "how": 5489,
      "ĠAw": 5490,
      "Ġforbear": 5491,
      "Ġhire": 5492,
      "Ġhill": 5493,
      "lehem": 5494,
      "Ġreed": 5495,
      "Ġreceiving": 5496,
      "ash": 5497,
      "ĠHam": 5498,
      "Ġwear": 5499,
      "ĠWisdom": 5500,
      "ĠWoman": 5501,
      "ĠSome": 5502,
      "ĠSup": 5503,
      "ĠSwift": 5504,
      "ĠMount": 5505,
      "ushed": 5506,
      "ĠGra": 5507,
      "ĠGet": 5508,
      "Ġseiz": 5509,
      "rig": 5510,
      "rier": 5511,
      "Ġdefe": 5512,
      "Ġaltern": 5513,
      "Ġalert": 5514,
      "Ġalthough": 5515,
      "raud": 5516,
      "Ġpeers": 5517,
      "Ġpeoples": 5518,
      "Ġthereby": 5519,
      "ĠBan": 5520,
      "ĠCyp": 5521,
      "ĠCili": 5522,
      "ĠCyren": 5523,
      "Ġsolem": 5524,
      "Ġaband": 5525,
      "Forasmuch": 5526,
      "inded": 5527,
      "Ġfever": 5528,
      "Ġconven": 5529,
      "Ġcontained": 5530,
      "Ġconverted": 5531,
      "osis": 5532,
      "Ġago": 5533,
      "Ġatmos": 5534,
      "Ġnoble": 5535,
      "Ġoutcome": 5536,
      "ica": 5537,
      "icho": 5538,
      "Ġprop": 5539,
      "Ġbeck": 5540,
      "ably": 5541,
      "Ġseem": 5542,
      "Ġvarious": 5543,
      "amb": 5544,
      "Ġcommitteth": 5545,
      "hana": 5546,
      "Ġload": 5547,
      "ignation": 5548,
      "Ġsink": 5549,
      "Ġsincer": 5550,
      "Ġtorments": 5551,
      "ĠFriend": 5552,
      "Ġfol": 5553,
      "ĠNone": 5554,
      "ĠNear": 5555,
      "quent": 5556,
      "Ġperils": 5557,
      "Ġpluck": 5558,
      "Ġoverth": 5559,
      "Ġovercome": 5560,
      "Ġmightest": 5561,
      "Ġowners": 5562,
      "Ġherbs": 5563,
      "Ġlawy": 5564,
      "Ġrained": 5565,
      "Ġindignation": 5566,
      "ĠRemember": 5567,
      "ĠKeep": 5568,
      "Ġpromot": 5569,
      "Ġscar": 5570,
      "Ġschem": 5571,
      "Ġscale": 5572,
      "Ġgrown": 5573,
      "Ġsubsist": 5574,
      "Ġclothing": 5575,
      "Ġcontention": 5576,
      "Ġcontents": 5577,
      "Ġsouth": 5578,
      "ocent": 5579,
      "Ġdestined": 5580,
      "Ġdestination": 5581,
      "Ġended": 5582,
      "ĠForbearing": 5583,
      "Ġprophecy": 5584,
      "Ġreturning": 5585,
      "Ġrobb": 5586,
      "Ġrolled": 5587,
      "pecially": 5588,
      "ĠJericho": 5589,
      "Ġquite": 5590,
      "Ġquiet": 5591,
      "Ġasking": 5592,
      "Ġlooks": 5593,
      "Ġremaineth": 5594,
      "Ġexposed": 5595,
      "Ġstore": 5596,
      "Ġstopped": 5597,
      "Ġdrinketh": 5598,
      "Ġflood": 5599,
      "Ġprone": 5600,
      "Ġsuppor": 5601,
      "Ġsuppose": 5602,
      "Ġrests": 5603,
      "Ġslay": 5604,
      "Ġdistant": 5605,
      "Ġtreas": 5606,
      "Ġdarkened": 5607,
      "Ġnearly": 5608,
      "ĠInj": 5609,
      "ĠBelieve": 5610,
      "Ġperfected": 5611,
      "Ġperfectly": 5612,
      "Ġdwellings": 5613,
      "Does": 5614,
      "Ġpossession": 5615,
      "Ġsmite": 5616,
      "Ġregret": 5617,
      "Ġlayer": 5618,
      "Ġlaying": 5619,
      "Ġassign": 5620,
      "Ġprofane": 5621,
      "Ġrefrain": 5622,
      "ĠGalila": 5623,
      "Ġattribute": 5624,
      "Ġaccountability": 5625,
      "Ġmanifested": 5626,
      "Ġimprison": 5627,
      "Ġsorcer": 5628,
      "Ġstreets": 5629,
      "Ġcorner": 5630,
      "Ġextra": 5631,
      "Ġextend": 5632,
      "Ġthanksg": 5633,
      "Ġmagist": 5634,
      "Ġexamples": 5635,
      "Ġtempting": 5636,
      "Ġincreases": 5637,
      "Ġespecially": 5638,
      "Ġdecided": 5639,
      "Ġfeels": 5640,
      "Ġguards": 5641,
      "Ġtravelled": 5642,
      "Ġlords": 5643,
      "Ġfables": 5644,
      "Ġuttermost": 5645,
      "Ġadmonished": 5646,
      "Ġembrace": 5647,
      "Ġevildo": 5648,
      "Ġapproved": 5649,
      "Ġhumiliate": 5650,
      "Ġrecorded": 5651,
      "Ġrelatives": 5652,
      "Ġhomeland": 5653,
      "Ġbarrier": 5654,
      "Ġdescendants": 5655,
      "Ġassembly": 5656,
      "Wherein": 5657,
      "ĠIslamic": 5658,
      "Ġspecies": 5659,
      "Ġinterpre": 5660,
      "Ġfinish": 5661,
      "Ġconceited": 5662,
      "Ġedifying": 5663,
      "Ġplanets": 5664,
      "Ġboldness": 5665,
      "Ġtables": 5666,
      "ĠTruly": 5667,
      "Ġdiseases": 5668,
      "Ġdifference": 5669,
      "Ġstranger": 5670,
      "Ġnecessary": 5671,
      "Ġgirls": 5672,
      "Ġaccusers": 5673,
      "Ġprophesied": 5674,
      "Ġexplained": 5675,
      "Ġtreaty": 5676,
      "Ġadornment": 5677,
      "Ġpractise": 5678,
      "Remember": 5679,
      "Ġbranch": 5680,
      "Ġadversary": 5681,
      "Ġbowels": 5682,
      "Ġfraud": 5683,
      "Ġascended": 5684,
      "ĠCana": 5685,
      "Ġarrival": 5686,
      "Ġmurder": 5687,
      "Ġblasphemy": 5688,
      "Ġbefalls": 5689,
      "Ġlodged": 5690,
      "Ġgnosis": 5691,
      "Ġannihil": 5692,
      "Ġcapability": 5693,
      "ĠBethlehem": 5694,
      "Ġcollect": 5695,
      "Ġrepeat": 5696,
      "Ġwrongdoer": 5697,
      "Ġsorcerer": 5698,
      "Ġfashi": 5699,
      "Ġsects": 5700,
      "Ġstedfastly": 5701,
      "ĠClear": 5702,
      "Ġdeprived": 5703,
      "Ġmultiplied": 5704,
      "Ġmajor": 5705,
      "Ġtares": 5706,
      "Ġrevolt": 5707,
      "Ġsalutation": 5708,
      "Ġwinter": 5709,
      "Ġmoder": 5710,
      "Ġmediator": 5711,
      "Ġprovides": 5712,
      "Ġdeviate": 5713,
      "Ġbenevolence": 5714,
      "Ġecst": 5715,
      "Ġscourge": 5716,
      "Ġaffirm": 5717,
      "Ġtrembling": 5718,
      "Ġjealousy": 5719,
      "Ġpoint": 5720,
      "Ġhanging": 5721,
      "Ġlump": 5722,
      "Ġgroan": 5723,
      "ĠWorship": 5724,
      "Ġoverpower": 5725,
      "Ġpreferred": 5726,
      "Ġridic": 5727,
      "Ġassumption": 5728,
      "Ġsometimes": 5729,
      "Ġnegligence": 5730,
      "salms": 5731,
      "Ġshirt": 5732,
      "Ġthoroughly": 5733,
      "Ġinjunctions": 5734,
      "Ġremembered": 5735,
      "Ġfifty": 5736,
      "ĠBenjam": 5737,
      "Ġvigilant": 5738,
      "Ġheaviness": 5739,
      "Ġpurchased": 5740,
      "Ġembodiment": 5741,
      "Ġprincipal": 5742,
      "Ġopin": 5743,
      "Ġgenesis": 5744,
      "ĠWatchful": 5745,
      "ĠMajesty": 5746,
      "Ġhospitality": 5747,
      "ĠRabbi": 5748,
      "Ġconsidered": 5749,
      "Ġtreacherous": 5750,
      "Ġdecomposed": 5751,
      "Ġrepeatedly": 5752,
      "Ġproud": 5753,
      "ĠSupreme": 5754,
      "ĠCyprus": 5755,
      "ĠCilicia": 5756,
      "Ġsolemn": 5757,
      "Ġsincerity": 5758,
      "ĠGalilae": 5759,
      "Give": 5760,
      "Look": 5761,
      "Nay": 5762,
      "Nuh": 5763,
      "Pro": 5764,
      "Truly": 5765,
      "Watch": 5766,
      "Yusuf": 5767,
      "aeus": 5768,
      "bl": 5769,
      "bub": 5770,
      "core": 5771,
      "dle": 5772,
      "eemed": 5773,
      "face": 5774,
      "gic": 5775,
      "gins": 5776,
      "iah": 5777,
      "mes": 5778,
      "mat": 5779,
      "master": 5780,
      "minded": 5781,
      "oves": 5782,
      "off": 5783,
      "pri": 5784,
      "rod": 5785,
      "rong": 5786,
      "rans": 5787,
      "rarch": 5788,
      "said": 5789,
      "tly": 5790,
      "tion": 5791,
      "ument": 5792,
      "uary": 5793,
      "vive": 5794,
      "wo": 5795,
      "wed": 5796,
      "Ġz": 5797,
      "Ġtet": 5798,
      "Ġtried": 5799,
      "Ġtribes": 5800,
      "hement": 5801,
      "Ġavert": 5802,
      "nding": 5803,
      "ndoubtedly": 5804,
      "Ġwis": 5805,
      "Ġwings": 5806,
      "inks": 5807,
      "infor": 5808,
      "Ġovers": 5809,
      "haust": 5810,
      "isheth": 5811,
      "Ġba": 5812,
      "Ġbri": 5813,
      "Ġbreat": 5814,
      "oul": 5815,
      "lling": 5816,
      "Ġfurn": 5817,
      "Ġfift": 5818,
      "Ġmol": 5819,
      "Ġdress": 5820,
      "Ġcre": 5821,
      "Ġchem": 5822,
      "Ġyoke": 5823,
      "Ġpit": 5824,
      "Ġpuff": 5825,
      "Ġnom": 5826,
      "omans": 5827,
      "Ġur": 5828,
      "Ġthunder": 5829,
      "oted": 5830,
      "Ġiss": 5831,
      "Ġhalt": 5832,
      "Ġlot": 5833,
      "Ġleng": 5834,
      "Ġline": 5835,
      "Ġgent": 5836,
      "ĠAc": 5837,
      "Ġforbearing": 5838,
      "ĠIts": 5839,
      "enth": 5840,
      "verty": 5841,
      "Ġretain": 5842,
      "Ġrevil": 5843,
      "Ġrelig": 5844,
      "Ġreinfor": 5845,
      "Ġsand": 5846,
      "asant": 5847,
      "iri": 5848,
      "irous": 5849,
      "Ġunw": 5850,
      "Ġunruly": 5851,
      "Ġunpro": 5852,
      "Ġhot": 5853,
      "Ġhors": 5854,
      "liation": 5855,
      "ody": 5856,
      "ursed": 5857,
      "ĠWhether": 5858,
      "ĠWitness": 5859,
      "ĠSuch": 5860,
      "ĠMa": 5861,
      "Ġwhoso": 5862,
      "Ġwholly": 5863,
      "usion": 5864,
      "ĠTaste": 5865,
      "ĠTrans": 5866,
      "ĠGr": 5867,
      "ĠGal": 5868,
      "ading": 5869,
      "alut": 5870,
      "Ġdeal": 5871,
      "Ġdealt": 5872,
      "Ġdearly": 5873,
      "Ġdeception": 5874,
      "Ġcave": 5875,
      "Ġmanage": 5876,
      "Ġmanna": 5877,
      "Ġdogs": 5878,
      "cts": 5879,
      "ila": 5880,
      "ilty": 5881,
      "ulf": 5882,
      "ularly": 5883,
      "ĠPut": 5884,
      "ĠPers": 5885,
      "ĠPont": 5886,
      "Ġupright": 5887,
      "Ġstory": 5888,
      "Ġstaves": 5889,
      "Ġworst": 5890,
      "ĠBab": 5891,
      "ĠBoth": 5892,
      "ĠBount": 5893,
      "ĠBless": 5894,
      "Ġspat": 5895,
      "Ġspot": 5896,
      "Ġsparing": 5897,
      "Ġfav": 5898,
      "Ġusury": 5899,
      "Ġgoest": 5900,
      "Ġsoever": 5901,
      "ĠDec": 5902,
      "Ġexhaust": 5903,
      "ourse": 5904,
      "Ġconv": 5905,
      "Ġages": 5906,
      "Ġaged": 5907,
      "Ġoutside": 5908,
      "ics": 5909,
      "icks": 5910,
      "ician": 5911,
      "Ġprohib": 5912,
      "Ġearning": 5913,
      "elze": 5914,
      "Ġbeforehand": 5915,
      "Ġshine": 5916,
      "Ġheap": 5917,
      "ĠRomans": 5918,
      "Ġloan": 5919,
      "Ġdisbelieves": 5920,
      "empt": 5921,
      "Ġtorn": 5922,
      "ĠMessiah": 5923,
      "igned": 5924,
      "Ġfond": 5925,
      "ĠNothing": 5926,
      "eeds": 5927,
      "Ġsheer": 5928,
      "olis": 5929,
      "Ġglo": 5930,
      "Ġserving": 5931,
      "Ġplag": 5932,
      "Ġdesirous": 5933,
      "Ġguests": 5934,
      "Ġguilty": 5935,
      "Ġfearful": 5936,
      "othy": 5937,
      "Ġlikely": 5938,
      "ueen": 5939,
      "Ġlean": 5940,
      "Ġapply": 5941,
      "Ġappare": 5942,
      "iously": 5943,
      "Ġenqu": 5944,
      "Ġrecl": 5945,
      "Ġrecomp": 5946,
      "Ġcold": 5947,
      "Ġcovers": 5948,
      "Ġanothers": 5949,
      "Ġreserved": 5950,
      "arned": 5951,
      "Ġsche": 5952,
      "Ġscribe": 5953,
      "Ġscoff": 5954,
      "Ġhouseto": 5955,
      "ortunity": 5956,
      "ĠBeelze": 5957,
      "Ġdivid": 5958,
      "Ġgrat": 5959,
      "Ġrepl": 5960,
      "Ġreported": 5961,
      "Ġobvious": 5962,
      "ĠQueen": 5963,
      "Ġremind": 5964,
      "Ġdenig": 5965,
      "Ġcastle": 5966,
      "Ġchapter": 5967,
      "Ġwrongs": 5968,
      "Ġimper": 5969,
      "Ġrewards": 5970,
      "Ġfirstfruit": 5971,
      "Ġfirstborn": 5972,
      "Ġpleasing": 5973,
      "Ġpleasant": 5974,
      "Ġends": 5975,
      "Ġendea": 5976,
      "Ġendured": 5977,
      "Ġcompass": 5978,
      "Ġreverence": 5979,
      "Ġaccordance": 5980,
      "Ġpriesthood": 5981,
      "Ġharl": 5982,
      "Ġidle": 5983,
      "Ġident": 5984,
      "Ġquen": 5985,
      "Ġdeparting": 5986,
      "cken": 5987,
      "Ġpiousness": 5988,
      "Ġexpedient": 5989,
      "Ġexposition": 5990,
      "Ġgrip": 5991,
      "Ġacceptance": 5992,
      "Ġwax": 5993,
      "Ġwaited": 5994,
      "Ġwaxed": 5995,
      "Ġflame": 5996,
      "phy": 5997,
      "Ġconsent": 5998,
      "Ġmisery": 5999,
      "ĠAlas": 6000,
      "Ġmustard": 6001,
      "Ġthick": 6002,
      "Ġordain": 6003,
      "Ġholding": 6004,
      "ails": 6005,
      "cede": 6006,
      "Ġshowing": 6007,
      "Ġbestows": 6008,
      "Ġbox": 6009,
      "Ġterr": 6010,
      "Ġpoet": 6011,
      "Ġpoverty": 6012,
      "Ġtouches": 6013,
      "Ġobeys": 6014,
      "Ġintercede": 6015,
      "Ġbury": 6016,
      "Ġdefence": 6017,
      "Ġchoice": 6018,
      "Ġsmoke": 6019,
      "ĠWhence": 6020,
      "Ġinfant": 6021,
      "Ġrefle": 6022,
      "Ġrefuse": 6023,
      "Ġconcern": 6024,
      "Ġtrick": 6025,
      "Ġbounds": 6026,
      "Ġcondition": 6027,
      "iliz": 6028,
      "cendent": 6029,
      "Ġdirectly": 6030,
      "Ġleads": 6031,
      "Ġpresented": 6032,
      "Ġsucceed": 6033,
      "Ġstricken": 6034,
      "Ġgladness": 6035,
      "Ġpreparation": 6036,
      "Ġhardness": 6037,
      "ĠWarning": 6038,
      "Ġinsane": 6039,
      "Ġskins": 6040,
      "Ġelder": 6041,
      "ĠAssemb": 6042,
      "Ġprostrated": 6043,
      "Ġglorifying": 6044,
      "Ġpolytheist": 6045,
      "ĠAns": 6046,
      "Ġmeasures": 6047,
      "Ġministering": 6048,
      "Ġtravel": 6049,
      "Ġvehement": 6050,
      "Ġviolate": 6051,
      "Ġviolently": 6052,
      "Ġfourte": 6053,
      "Ġdivision": 6054,
      "Ġmiddle": 6055,
      "Whatever": 6056,
      "Ġadopts": 6057,
      "Ġfellowserv": 6058,
      "Ġapproaches": 6059,
      "ĠKingdom": 6060,
      "Ġministration": 6061,
      "Ġrebel": 6062,
      "Ġrebels": 6063,
      "Ġcompleted": 6064,
      "Ġfabricates": 6065,
      "Ġdepth": 6066,
      "Ġelements": 6067,
      "Ġdeceiving": 6068,
      "Ġvirgins": 6069,
      "Ġcorruptible": 6070,
      "Ġpubl": 6071,
      "Ġrelate": 6072,
      "Ġrelations": 6073,
      "Ġcleanse": 6074,
      "Ġeasier": 6075,
      "Ġcease": 6076,
      "ĠStrong": 6077,
      "ĠPhilipp": 6078,
      "Ġvinegar": 6079,
      "Ġinvite": 6080,
      "Notwithstanding": 6081,
      "Ġadmitted": 6082,
      "iped": 6083,
      "Ġvisited": 6084,
      "Ġquestioned": 6085,
      "Ġshades": 6086,
      "Ġsprang": 6087,
      "plate": 6088,
      "Ġreleased": 6089,
      "ĠTrumpet": 6090,
      "Ġdiseased": 6091,
      "Ġsurface": 6092,
      "Ġpartaker": 6093,
      "assionate": 6094,
      "Ġteachest": 6095,
      "Ġincline": 6096,
      "Ġprosperity": 6097,
      "Ġprince": 6098,
      "Ġbasis": 6099,
      "Ġmysteries": 6100,
      "Ġembracing": 6101,
      "Ġgreetings": 6102,
      "ĠTimothy": 6103,
      "Ġperpetrate": 6104,
      "Ġworshippers": 6105,
      "Ġheathen": 6106,
      "Ġmisguidance": 6107,
      "Ġvenerable": 6108,
      "Ġbountiful": 6109,
      "Ġfeeding": 6110,
      "Ġarrived": 6111,
      "Ġstruck": 6112,
      "Ġvillages": 6113,
      "Ġafterwards": 6114,
      "Ġdeserve": 6115,
      "Ġawarded": 6116,
      "Ġinfirmity": 6117,
      "Ġstretch": 6118,
      "Ġoriginated": 6119,
      "Ġdrunk": 6120,
      "Ġpouring": 6121,
      "ĠLevi": 6122,
      "Ġdisliked": 6123,
      "Ġdisclose": 6124,
      "ĠBethsaid": 6125,
      "Peace": 6126,
      "Ġplainly": 6127,
      "Ġrestored": 6128,
      "Ġmerry": 6129,
      "Ġeliminate": 6130,
      "Ġexistence": 6131,
      "Ġsubstance": 6132,
      "Ġstraitly": 6133,
      "Ġillumining": 6134,
      "Ġstrengthened": 6135,
      "Ġsuperior": 6136,
      "Ġcontains": 6137,
      "Ġobjects": 6138,
      "Ġsincerely": 6139,
      "Ġsurname": 6140,
      "Ġsurnamed": 6141,
      "Ġresolve": 6142,
      "Ġrescue": 6143,
      "Ġtempest": 6144,
      "Ġveneration": 6145,
      "Ġzealous": 6146,
      "Ġfinger": 6147,
      "Ġinnocent": 6148,
      "Ġnumbered": 6149,
      "Ġstumbling": 6150,
      "Ġquarre": 6151,
      "Ġuproar": 6152,
      "Ġconveyed": 6153,
      "Ġproclaimed": 6154,
      "Ġlikeness": 6155,
      "ĠRecall": 6156,
      "Ġreconciliation": 6157,
      "ylon": 6158,
      "Ġmeditate": 6159,
      "ĠWhich": 6160,
      "Ġdevastation": 6161,
      "Ġelucidate": 6162,
      "Ġungodly": 6163,
      "Ġexchange": 6164,
      "Ġavoid": 6165,
      "Ġmilk": 6166,
      "Ġdisorder": 6167,
      "ĠDominant": 6168,
      "Ġearthquake": 6169,
      "ĠCompassionate": 6170,
      "ĠStephen": 6171,
      "Ġstruggle": 6172,
      "Ġwedding": 6173,
      "Ġsusp": 6174,
      "Ġmartyr": 6175,
      "Ġsexual": 6176,
      "ĠRelenting": 6177,
      "Ġpledge": 6178,
      "Ġsubdued": 6179,
      "Ġordinances": 6180,
      "Ġdefinitely": 6181,
      "Ġtriumph": 6182,
      "Ġattentively": 6183,
      "Ġfragments": 6184,
      "Ġreconciled": 6185,
      "Ġgnashing": 6186,
      "Ġfascinating": 6187,
      "Ġfreedom": 6188,
      "Ġmosques": 6189,
      "Ġhanged": 6190,
      "ĠBanu": 6191,
      "Ġconvenient": 6192,
      "Ġfolk": 6193,
      "Ġsupporters": 6194,
      "Ġsorcery": 6195,
      "Ġthanksgiving": 6196,
      "Ġmagistrates": 6197,
      "Ġinterpreted": 6198,
      "ĠBenjamin": 6199,
      "Ġopinion": 6200,
      "Ġtetrarch": 6201,
      "Ġmolten": 6202,
      "Ġchemical": 6203,
      "Ġnomad": 6204,
      "Ġunprof": 6205,
      "Ġhorses": 6206,
      "ĠTranscendent": 6207,
      "ĠGalat": 6208,
      "ĠBabylon": 6209,
      "Ġrecompence": 6210,
      "ĠBeelzebub": 6211,
      "ĠAssembly": 6212,
      "ĠBethsaida": 6213,
      "An": 6214,
      "Art": 6215,
      "Did": 6216,
      "Fin": 6217,
      "Greet": 6218,
      "Had": 6219,
      "Him": 6220,
      "Jud": 6221,
      "Lest": 6222,
      "Most": 6223,
      "SU": 6224,
      "Sh": 6225,
      "St": 6226,
      "She": 6227,
      "Two": 6228,
      "action": 6229,
      "bar": 6230,
      "bits": 6231,
      "con": 6232,
      "cent": 6233,
      "der": 6234,
      "dition": 6235,
      "ere": 6236,
      "fful": 6237,
      "gers": 6238,
      "iated": 6239,
      "iya": 6240,
      "jac": 6241,
      "lo": 6242,
      "lest": 6243,
      "ming": 6244,
      "night": 6245,
      "neth": 6246,
      "nant": 6247,
      "oz": 6248,
      "pa": 6249,
      "pel": 6250,
      "rants": 6251,
      "sh": 6252,
      "sing": 6253,
      "try": 6254,
      "tered": 6255,
      "ule": 6256,
      "uished": 6257,
      "ubb": 6258,
      "yal": 6259,
      "Ġtum": 6260,
      "Ġtry": 6261,
      "hel": 6262,
      "Ġafore": 6263,
      "Ġauth": 6264,
      "Ġwre": 6265,
      "Ġwast": 6266,
      "Ġwave": 6267,
      "Ġwist": 6268,
      "Ġwars": 6269,
      "Ġwield": 6270,
      "Ġwants": 6271,
      "inent": 6272,
      "inous": 6273,
      "inate": 6274,
      "Ġsower": 6275,
      "Ġsware": 6276,
      "Ġopt": 6277,
      "Ġomen": 6278,
      "isho": 6279,
      "isible": 6280,
      "Ġble": 6281,
      "Ġbord": 6282,
      "Ġbore": 6283,
      "Ġbowed": 6284,
      "orse": 6285,
      "Ġfis": 6286,
      "Ġfed": 6287,
      "Ġfountain": 6288,
      "Ġfright": 6289,
      "Ġfuel": 6290,
      "Ġfoul": 6291,
      "Ġment": 6292,
      "Ġmud": 6293,
      "Ġmass": 6294,
      "Ġmote": 6295,
      "Ġmosque": 6296,
      "edic": 6297,
      "erve": 6298,
      "Ġdur": 6299,
      "Ġdedic": 6300,
      "Ġcases": 6301,
      "Ġtombs": 6302,
      "Ġpick": 6303,
      "Ġbeli": 6304,
      "Ġbeast": 6305,
      "Ġbeam": 6306,
      "Ġbearer": 6307,
      "Ġbelying": 6308,
      "Ġnin": 6309,
      "Ġnets": 6310,
      "aris": 6311,
      "arks": 6312,
      "athi": 6313,
      "athana": 6314,
      "Ġheight": 6315,
      "Ġheres": 6316,
      "Ġhewn": 6317,
      "anqu": 6318,
      "anny": 6319,
      "ancial": 6320,
      "Ġham": 6321,
      "Ġhabit": 6322,
      "Ġemin": 6323,
      "stra": 6324,
      "stone": 6325,
      "hol": 6326,
      "ĠAt": 6327,
      "ĠAqu": 6328,
      "ĠAthen": 6329,
      "Ġforso": 6330,
      "Ġforced": 6331,
      "Ġformed": 6332,
      "Ġhired": 6333,
      "owing": 6334,
      "ĠIcon": 6335,
      "vering": 6336,
      "Ġrelie": 6337,
      "Ġrender": 6338,
      "Ġreform": 6339,
      "illa": 6340,
      "illity": 6341,
      "Ġsaving": 6342,
      "asy": 6343,
      "ĠHos": 6344,
      "ĠHold": 6345,
      "ahya": 6346,
      "Ġunfruit": 6347,
      "Ġhoney": 6348,
      "lia": 6349,
      "liya": 6350,
      "Ġwithhold": 6351,
      "urance": 6352,
      "urday": 6353,
      "ĠWith": 6354,
      "ĠSion": 6355,
      "ĠSirs": 6356,
      "ĠSara": 6357,
      "Ġanch": 6358,
      "Ġascribe": 6359,
      "ushing": 6360,
      "ĠGos": 6361,
      "Ġsees": 6362,
      "rip": 6363,
      "adr": 6364,
      "ĠLu": 6365,
      "ĠJi": 6366,
      "ĠJoses": 6367,
      "ĠJob": 6368,
      "ala": 6369,
      "vented": 6370,
      "ram": 6371,
      "raced": 6372,
      "Ġcareth": 6373,
      "Ġmeal": 6374,
      "aking": 6375,
      "cting": 6376,
      "ĠWere": 6377,
      "ulai": 6378,
      "Ġdiss": 6379,
      "Ġdisaster": 6380,
      "ĠPris": 6381,
      "Ġsty": 6382,
      "Ġston": 6383,
      "Ġstuck": 6384,
      "Ġstablish": 6385,
      "ĠBadr": 6386,
      "ĠCep": 6387,
      "ĠOwn": 6388,
      "ĠObey": 6389,
      "mented": 6390,
      "pty": 6391,
      "imed": 6392,
      "seless": 6393,
      "Ġsoil": 6394,
      "Ġsovereignty": 6395,
      "ours": 6396,
      "Ġconject": 6397,
      "hereth": 6398,
      "acy": 6399,
      "Ġouter": 6400,
      "version": 6401,
      "pper": 6402,
      "uded": 6403,
      "rent": 6404,
      "Ġblamed": 6405,
      "Ġblazing": 6406,
      "Ġlips": 6407,
      "Ġours": 6408,
      "ĠChristian": 6409,
      "cient": 6410,
      "civious": 6411,
      "Ġhateth": 6412,
      "ĠRep": 6413,
      "ĠRoman": 6414,
      "Ġloaded": 6415,
      "Ġlogic": 6416,
      "ĠYahya": 6417,
      "eping": 6418,
      "fulness": 6419,
      "Ġriot": 6420,
      "ounced": 6421,
      "ĠFrom": 6422,
      "efully": 6423,
      "ĠNever": 6424,
      "ĠNames": 6425,
      "olite": 6426,
      "Ġbelievest": 6427,
      "Ġperished": 6428,
      "Ġperdition": 6429,
      "Ġspell": 6430,
      "Ġaccounted": 6431,
      "Ġoverlook": 6432,
      "Ġdescent": 6433,
      "Ġguile": 6434,
      "Ġmightier": 6435,
      "ĠWhoever": 6436,
      "Ġfearless": 6437,
      "Ġpret": 6438,
      "Ġprevented": 6439,
      "Ġapprehend": 6440,
      "isten": 6441,
      "Ġoffences": 6442,
      "ĠReve": 6443,
      "ĠReal": 6444,
      "aching": 6445,
      "Ġreciting": 6446,
      "Ġard": 6447,
      "Ġentreated": 6448,
      "arnain": 6449,
      "endent": 6450,
      "Ġscrip": 6451,
      "Ġdiverse": 6452,
      "Ġrage": 6453,
      "Ġcreates": 6454,
      "Ġcreatures": 6455,
      "Ġbegun": 6456,
      "Ġcloke": 6457,
      "Ġclasses": 6458,
      "ĠQarnain": 6459,
      "Ġremorse": 6460,
      "Ġcontri": 6461,
      "Ġdenies": 6462,
      "Ġchase": 6463,
      "Ġchased": 6464,
      "Ġcharac": 6465,
      "Ġworships": 6466,
      "Ġspiritually": 6467,
      "Ġwithal": 6468,
      "Ġgraff": 6469,
      "ocks": 6470,
      "Ġdestitute": 6471,
      "Ġcomprehend": 6472,
      "Ġcompuls": 6473,
      "Ġcleave": 6474,
      "Ġkingdoms": 6475,
      "Ġaffect": 6476,
      "Ġdrank": 6477,
      "Ġdrinks": 6478,
      "Ġrobe": 6479,
      "overed": 6480,
      "Ġbeset": 6481,
      "Ġdoubts": 6482,
      "Ġjudgest": 6483,
      "Ġshowered": 6484,
      "Ġfalsely": 6485,
      "Ġpurple": 6486,
      "Ġpurifying": 6487,
      "Ġpurifies": 6488,
      "Ġdoubtful": 6489,
      "Ġmarvel": 6490,
      "Ġtranqu": 6491,
      "Ġremembering": 6492,
      "Ġintrig": 6493,
      "Ġexpert": 6494,
      "Ġexpounded": 6495,
      "Ġstoop": 6496,
      "Ġflower": 6497,
      "Ġpride": 6498,
      "Ġconsum": 6499,
      "Ġconsist": 6500,
      "Ġconsume": 6501,
      "Ġrepents": 6502,
      "Ġfalleth": 6503,
      "Ġresting": 6504,
      "Ġrestrain": 6505,
      "rows": 6506,
      "Ġpraising": 6507,
      "Ġknock": 6508,
      "Ġslack": 6509,
      "Ġslaves": 6510,
      "Ġtrusts": 6511,
      "Ġtrustworthy": 6512,
      "Ġtremend": 6513,
      "Ġmakest": 6514,
      "ĠZulai": 6515,
      "Ġheadlong": 6516,
      "ĠJosephs": 6517,
      "Ġpool": 6518,
      "Ġinterrog": 6519,
      "Ġdefer": 6520,
      "Ġdefiled": 6521,
      "Ġdefraud": 6522,
      "Ġchoked": 6523,
      "Ġregions": 6524,
      "Ġinfid": 6525,
      "Ġrefres": 6526,
      "Ġdisplay": 6527,
      "Ġimmort": 6528,
      "Ġswift": 6529,
      "Ġattempt": 6530,
      "Ġimpl": 6531,
      "Ġimpious": 6532,
      "Ġimputed": 6533,
      "Ġseventy": 6534,
      "Ġmeats": 6535,
      "Ġforbidding": 6536,
      "Ġdirected": 6537,
      "Ġstream": 6538,
      "Ġadvant": 6539,
      "Ġleading": 6540,
      "Ġleadeth": 6541,
      "Ġarrogantly": 6542,
      "Ask": 6543,
      "Ġgetting": 6544,
      "Ġhardly": 6545,
      "Ġmaimed": 6546,
      "Ġexamined": 6547,
      "Ġsickness": 6548,
      "Ġchanging": 6549,
      "Ġinside": 6550,
      "Ġrealities": 6551,
      "Ġfamine": 6552,
      "Ġtemptations": 6553,
      "Ġopposition": 6554,
      "Ġopportunity": 6555,
      "Ġsuccession": 6556,
      "ĠVener": 6557,
      "Ġclothe": 6558,
      "ĠHerodias": 6559,
      "Ġtravail": 6560,
      "Ġutterance": 6561,
      "Ġutterances": 6562,
      "Ġvexed": 6563,
      "Ġdestructive": 6564,
      "Ġviolated": 6565,
      "Ġtransgressor": 6566,
      "vile": 6567,
      "Ġmidnight": 6568,
      "onsider": 6569,
      "Ġpersistence": 6570,
      "Ġappropri": 6571,
      "Ġarmour": 6572,
      "Ġhappy": 6573,
      "Ġsilk": 6574,
      "Ġcompletion": 6575,
      "Ġobserving": 6576,
      "Ġprotected": 6577,
      "Ġwanted": 6578,
      "Ġelection": 6579,
      "Ġmagician": 6580,
      "Ġthrong": 6581,
      "Ġcommunicated": 6582,
      "Ġsubmissively": 6583,
      "Ġsanctify": 6584,
      "Ġburnt": 6585,
      "Ġceasing": 6586,
      "Ġbreaking": 6587,
      "Ġdescending": 6588,
      "Ġempl": 6589,
      "Ġempty": 6590,
      "Ġdisgraced": 6591,
      "Ġinvisible": 6592,
      "ĠSharia": 6593,
      "Ġdisobeying": 6594,
      "Ġlowest": 6595,
      "Ġvisit": 6596,
      "Ġspecially": 6597,
      "Ġfinancial": 6598,
      "Ġdominate": 6599,
      "ucing": 6600,
      "Ġtalking": 6601,
      "Ġawareness": 6602,
      "Ġbefitting": 6603,
      "Ġbehave": 6604,
      "Ġbehaviour": 6605,
      "Ġtroubles": 6606,
      "Ġreprob": 6607,
      "Ġpublican": 6608,
      "Ġswords": 6609,
      "Ġeffectual": 6610,
      "Ġbrand": 6611,
      "Ġforcefully": 6612,
      "Ġunbelievers": 6613,
      "Ġprosperous": 6614,
      "Ġhungry": 6615,
      "Ġconfident": 6616,
      "Ġmutually": 6617,
      "Ġsupplicating": 6618,
      "Ġrecognized": 6619,
      "Rejoice": 6620,
      "Ġknees": 6621,
      "Ġadversaries": 6622,
      "Ġpatiently": 6623,
      "Ġepis": 6624,
      "Ġrenew": 6625,
      "Ġaffluence": 6626,
      "Ġneighbours": 6627,
      "Ġbeaten": 6628,
      "Ġangry": 6629,
      "Ġcomforts": 6630,
      "ĠEveryone": 6631,
      "Ġcontented": 6632,
      "Ġforsake": 6633,
      "Ġtyrant": 6634,
      "Ġtyranny": 6635,
      "Ġinstructed": 6636,
      "Ġhorrible": 6637,
      "Ġdishon": 6638,
      "Ġspoil": 6639,
      "Ġthirsty": 6640,
      "Ġconsequence": 6641,
      "Ġcustoms": 6642,
      "Ġawa": 6643,
      "Ġawake": 6644,
      "Ġsnare": 6645,
      "Ġundoubtedly": 6646,
      "Ġlamp": 6647,
      "Ġlamps": 6648,
      "Ġdisclos": 6649,
      "Ġstirred": 6650,
      "ĠClement": 6651,
      "ĠBlazing": 6652,
      "Ġvanity": 6653,
      "Ġgrades": 6654,
      "Ġillumined": 6655,
      "Ġluxury": 6656,
      "Ġphysical": 6657,
      "Ġbewail": 6658,
      "Ġbewitched": 6659,
      "Ġunlearned": 6660,
      "Ġserpents": 6661,
      "Ġroutes": 6662,
      "Ġmediation": 6663,
      "Ġresolved": 6664,
      "ĠLystra": 6665,
      "Ġkneeled": 6666,
      "Ġachievement": 6667,
      "Ġzeal": 6668,
      "Ġfingers": 6669,
      "Ġnumer": 6670,
      "ĠAziz": 6671,
      "Ġstature": 6672,
      "Ġoutwardly": 6673,
      "Ġeventually": 6674,
      "Ġcrookedness": 6675,
      "Ġcolours": 6676,
      "reciative": 6677,
      "Ġmongers": 6678,
      "Ġinvented": 6679,
      "Ġdispleased": 6680,
      "Ġconstructive": 6681,
      "Ġhardships": 6682,
      "Ġdiffered": 6683,
      "Ġpersecutest": 6684,
      "Ġbanish": 6685,
      "Ġcandle": 6686,
      "Ġstorm": 6687,
      "Ġconstrained": 6688,
      "Ġdesolate": 6689,
      "Ġrotating": 6690,
      "Ġensam": 6691,
      "ĠBeauty": 6692,
      "Ġtithes": 6693,
      "Ġoxen": 6694,
      "Ġbabes": 6695,
      "Ġfrustrate": 6696,
      "Ġtolerable": 6697,
      "ĠAppreciative": 6698,
      "ĠTablet": 6699,
      "ĠJESU": 6700,
      "Ġvariety": 6701,
      "Ġcomprising": 6702,
      "ĠTroas": 6703,
      "Ġdeveloped": 6704,
      "ĠCorinth": 6705,
      "Ġdespiseth": 6706,
      "ĠSamaritans": 6707,
      "Ġmarketpl": 6708,
      "ĠThessalonica": 6709,
      "Enter": 6710,
      "Many": 6711,
      "Ġverses": 6712,
      "Ġcitizens": 6713,
      "Ġthroat": 6714,
      "Ġlascivious": 6715,
      "ĠAwliya": 6716,
      "ĠHaman": 6717,
      "ĠGracious": 6718,
      "Ġseizure": 6719,
      "Ġproportion": 6720,
      "Ġbeckoned": 6721,
      "Ġscarce": 6722,
      "Ġschemes": 6723,
      "Ġtreasury": 6724,
      "ĠInjil": 6725,
      "Ġassignment": 6726,
      "Ġfashion": 6727,
      "Ġecstasy": 6728,
      "Ġprincipalities": 6729,
      "Ġovershad": 6730,
      "Ġpuffed": 6731,
      "Ġissue": 6732,
      "Ġreviled": 6733,
      "Ġfondness": 6734,
      "Ġapparel": 6735,
      "Ġreplace": 6736,
      "Ġfirstfruits": 6737,
      "Ġvehemently": 6738,
      "ĠPhilippi": 6739,
      "Ġunprofitable": 6740,
      "ĠGalatia": 6741,
      "Finally": 6742,
      "ffulg": 6743,
      "Ġauthor": 6744,
      "Ġblew": 6745,
      "Ġdurst": 6746,
      "Ġbeliers": 6747,
      "athanael": 6748,
      "ĠAquila": 6749,
      "Ġforsook": 6750,
      "ĠIconium": 6751,
      "ĠHosanna": 6752,
      "Ġunfruitful": 6753,
      "ĠGospel": 6754,
      "ĠPrisc": 6755,
      "ĠCephas": 6756,
      "Ġtremendous": 6757,
      "ĠZulaik": 6758,
      "Ġemploy": 6759,
      "ĠJESUS": 6760,
      "Ġlasciviousness": 6761,
      "Among": 6762,
      "Con": 6763,
      "Doth": 6764,
      "Ha": 6765,
      "Hold": 6766,
      "John": 6767,
      "Lut": 6768,
      "Pray": 6769,
      "Phili": 6770,
      "Sat": 6771,
      "Tell": 6772,
      "Will": 6773,
      "Yes": 6774,
      "Yaqub": 6775,
      "aod": 6776,
      "avan": 6777,
      "cension": 6778,
      "da": 6779,
      "di": 6780,
      "dess": 6781,
      "deeds": 6782,
      "eu": 6783,
      "eble": 6784,
      "eress": 6785,
      "field": 6786,
      "farer": 6787,
      "gre": 6788,
      "ghed": 6789,
      "iance": 6790,
      "ires": 6791,
      "kened": 6792,
      "mic": 6793,
      "ns": 6794,
      "oard": 6795,
      "oam": 6796,
      "por": 6797,
      "pon": 6798,
      "ping": 6799,
      "pse": 6800,
      "phere": 6801,
      "pering": 6802,
      "ses": 6803,
      "same": 6804,
      "ties": 6805,
      "wart": 6806,
      "where": 6807,
      "yy": 6808,
      "Ġvenge": 6809,
      "Ġtied": 6810,
      "Ġtrying": 6811,
      "Ġaris": 6812,
      "Ġaud": 6813,
      "Ġawe": 6814,
      "Ġaverse": 6815,
      "Ġavenge": 6816,
      "Ġaverted": 6817,
      "Ġwound": 6818,
      "ineth": 6819,
      "Ġsen": 6820,
      "Ġsli": 6821,
      "Ġsite": 6822,
      "Ġswell": 6823,
      "Ġsarc": 6824,
      "rea": 6825,
      "rep": 6826,
      "rete": 6827,
      "haib": 6828,
      "haeus": 6829,
      "isf": 6830,
      "Ġbos": 6831,
      "Ġbrace": 6832,
      "Ġbisho": 6833,
      "llent": 6834,
      "orr": 6835,
      "oring": 6836,
      "Ġfly": 6837,
      "Ġfated": 6838,
      "itical": 6839,
      "Ġming": 6840,
      "Ġmat": 6841,
      "Ġmill": 6842,
      "Ġmiss": 6843,
      "eri": 6844,
      "Ġdare": 6845,
      "Ġdies": 6846,
      "Ġdower": 6847,
      "Ġcat": 6848,
      "Ġcel": 6849,
      "Ġcult": 6850,
      "Ġcirc": 6851,
      "Ġcrew": 6852,
      "Ġcoura": 6853,
      "inging": 6854,
      "Ġtomor": 6855,
      "Ġpence": 6856,
      "Ġpressed": 6857,
      "Ġprud": 6858,
      "hile": 6859,
      "Ġbefe": 6860,
      "Ġine": 6861,
      "Ġinit": 6862,
      "Ġinsp": 6863,
      "Ġinner": 6864,
      "Ġinasmuch": 6865,
      "omed": 6866,
      "omorr": 6867,
      "arried": 6868,
      "atthe": 6869,
      "Ġheels": 6870,
      "Ġthrees": 6871,
      "Ġthwart": 6872,
      "otent": 6873,
      "seth": 6874,
      "Ġisland": 6875,
      "Ġhaply": 6876,
      "Ġeag": 6877,
      "Ġease": 6878,
      "Ġlake": 6879,
      "Ġlatter": 6880,
      "Ġlacked": 6881,
      "utation": 6882,
      "Ġgame": 6883,
      "Ġgarn": 6884,
      "Ġgend": 6885,
      "stin": 6886,
      "cellent": 6887,
      "ĠAh": 6888,
      "ĠAm": 6889,
      "ĠAri": 6890,
      "ĠAway": 6891,
      "ĠAlp": 6892,
      "ĠAbel": 6893,
      "ĠAyy": 6894,
      "Ġforasmuch": 6895,
      "Ġnotwithstanding": 6896,
      "leb": 6897,
      "lets": 6898,
      "ĠId": 6899,
      "enty": 6900,
      "verance": 6901,
      "together": 6902,
      "illing": 6903,
      "Ġsaf": 6904,
      "Ġsailing": 6905,
      "ĠHar": 6906,
      "ĠHas": 6907,
      "ĠHome": 6908,
      "ĠHail": 6909,
      "Ġunwise": 6910,
      "Ġhuge": 6911,
      "Ġhym": 6912,
      "lim": 6913,
      "liance": 6914,
      "limb": 6915,
      "odes": 6916,
      "odem": 6917,
      "odden": 6918,
      "Ġwel": 6919,
      "Ġweary": 6920,
      "hens": 6921,
      "ĠWherefore": 6922,
      "ĠWilt": 6923,
      "ĠSc": 6924,
      "ĠSabb": 6925,
      "ĠMar": 6926,
      "ĠMay": 6927,
      "ĠMark": 6928,
      "Ġashes": 6929,
      "ĠTa": 6930,
      "ĠTi": 6931,
      "ĠTra": 6932,
      "ĠTars": 6933,
      "ĠGood": 6934,
      "ĠGomorr": 6935,
      "Ġsear": 6936,
      "ries": 6937,
      "ĠLove": 6938,
      "ĠLater": 6939,
      "ĠLikewise": 6940,
      "ĠLaod": 6941,
      "Ġshar": 6942,
      "ĠJos": 6943,
      "ĠJason": 6944,
      "ĠJesse": 6945,
      "alty": 6946,
      "alog": 6947,
      "Ġdeac": 6948,
      "Ġdeem": 6949,
      "Ġdecept": 6950,
      "Ġdefect": 6951,
      "Ġalter": 6952,
      "Ġalmost": 6953,
      "Ġaltogether": 6954,
      "Ġmanners": 6955,
      "Ġmaneu": 6956,
      "Ġmend": 6957,
      "Ġmeas": 6958,
      "Ġmeant": 6959,
      "Ġmete": 6960,
      "Ġdoves": 6961,
      "Ġdoomed": 6962,
      "Ġwashing": 6963,
      "cture": 6964,
      "estial": 6965,
      "ulate": 6966,
      "ulations": 6967,
      "Ġdisin": 6968,
      "ĠPh": 6969,
      "ĠPam": 6970,
      "plend": 6971,
      "Ġsugg": 6972,
      "Ġsupers": 6973,
      "Ġupset": 6974,
      "Ġstud": 6975,
      "Ġstab": 6976,
      "Ġstages": 6977,
      "Ġsticks": 6978,
      "Ġworry": 6979,
      "ĠBart": 6980,
      "geth": 6981,
      "ĠCast": 6982,
      "ĠCrete": 6983,
      "ĠOF": 6984,
      "Ġspin": 6985,
      "Ġspru": 6986,
      "Ġspect": 6987,
      "Ġspared": 6988,
      "ards": 6989,
      "Ġusage": 6990,
      "Ġgoal": 6991,
      "Ġsole": 6992,
      "Ġabomin": 6993,
      "Ġaboard": 6994,
      "ĠDel": 6995,
      "ĠDep": 6996,
      "ĠDian": 6997,
      "Ġhadst": 6998,
      "Ġamid": 6999,
      "Ġorbits": 7000,
      "Ġanyway": 7001,
      "thers": 7002,
      "Ġconqu": 7003,
      "Ġconceive": 7004,
      "Ġconsp": 7005,
      "Ġatone": 7006,
      "acles": 7007,
      "Ġnoon": 7008,
      "icult": 7009,
      "icodem": 7010,
      "pping": 7011,
      "Ġprover": 7012,
      "Ġprocess": 7013,
      "Ġbliss": 7014,
      "abil": 7015,
      "Ġlieth": 7016,
      "Ġcamels": 7017,
      "Ġseemeth": 7018,
      "Ġvow": 7019,
      "Ġvail": 7020,
      "ama": 7021,
      "aun": 7022,
      "ristarch": 7023,
      "usts": 7024,
      "ĠSovereign": 7025,
      "Ġacquire": 7026,
      "Ġhatred": 7027,
      "ĠRise": 7028,
      "ĠRather": 7029,
      "wereth": 7030,
      "unus": 7031,
      "unge": 7032,
      "unate": 7033,
      "ĠYem": 7034,
      "ĠYunus": 7035,
      "ĠEm": 7036,
      "ĠEmb": 7037,
      "ĠEpa": 7038,
      "Ġearthly": 7039,
      "Ġrival": 7040,
      "Ġsomehow": 7041,
      "Ġcaller": 7042,
      "Ġsentence": 7043,
      "ĠFar": 7044,
      "Ġgoodly": 7045,
      "Ġgoodman": 7046,
      "Ġmenstru": 7047,
      "ceptible": 7048,
      "olog": 7049,
      "olution": 7050,
      "Soon": 7051,
      "Ġperformed": 7052,
      "icege": 7053,
      "ishment": 7054,
      "Ġglance": 7055,
      "Ġplay": 7056,
      "Ġpluc": 7057,
      "Ġaccursed": 7058,
      "Ġovermaster": 7059,
      "Ġbreach": 7060,
      "Ġhearted": 7061,
      "Ġadmin": 7062,
      "Ġwayfarer": 7063,
      "imeon": 7064,
      "Ġwhereon": 7065,
      "Ġevils": 7066,
      "Ġtwenty": 7067,
      "ffet": 7068,
      "Ġring": 7069,
      "Ġride": 7070,
      "Ġindul": 7071,
      "ĠRejoice": 7072,
      "Ġenri": 7073,
      "Ġenhan": 7074,
      "Ġundergo": 7075,
      "Ġrecites": 7076,
      "Ġrecover": 7077,
      "Ġcoat": 7078,
      "Ġcopper": 7079,
      "Ġark": 7080,
      "Ġarray": 7081,
      "Ġanswereth": 7082,
      "Ġentang": 7083,
      "Ġfolloweth": 7084,
      "ended": 7085,
      "Ġscor": 7086,
      "Ġscarc": 7087,
      "Ġscales": 7088,
      "inking": 7089,
      "ĠBefore": 7090,
      "Ġspeakest": 7091,
      "Ġgras": 7092,
      "Ġgrows": 7093,
      "Ġrace": 7094,
      "Ġcloth": 7095,
      "Ġhearken": 7096,
      "Ġkeepeth": 7097,
      "ĠQarun": 7098,
      "Ġreminder": 7099,
      "Ġremoves": 7100,
      "Ġwaters": 7101,
      "Ġwatering": 7102,
      "Ġchain": 7103,
      "Ġhelps": 7104,
      "Ġimple": 7105,
      "Ġimpart": 7106,
      "Ġgrands": 7107,
      "Ġretreat": 7108,
      "Ġlovely": 7109,
      "Ġdeliber": 7110,
      "Ġcompliance": 7111,
      "ributed": 7112,
      "Ġbrotherly": 7113,
      "Ġbodily": 7114,
      "Ġfounded": 7115,
      "Ġworkers": 7116,
      "Ġroaring": 7117,
      "Ġroots": 7118,
      "Ġroyal": 7119,
      "Ġharsh": 7120,
      "Ġsendeth": 7121,
      "Ġjustification": 7122,
      "Ġbesie": 7123,
      "ĠProof": 7124,
      "ĠProstrate": 7125,
      "Ġdoubted": 7126,
      "Ġjudgments": 7127,
      "Ġlights": 7128,
      "Ġhighway": 7129,
      "Thus": 7130,
      "Through": 7131,
      "Ġshook": 7132,
      "Ġmindful": 7133,
      "Ġpresum": 7134,
      "Ġgoddess": 7135,
      "ĠSpend": 7136,
      "Ġpurification": 7137,
      "Ġasketh": 7138,
      "Ġconfused": 7139,
      "Ġconflict": 7140,
      "Ġtrodden": 7141,
      "Ġvile": 7142,
      "ĠWhither": 7143,
      "forms": 7144,
      "Ġintact": 7145,
      "Ġrum": 7146,
      "ĠSaturday": 7147,
      "Ġhonoureth": 7148,
      "Ġaccepts": 7149,
      "Ġwailing": 7150,
      "Ġfluid": 7151,
      "ĠNoe": 7152,
      "Ġconscious": 7153,
      "Ġmiserable": 7154,
      "ĠJudge": 7155,
      "Ġverb": 7156,
      "ĠAlways": 7157,
      "Ġrespond": 7158,
      "Ġunderstandeth": 7159,
      "Ġsupply": 7160,
      "Ġrestri": 7161,
      "Ġrejection": 7162,
      "Ġgranting": 7163,
      "Ġslow": 7164,
      "Ġslander": 7165,
      "Ġbuffet": 7166,
      "aze": 7167,
      "Ġdistribution": 7168,
      "Ġdistribute": 7169,
      "ĠForgiveness": 7170,
      "Ġsatisf": 7171,
      "Ġthinking": 7172,
      "Ġthinkest": 7173,
      "Ġreading": 7174,
      "Ġspoke": 7175,
      "ĠInstead": 7176,
      "Ġbestowal": 7177,
      "Ġbelongings": 7178,
      "Ġterms": 7179,
      "Ġblinded": 7180,
      "Ġcountenance": 7181,
      "ĠTherein": 7182,
      "Before": 7183,
      "Ġwalketh": 7184,
      "Ġsaluted": 7185,
      "Ġregime": 7186,
      "Ġregularly": 7187,
      "Ġfavourite": 7188,
      "ternity": 7189,
      "Ġmorality": 7190,
      "Ġtransl": 7191,
      "Ġtransp": 7192,
      "Ġcaravan": 7193,
      "Ġgenerous": 7194,
      "Ġassist": 7195,
      "Ġassurance": 7196,
      "Ġprofited": 7197,
      "Ġinfinite": 7198,
      "Ġreflect": 7199,
      "Ġneedeth": 7200,
      "Ġhypocrite": 7201,
      "Ġdevised": 7202,
      "Ġdevoured": 7203,
      "Ġcounse": 7204,
      "apable": 7205,
      "Ġimpurity": 7206,
      "ĠAdmon": 7207,
      "Ġconditions": 7208,
      "ilies": 7209,
      "ĠHowever": 7210,
      "ertile": 7211,
      "licit": 7212,
      "Ġteachings": 7213,
      "Ġadvise": 7214,
      "ificent": 7215,
      "ificence": 7216,
      "Ġcorre": 7217,
      "Ġstrike": 7218,
      "Ġstrictly": 7219,
      "Ġextortion": 7220,
      "Ġharder": 7221,
      "Ġutmost": 7222,
      "Ġsoldier": 7223,
      "ruptible": 7224,
      "Ġsunrise": 7225,
      "Ġinscribed": 7226,
      "Ġevolution": 7227,
      "Ġfamilies": 7228,
      "Ġperseverance": 7229,
      "Ġselfsame": 7230,
      "Ġbuilders": 7231,
      "Ġbuildings": 7232,
      "Ġassociated": 7233,
      "Ġdecide": 7234,
      "Ġdecision": 7235,
      "Ġtransgressed": 7236,
      "chicus": 7237,
      "Ġbroad": 7238,
      "Ġlaboured": 7239,
      "laud": 7240,
      "Ġstronger": 7241,
      "Ġadoption": 7242,
      "Ġrank": 7243,
      "Ġwarmed": 7244,
      "ival": 7245,
      "Ġpaltry": 7246,
      "Ġequality": 7247,
      "ĠSuffer": 7248,
      "Ġdeputed": 7249,
      "Ġdeputy": 7250,
      "Ġdoctrines": 7251,
      "Ġlearnt": 7252,
      "Ġthrones": 7253,
      "Ġcommunicating": 7254,
      "Ġpurposed": 7255,
      "Ġvictim": 7256,
      "Ġvictorious": 7257,
      "Ġoccup": 7258,
      "Ġmember": 7259,
      "Ġserveth": 7260,
      "Ġsanctification": 7261,
      "Ġsanctuary": 7262,
      "chamber": 7263,
      "Ġregarded": 7264,
      "Ġceleb": 7265,
      "Ġhundredfold": 7266,
      "Whereas": 7267,
      "Whereupon": 7268,
      "Ġsleeping": 7269,
      "Ġinvoke": 7270,
      "Only": 7271,
      "Ġhealthy": 7272,
      "Ġrequire": 7273,
      "Ġrequite": 7274,
      "Ġofferings": 7275,
      "Ġoppressors": 7276,
      "Ġtales": 7277,
      "ĠSamiri": 7278,
      "Ġblaspheme": 7279,
      "Ġeduc": 7280,
      "Ġquickened": 7281,
      "Ġquickeneth": 7282,
      "Ġsurvive": 7283,
      "Ġsixty": 7284,
      "Ġbush": 7285,
      "Ġseasons": 7286,
      "Ġcontradi": 7287,
      "work": 7288,
      "ĠShould": 7289,
      "Ġabounded": 7290,
      "Ġnecessities": 7291,
      "Ġteacheth": 7292,
      "Ġeffects": 7293,
      "Ġgirl": 7294,
      "Ġunbelieving": 7295,
      "ĠExcellent": 7296,
      "ĠUnto": 7297,
      "aibiya": 7298,
      "Ġenjoins": 7299,
      "Ġfigure": 7300,
      "Ġpierc": 7301,
      "Ġcoveted": 7302,
      "Ġsacrificing": 7303,
      "Ġlaughed": 7304,
      "Ġprivily": 7305,
      "Ġsupplications": 7306,
      "Ġyielded": 7307,
      "Ġconsec": 7308,
      "Ġdrove": 7309,
      "Ġendureth": 7310,
      "Ġconfessed": 7311,
      "Ġlucre": 7312,
      "Ġparticular": 7313,
      "Ġcovering": 7314,
      "Ġarrive": 7315,
      "Ġtabernacles": 7316,
      "Ġdeserving": 7317,
      "Ġdeserts": 7318,
      "Ġmurderers": 7319,
      "Ġmurderer": 7320,
      "Ġnarrow": 7321,
      "Ġwhithersoever": 7322,
      "Ġperiods": 7323,
      "Ġuncircumcised": 7324,
      "Ġtyrants": 7325,
      "Ġoriginates": 7326,
      "Ġinstructions": 7327,
      "Ġhorror": 7328,
      "ĠJonah": 7329,
      "Ġshepherds": 7330,
      "Ġslaughtered": 7331,
      "Ġconsequences": 7332,
      "Ġsnat": 7333,
      "Ġpenalty": 7334,
      "Ġdisclosed": 7335,
      "Ġexclaimed": 7336,
      "Ġterrorism": 7337,
      "ĠTychicus": 7338,
      "Ġsomewhere": 7339,
      "Ġslept": 7340,
      "Ġmercies": 7341,
      "Ġeliminated": 7342,
      "ĠHudaibiya": 7343,
      "Ġkissed": 7344,
      "Ġpreceded": 7345,
      "Ġmajority": 7346,
      "Ġdeceitfulness": 7347,
      "Ġbands": 7348,
      "Ġfetch": 7349,
      "Ġinstant": 7350,
      "Ġinstantly": 7351,
      "Ġcontaining": 7352,
      "Ġagony": 7353,
      "Ġwhispering": 7354,
      "Ġhostility": 7355,
      "Ġsaluteth": 7356,
      "Ġemigrants": 7357,
      "Ġdebtors": 7358,
      "Ġdonke": 7359,
      "ĠLyd": 7360,
      "Ġbenevolent": 7361,
      "longs": 7362,
      "Ġbattlefield": 7363,
      "Ġlepers": 7364,
      "Ġproperty": 7365,
      "Ġovertaken": 7366,
      "Ġprevailed": 7367,
      "Ġcontemplate": 7368,
      "Ġsupposedly": 7369,
      "Ġdefileth": 7370,
      "Ġburdensome": 7371,
      "Ġmourn": 7372,
      "Ġpounds": 7373,
      "ĠSinai": 7374,
      "Ġexcesses": 7375,
      "Ġexactly": 7376,
      "Ġconstantly": 7377,
      "Ġtorture": 7378,
      "Ġdistinctly": 7379,
      "Ġdifficult": 7380,
      "Ġpersecutions": 7381,
      "Ġreconcile": 7382,
      "Ġfervently": 7383,
      "Ġseduce": 7384,
      "Ġfrequent": 7385,
      "Ġinwardly": 7386,
      "Ġnourished": 7387,
      "Ġseveral": 7388,
      "Ġdegree": 7389,
      "Ġcandlest": 7390,
      "Ġmansions": 7391,
      "Ġdesolation": 7392,
      "Ġadulteress": 7393,
      "ĠBeautiful": 7394,
      "Ġswallowed": 7395,
      "Ġcourtiers": 7396,
      "arenes": 7397,
      "Ġpredest": 7398,
      "Ġdiscern": 7399,
      "Ġdisorientated": 7400,
      "Ġacknowled": 7401,
      "Ġacknowledge": 7402,
      "Ġinfluence": 7403,
      "Ġinfluential": 7404,
      "Ġtravellers": 7405,
      "Ġexclusive": 7406,
      "Ġexclusively": 7407,
      "Ġeunuchs": 7408,
      "Ġwolf": 7409,
      "Ġocean": 7410,
      "Ġmistake": 7411,
      "Ġmixed": 7412,
      "Ġdigged": 7413,
      "Ġcosmic": 7414,
      "Ġpotential": 7415,
      "ĠAlexander": 7416,
      "Ġunmarried": 7417,
      "Ġweighing": 7418,
      "Ġkinsmen": 7419,
      "Ġorganism": 7420,
      "Ġacquaint": 7421,
      "Ġenvying": 7422,
      "Ġconsultations": 7423,
      "Ġmonitors": 7424,
      "Ġlaunched": 7425,
      "Ġwithdrawn": 7426,
      "Ġmortal": 7427,
      "Ġtower": 7428,
      "Ġporch": 7429,
      "Ġerected": 7430,
      "Ġdefeated": 7431,
      "Ġalternation": 7432,
      "Ġatmosphere": 7433,
      "Ġlawyers": 7434,
      "Ġpromotion": 7435,
      "Ġsubsistence": 7436,
      "Ġannihilated": 7437,
      "ĠGalilaeans": 7438,
      "Ġbabe": 7439,
      "Ġfurnished": 7440,
      "Ġlength": 7441,
      "Ġgentle": 7442,
      "ĠAccept": 7443,
      "ĠGrant": 7444,
      "ĠBountiful": 7445,
      "Ġspatial": 7446,
      "Ġsparingly": 7447,
      "Ġenquired": 7448,
      "Ġreclining": 7449,
      "Ġscheme": 7450,
      "Ġhousetop": 7451,
      "Ġgratitude": 7452,
      "Ġendeavour": 7453,
      "phylia": 7454,
      "Ġsucceeding": 7455,
      "Ġfourteen": 7456,
      "Ġpublished": 7457,
      "Ġsuspic": 7458,
      "Should": 7459,
      "Ġninety": 7460,
      "ĠAthens": 7461,
      "ĠRevealed": 7462,
      "Ġardently": 7463,
      "Ġcharacter": 7464,
      "Ġgraffed": 7465,
      "Ġtranquillity": 7466,
      "Ġintrigues": 7467,
      "Ġrestrains": 7468,
      "Ġrefreshed": 7469,
      "Ġimmortality": 7470,
      "Ġadvantage": 7471,
      "ĠVenerable": 7472,
      "Ġappropriate": 7473,
      "Ġepisode": 7474,
      "Ġawaits": 7475,
      "ĠPriscilla": 7476,
      "Philip": 7477,
      "Ġvengeance": 7478,
      "Ġaudience": 7479,
      "Ġbosom": 7480,
      "Ġbracelets": 7481,
      "Ġcelestial": 7482,
      "Ġcourage": 7483,
      "Ġtomorrow": 7484,
      "Ġbefell": 7485,
      "atthew": 7486,
      "Ġthreescore": 7487,
      "ĠAlphaeus": 7488,
      "ĠAyyub": 7489,
      "ĠSabbath": 7490,
      "ĠTarsus": 7491,
      "ĠLaodice": 7492,
      "ĠPamphylia": 7493,
      "Ġsuggest": 7494,
      "Ġsuperscription": 7495,
      "Ġsprung": 7496,
      "Ġspectacle": 7497,
      "ĠDeluge": 7498,
      "ĠDepart": 7499,
      "ĠDiana": 7500,
      "icodemus": 7501,
      "ristarchus": 7502,
      "ĠYemen": 7503,
      "Ġrivalry": 7504,
      "Ġplucked": 7505,
      "Ġscarcity": 7506,
      "Ġcandlestick": 7507,
      "Am": 7508,
      "Both": 7509,
      "Bring": 7510,
      "Com": 7511,
      "Can": 7512,
      "Father": 7513,
      "Fear": 7514,
      "Follow": 7515,
      "Hath": 7516,
      "Holy": 7517,
      "Honour": 7518,
      "IN": 7519,
      "Mar": 7520,
      "OR": 7521,
      "Our": 7522,
      "Others": 7523,
      "Pha": 7524,
      "Per": 7525,
      "Put": 7526,
      "Rise": 7527,
      "Sha": 7528,
      "Sub": 7529,
      "Ta": 7530,
      "Upon": 7531,
      "WS": 7532,
      "Was": 7533,
      "aly": 7534,
      "ald": 7535,
      "ba": 7536,
      "bid": 7537,
      "bread": 7538,
      "body": 7539,
      "cade": 7540,
      "cked": 7541,
      "cify": 7542,
      "dis": 7543,
      "elled": 7544,
      "fig": 7545,
      "fts": 7546,
      "fact": 7547,
      "fair": 7548,
      "ij": 7549,
      "iate": 7550,
      "ipe": 7551,
      "iety": 7552,
      "ika": 7553,
      "iency": 7554,
      "kin": 7555,
      "lar": 7556,
      "lst": 7557,
      "lings": 7558,
      "lance": 7559,
      "lab": 7560,
      "mest": 7561,
      "nas": 7562,
      "oon": 7563,
      "oom": 7564,
      "ooted": 7565,
      "pha": 7566,
      "pous": 7567,
      "ron": 7568,
      "tha": 7569,
      "tle": 7570,
      "uing": 7571,
      "uide": 7572,
      "uable": 7573,
      "ucted": 7574,
      "vice": 7575,
      "vag": 7576,
      "woman": 7577,
      "while": 7578,
      "xies": 7579,
      "zle": 7580,
      "Ġtie": 7581,
      "Ġtenth": 7582,
      "heart": 7583,
      "Ġaven": 7584,
      "Ġwate": 7585,
      "Ġwage": 7586,
      "Ġwont": 7587,
      "Ġwasted": 7588,
      "Ġwounded": 7589,
      "Ġwiped": 7590,
      "Ġwipe": 7591,
      "inal": 7592,
      "inations": 7593,
      "Ġsme": 7594,
      "Ġscept": 7595,
      "Ġstern": 7596,
      "Ġshie": 7597,
      "rewell": 7598,
      "Ġomission": 7599,
      "Ġorac": 7600,
      "hab": 7601,
      "haea": 7602,
      "Ġbi": 7603,
      "Ġbru": 7604,
      "Ġbarn": 7605,
      "Ġblem": 7606,
      "Ġbase": 7607,
      "oral": 7608,
      "orified": 7609,
      "Ġfi": 7610,
      "Ġfart": 7611,
      "Ġflex": 7612,
      "itha": 7613,
      "Ġmam": 7614,
      "ero": 7615,
      "erbe": 7616,
      "Ġdin": 7617,
      "Ġdim": 7618,
      "Ġdanced": 7619,
      "Ġcy": 7620,
      "Ġcher": 7621,
      "Ġcus": 7622,
      "Ġcure": 7623,
      "Ġcost": 7624,
      "Ġcum": 7625,
      "Ġclimb": 7626,
      "enn": 7627,
      "enge": 7628,
      "onom": 7629,
      "Ġtop": 7630,
      "Ġtoss": 7631,
      "Ġtoken": 7632,
      "Ġpill": 7633,
      "Ġpus": 7634,
      "Ġpard": 7635,
      "Ġpurely": 7636,
      "Ġpond": 7637,
      "Ġpsalms": 7638,
      "Ġpolite": 7639,
      "hions": 7640,
      "Ġink": 7641,
      "Ġinqu": 7642,
      "Ġinsol": 7643,
      "Ġinquire": 7644,
      "Ġnur": 7645,
      "Ġnap": 7646,
      "Ġnails": 7647,
      "omen": 7648,
      "arrows": 7649,
      "atted": 7650,
      "atures": 7651,
      "Ġhed": 7652,
      "sely": 7653,
      "sets": 7654,
      "Ġhairs": 7655,
      "Ġhalf": 7656,
      "Ġeigh": 7657,
      "Ġeffulg": 7658,
      "Ġlat": 7659,
      "Ġlew": 7660,
      "Ġloses": 7661,
      "Ġgala": 7662,
      "stable": 7663,
      "stood": 7664,
      "cei": 7665,
      "ĠAmin": 7666,
      "ĠAfter": 7667,
      "ĠAug": 7668,
      "ĠAristarchus": 7669,
      "ĠAika": 7670,
      "Ġnotice": 7671,
      "Ġnotable": 7672,
      "owal": 7673,
      "ĠIly": 7674,
      "ĠIne": 7675,
      "entimes": 7676,
      "verting": 7677,
      "Ġrecei": 7678,
      "Ġsad": 7679,
      "Ġsack": 7680,
      "ĠHig": 7681,
      "ĠHij": 7682,
      "Ġunre": 7683,
      "Ġunse": 7684,
      "Ġunsp": 7685,
      "Ġunfe": 7686,
      "Ġunstable": 7687,
      "liest": 7688,
      "licted": 7689,
      "Ġwithstood": 7690,
      "urther": 7691,
      "urous": 7692,
      "urious": 7693,
      "ĠWest": 7694,
      "ĠWood": 7695,
      "ĠWait": 7696,
      "ĠSight": 7697,
      "ĠSun": 7698,
      "ĠSend": 7699,
      "ĠSub": 7700,
      "ĠSaba": 7701,
      "ĠServ": 7702,
      "ĠSimeon": 7703,
      "ĠMos": 7704,
      "ĠMagog": 7705,
      "ĠMatthew": 7706,
      "ifes": 7707,
      "ifully": 7708,
      "Ġanx": 7709,
      "Ġanew": 7710,
      "Ġwholes": 7711,
      "Ġwhilst": 7712,
      "Ġhaven": 7713,
      "Ġassets": 7714,
      "usive": 7715,
      "ĠTab": 7716,
      "ĠGog": 7717,
      "ĠGreet": 7718,
      "Ġsets": 7719,
      "Ġseeds": 7720,
      "Ġseals": 7721,
      "aining": 7722,
      "ainted": 7723,
      "rike": 7724,
      "riarch": 7725,
      "ĠLiving": 7726,
      "ĠLeft": 7727,
      "ĠLys": 7728,
      "ĠListen": 7729,
      "ĠLOR": 7730,
      "met": 7731,
      "meal": 7732,
      "Ġshapes": 7733,
      "ĠJalut": 7734,
      "Ġallow": 7735,
      "Ġdel": 7736,
      "Ġyellow": 7737,
      "Ġaloud": 7738,
      "rast": 7739,
      "Ġcares": 7740,
      "Ġcamest": 7741,
      "rosy": 7742,
      "Ġmemor": 7743,
      "akers": 7744,
      "Ġdove": 7745,
      "Ġdoer": 7746,
      "ulc": 7747,
      "uled": 7748,
      "ulated": 7749,
      "Ġdisun": 7750,
      "Ġdissol": 7751,
      "Ġdispensation": 7752,
      "ĠPat": 7753,
      "ĠPhen": 7754,
      "ĠPsalms": 7755,
      "ĠPrep": 7756,
      "Ġsup": 7757,
      "Ġtherewith": 7758,
      "Ġthereunto": 7759,
      "Ġupside": 7760,
      "ersed": 7761,
      "Ġstro": 7762,
      "Ġstun": 7763,
      "Ġstage": 7764,
      "Ġstates": 7765,
      "Ġsteps": 7766,
      "Ġstubb": 7767,
      "Ġworried": 7768,
      "ĠBo": 7769,
      "ĠBene": 7770,
      "ĠCon": 7771,
      "ĠCain": 7772,
      "ĠCru": 7773,
      "ĠClaud": 7774,
      "ĠOut": 7775,
      "Ġspices": 7776,
      "Ġsparrows": 7777,
      "Ġfaced": 7778,
      "Ġfailed": 7779,
      "Ġfarewell": 7780,
      "mentation": 7781,
      "arded": 7782,
      "Ġgoble": 7783,
      "Ġsop": 7784,
      "Ġsoci": 7785,
      "eting": 7786,
      "etime": 7787,
      "rup": 7788,
      "Ġabased": 7789,
      "ĠDaught": 7790,
      "ĠDerbe": 7791,
      "Ġamply": 7792,
      "Ġexting": 7793,
      "Ġexists": 7794,
      "Ġexcus": 7795,
      "bereth": 7796,
      "Ġorbit": 7797,
      "Ġanywhere": 7798,
      "Ġfeeble": 7799,
      "Ġfeatures": 7800,
      "Ġconverse": 7801,
      "omew": 7802,
      "antity": 7803,
      "Ġaggri": 7804,
      "Ġafresh": 7805,
      "acheth": 7806,
      "Ġoutcast": 7807,
      "iciency": 7808,
      "Ġwhit": 7809,
      "Ġproc": 7810,
      "Ġprog": 7811,
      "Ġprosely": 7812,
      "uding": 7813,
      "Ġhoped": 7814,
      "Ġjun": 7815,
      "Ġbloom": 7816,
      "eless": 7817,
      "Ġliked": 7818,
      "Ġlikened": 7819,
      "Ġseems": 7820,
      "Ġshineth": 7821,
      "Ġvicege": 7822,
      "ighed": 7823,
      "Ġhearers": 7824,
      "ustus": 7825,
      "Ġcommitting": 7826,
      "ciples": 7827,
      "ĠRet": 7828,
      "Ġlovers": 7829,
      "Ġloosing": 7830,
      "werest": 7831,
      "ĠEach": 7832,
      "ĠEden": 7833,
      "emas": 7834,
      "Ġearthy": 7835,
      "ependent": 7836,
      "Ġtorrents": 7837,
      "Ġdowncast": 7838,
      "ĠMessages": 7839,
      "igns": 7840,
      "ĠFight": 7841,
      "Ġfoes": 7842,
      "Ġfocus": 7843,
      "efiled": 7844,
      "ĠNa": 7845,
      "ĠNight": 7846,
      "ĠNine": 7847,
      "ĠNathanael": 7848,
      "Ġfaithless": 7849,
      "Ġperple": 7850,
      "Ġperverse": 7851,
      "Ġperception": 7852,
      "Ġperceiving": 7853,
      "Ġpermitted": 7854,
      "Ġglass": 7855,
      "Ġplants": 7856,
      "Ġcertainty": 7857,
      "Ġaccess": 7858,
      "Ġdescribed": 7859,
      "Ġguest": 7860,
      "Ġtwinkling": 7861,
      "Ġpartial": 7862,
      "Ġpreacher": 7863,
      "Ġleg": 7864,
      "Ġlevelled": 7865,
      "Ġleaped": 7866,
      "Ġlegs": 7867,
      "Ġlaws": 7868,
      "Ġkeys": 7869,
      "Ġrod": 7870,
      "Ġindig": 7871,
      "Ġglorifies": 7872,
      "ĠRememb": 7873,
      "Ġcommandeth": 7874,
      "Ġarms": 7875,
      "Ġthroughly": 7876,
      "Ġresorted": 7877,
      "Ġresisted": 7878,
      "Ġresults": 7879,
      "Ġtrueness": 7880,
      "ĠOurselves": 7881,
      "agers": 7882,
      "brail": 7883,
      "ĠKill": 7884,
      "ĠKorah": 7885,
      "ĠKhaib": 7886,
      "ĠKIN": 7887,
      "Ġentrust": 7888,
      "ending": 7889,
      "Ġscatter": 7890,
      "Ġscorn": 7891,
      "Ġscald": 7892,
      "Heaven": 7893,
      "ĠTruthful": 7894,
      "Ġdiver": 7895,
      "Ġdict": 7896,
      "Ġdieth": 7897,
      "Ġpassion": 7898,
      "Ġtear": 7899,
      "Ġreputation": 7900,
      "Ġrapt": 7901,
      "Ġobli": 7902,
      "Ġobstin": 7903,
      "Ġcreating": 7904,
      "Ġeats": 7905,
      "Ġforgiving": 7906,
      "Ġbegu": 7907,
      "Ġbegging": 7908,
      "Ġclust": 7909,
      "Ġclass": 7910,
      "Ġhears": 7911,
      "Ġprivile": 7912,
      "Ġremnant": 7913,
      "Ġexception": 7914,
      "ĠItaly": 7915,
      "Ġwrongfully": 7916,
      "Ġimmen": 7917,
      "Ġgraze": 7918,
      "Ġlovest": 7919,
      "ĠComfor": 7920,
      "Ġpowerless": 7921,
      "Ġendless": 7922,
      "Ġcomparis": 7923,
      "Ġcompelled": 7924,
      "Ġglorying": 7925,
      "Ġsuffice": 7926,
      "ossal": 7927,
      "Ġfoundations": 7928,
      "Ġroar": 7929,
      "Ġhastened": 7930,
      "ĠUndoubtedly": 7931,
      "Ġharmed": 7932,
      "Ġnamely": 7933,
      "Ġlands": 7934,
      "Ġjustify": 7935,
      "Ġdoubled": 7936,
      "Ġopening": 7937,
      "Ġhighways": 7938,
      "Ġshoot": 7939,
      "Ġstrawed": 7940,
      "Ġpresently": 7941,
      "Ġpresume": 7942,
      "Ġpreserve": 7943,
      "Ġquantity": 7944,
      "Ġpurse": 7945,
      "Ġpurge": 7946,
      "Ġpurged": 7947,
      "Ġdoubting": 7948,
      "Ġdoubtlessly": 7949,
      "ĠWhatsoever": 7950,
      "Ġevermore": 7951,
      "Ġevergre": 7952,
      "Ġfruitful": 7953,
      "Ġpiously": 7954,
      "Ġexceeds": 7955,
      "Ġmarked": 7956,
      "Ġmarital": 7957,
      "Ġmarvell": 7958,
      "Ġconfusion": 7959,
      "Ġlooketh": 7960,
      "ornness": 7961,
      "Ġvipers": 7962,
      "Ġintreat": 7963,
      "Ġexpose": 7964,
      "Ġexpand": 7965,
      "Ġrust": 7966,
      "Ġruins": 7967,
      "Ġhonesty": 7968,
      "Ġflocks": 7969,
      "Ġconsid": 7970,
      "Ġminor": 7971,
      "Ġmiser": 7972,
      "Ġmisdeeds": 7973,
      "Ġsheweth": 7974,
      "Ġshewbread": 7975,
      "ĠAlso": 7976,
      "Ġappealed": 7977,
      "ĠKnowledge": 7978,
      "Ġrejects": 7979,
      "Ġherein": 7980,
      "Ġcommuned": 7981,
      "Ġcommunion": 7982,
      "Ġpatriarch": 7983,
      "Ġcharger": 7984,
      "Ġbaptizing": 7985,
      "Ġtelling": 7986,
      "Ġdistance": 7987,
      "ĠForgive": 7988,
      "ĠZab": 7989,
      "Ġfastened": 7990,
      "Ġboats": 7991,
      "Ġknewest": 7992,
      "Ġpoll": 7993,
      "Ġestate": 7994,
      "Ġesteem": 7995,
      "Ġuncovered": 7996,
      "Ġsignify": 7997,
      "Ġsignifying": 7998,
      "Ġchooses": 7999
    },
    "merges": [
      [
        "Ġ",
        "t"
      ],
      [
        "h",
        "e"
      ],
      [
        "Ġ",
        "a"
      ],
      [
        "Ġt",
        "he"
      ],
      [
        "n",
        "d"
      ],
      [
        "Ġ",
        "w"
      ],
      [
        "Ġ",
        ","
      ],
      [
        "i",
        "n"
      ],
      [
        "Ġ",
        "s"
      ],
      [
        "r",
        "e"
      ],
      [
        "Ġ",
        "o"
      ],
      [
        "Ġ",
        "."
      ],
      [
        "h",
        "a"
      ],
      [
        "i",
        "s"
      ],
      [
        "Ġ",
        "b"
      ],
      [
        "o",
        "u"
      ],
      [
        "Ġa",
        "nd"
      ],
      [
        "l",
        "l"
      ],
      [
        "v",
        "e"
      ],
      [
        "o",
        "r"
      ],
      [
        "Ġ",
        "f"
      ],
      [
        "Ġo",
        "f"
      ],
      [
        "Ġ",
        ")"
      ],
      [
        "i",
        "t"
      ],
      [
        "Ġ",
        "("
      ],
      [
        "Ġ",
        "m"
      ],
      [
        "e",
        "s"
      ],
      [
        "e",
        "d"
      ],
      [
        "e",
        "r"
      ],
      [
        "Ġ",
        "d"
      ],
      [
        "Ġ",
        "c"
      ],
      [
        "e",
        "n"
      ],
      [
        "Ġ",
        "y"
      ],
      [
        "o",
        "n"
      ],
      [
        "in",
        "g"
      ],
      [
        "Ġt",
        "o"
      ],
      [
        "Ġ",
        "p"
      ],
      [
        "h",
        "i"
      ],
      [
        "ha",
        "t"
      ],
      [
        "Ġb",
        "e"
      ],
      [
        "Ġ",
        "in"
      ],
      [
        "Ġ",
        "n"
      ],
      [
        "o",
        "m"
      ],
      [
        "Ġy",
        "ou"
      ],
      [
        "a",
        "r"
      ],
      [
        "a",
        "t"
      ],
      [
        "Ġ",
        "he"
      ],
      [
        "A",
        "nd"
      ],
      [
        "Ġ",
        "u"
      ],
      [
        "Ġt",
        "h"
      ],
      [
        "o",
        "t"
      ],
      [
        "a",
        "n"
      ],
      [
        "Ġt",
        "hat"
      ],
      [
        "s",
        "e"
      ],
      [
        "a",
        "y"
      ],
      [
        "Ġ",
        "is"
      ],
      [
        "Ġ",
        "ha"
      ],
      [
        "Ġ",
        "e"
      ],
      [
        "Ġ",
        "l"
      ],
      [
        "u",
        "t"
      ],
      [
        "Ġ",
        "g"
      ],
      [
        "s",
        "t"
      ],
      [
        "h",
        "o"
      ],
      [
        "c",
        "e"
      ],
      [
        "Ġthe",
        "y"
      ],
      [
        "Ġ",
        "A"
      ],
      [
        "Ġf",
        "or"
      ],
      [
        "Ġthe",
        "m"
      ],
      [
        "i",
        "d"
      ],
      [
        "Ġ",
        "hi"
      ],
      [
        "Ġn",
        "ot"
      ],
      [
        "l",
        "e"
      ],
      [
        "o",
        "w"
      ],
      [
        "it",
        "h"
      ],
      [
        "Ġ",
        "I"
      ],
      [
        "l",
        "y"
      ],
      [
        "Ġhi",
        "m"
      ],
      [
        "en",
        "t"
      ],
      [
        "ve",
        "r"
      ],
      [
        "c",
        "h"
      ],
      [
        "Ġ",
        "re"
      ],
      [
        "t",
        "o"
      ],
      [
        "Ġ",
        ":"
      ],
      [
        "i",
        "ll"
      ],
      [
        "Ġs",
        "a"
      ],
      [
        "g",
        "h"
      ],
      [
        "a",
        "s"
      ],
      [
        "Ġ",
        "H"
      ],
      [
        "ĠA",
        "ll"
      ],
      [
        "l",
        "d"
      ],
      [
        "t",
        "h"
      ],
      [
        "i",
        "r"
      ],
      [
        "a",
        "h"
      ],
      [
        "Ġu",
        "n"
      ],
      [
        "Ġ",
        "h"
      ],
      [
        "l",
        "i"
      ],
      [
        "o",
        "d"
      ],
      [
        "Ġw",
        "ith"
      ],
      [
        "Ġw",
        "e"
      ],
      [
        "ĠAll",
        "ah"
      ],
      [
        "he",
        "n"
      ],
      [
        "i",
        "on"
      ],
      [
        "Ġw",
        "ill"
      ],
      [
        "u",
        "r"
      ],
      [
        "he",
        "r"
      ],
      [
        "Ġ",
        "W"
      ],
      [
        "Ġo",
        "n"
      ],
      [
        "Ġ",
        "it"
      ],
      [
        "Ġ",
        "S"
      ],
      [
        "es",
        "s"
      ],
      [
        "Ġ",
        "M"
      ],
      [
        "gh",
        "t"
      ],
      [
        "i",
        "f"
      ],
      [
        "Ġa",
        "n"
      ],
      [
        "Ġw",
        "ho"
      ],
      [
        "Ġun",
        "to"
      ],
      [
        "Ġw",
        "hi"
      ],
      [
        "or",
        "d"
      ],
      [
        "Ġha",
        "ve"
      ],
      [
        "r",
        "om"
      ],
      [
        "Ġa",
        "re"
      ],
      [
        "Ġa",
        "s"
      ],
      [
        "u",
        "s"
      ],
      [
        "Ġ",
        "T"
      ],
      [
        "Ġwhi",
        "ch"
      ],
      [
        "Ġ",
        "G"
      ],
      [
        "Ġs",
        "e"
      ],
      [
        "a",
        "in"
      ],
      [
        "r",
        "i"
      ],
      [
        "a",
        "d"
      ],
      [
        "Ġ",
        "L"
      ],
      [
        "m",
        "e"
      ],
      [
        "Ġs",
        "ha"
      ],
      [
        "Ġ",
        "k"
      ],
      [
        "Ġf",
        "rom"
      ],
      [
        "Ġc",
        "om"
      ],
      [
        "Ġ",
        "J"
      ],
      [
        "Ġ",
        "?"
      ],
      [
        "a",
        "l"
      ],
      [
        "Ġh",
        "is"
      ],
      [
        "Ġa",
        "ll"
      ],
      [
        "Ġyou",
        "r"
      ],
      [
        "Ġd",
        "e"
      ],
      [
        "Ġy",
        "e"
      ],
      [
        "ve",
        "n"
      ],
      [
        "Ġa",
        "l"
      ],
      [
        "Ġthe",
        "ir"
      ],
      [
        "r",
        "a"
      ],
      [
        "Ġsa",
        "id"
      ],
      [
        "Ġsha",
        "ll"
      ],
      [
        "Ġc",
        "a"
      ],
      [
        "Ġ",
        ";"
      ],
      [
        "t",
        "er"
      ],
      [
        "r",
        "o"
      ],
      [
        "Ġm",
        "an"
      ],
      [
        "Ġm",
        "e"
      ],
      [
        "a",
        "k"
      ],
      [
        "o",
        "re"
      ],
      [
        "Ġd",
        "o"
      ],
      [
        "Ġw",
        "as"
      ],
      [
        "ĠL",
        "ord"
      ],
      [
        "ĠH",
        "e"
      ],
      [
        "Ġw",
        "hen"
      ],
      [
        "li",
        "e"
      ],
      [
        "c",
        "t"
      ],
      [
        "ĠW",
        "e"
      ],
      [
        "Ġth",
        "is"
      ],
      [
        "es",
        "t"
      ],
      [
        "i",
        "l"
      ],
      [
        "u",
        "l"
      ],
      [
        "s",
        "o"
      ],
      [
        "Ġp",
        "e"
      ],
      [
        "Ġ",
        "And"
      ],
      [
        "Ġb",
        "ut"
      ],
      [
        "Ġd",
        "is"
      ],
      [
        "o",
        "se"
      ],
      [
        "Ġ",
        "P"
      ],
      [
        "p",
        "le"
      ],
      [
        "ĠG",
        "od"
      ],
      [
        "Ġs",
        "u"
      ],
      [
        "Ġthe",
        "re"
      ],
      [
        "i",
        "ve"
      ],
      [
        "Ġu",
        "p"
      ],
      [
        "er",
        "s"
      ],
      [
        "Ġs",
        "ay"
      ],
      [
        "Ġs",
        "t"
      ],
      [
        "ing",
        "s"
      ],
      [
        "Ġw",
        "or"
      ],
      [
        "Ġb",
        "y"
      ],
      [
        "i",
        "ght"
      ],
      [
        "re",
        "d"
      ],
      [
        "Ġ",
        "B"
      ],
      [
        "g",
        "e"
      ],
      [
        "Ġ",
        "C"
      ],
      [
        "Ġ",
        "O"
      ],
      [
        "Ġs",
        "p"
      ],
      [
        "ou",
        "ld"
      ],
      [
        "n",
        "ow"
      ],
      [
        "Ġf",
        "a"
      ],
      [
        "m",
        "ent"
      ],
      [
        "Ġth",
        "ose"
      ],
      [
        "a",
        "nd"
      ],
      [
        "f",
        "ore"
      ],
      [
        "on",
        "g"
      ],
      [
        "ar",
        "d"
      ],
      [
        "o",
        "ple"
      ],
      [
        "at",
        "ion"
      ],
      [
        "Ġwe",
        "re"
      ],
      [
        "on",
        "e"
      ],
      [
        "p",
        "t"
      ],
      [
        "Ġal",
        "so"
      ],
      [
        "Ġpe",
        "ople"
      ],
      [
        "i",
        "m"
      ],
      [
        "ar",
        "t"
      ],
      [
        "Ġu",
        "s"
      ],
      [
        "es",
        "us"
      ],
      [
        "Ġg",
        "o"
      ],
      [
        "se",
        "l"
      ],
      [
        "Ġs",
        "o"
      ],
      [
        "Ġm",
        "y"
      ],
      [
        "Ġk",
        "now"
      ],
      [
        "e",
        "t"
      ],
      [
        "r",
        "is"
      ],
      [
        "u",
        "re"
      ],
      [
        "r",
        "u"
      ],
      [
        "Ġa",
        "b"
      ],
      [
        "e",
        "th"
      ],
      [
        "Ġ",
        "if"
      ],
      [
        "F",
        "or"
      ],
      [
        "ĠJ",
        "esus"
      ],
      [
        "i",
        "nd"
      ],
      [
        "Ġn",
        "e"
      ],
      [
        "Ġth",
        "ou"
      ],
      [
        "Ġon",
        "e"
      ],
      [
        "Ġ",
        "D"
      ],
      [
        "Ġha",
        "d"
      ],
      [
        "Ġa",
        "m"
      ],
      [
        "Ġe",
        "x"
      ],
      [
        "Ġbe",
        "lie"
      ],
      [
        "b",
        "e"
      ],
      [
        "Ġo",
        "r"
      ],
      [
        "Ġan",
        "y"
      ],
      [
        "Ġin",
        "to"
      ],
      [
        "ou",
        "r"
      ],
      [
        "Ġw",
        "hat"
      ],
      [
        "Ġf",
        "e"
      ],
      [
        "Ġthe",
        "n"
      ],
      [
        "t",
        "her"
      ],
      [
        "ak",
        "e"
      ],
      [
        "Ġha",
        "s"
      ],
      [
        "Ġc",
        "on"
      ],
      [
        "om",
        "e"
      ],
      [
        "r",
        "ou"
      ],
      [
        "o",
        "k"
      ],
      [
        "he",
        "re"
      ],
      [
        "an",
        "t"
      ],
      [
        "B",
        "ut"
      ],
      [
        "Ġth",
        "ings"
      ],
      [
        "a",
        "st"
      ],
      [
        "o",
        "s"
      ],
      [
        "Ġa",
        "g"
      ],
      [
        "ou",
        "s"
      ],
      [
        "Ġa",
        "f"
      ],
      [
        "Ġa",
        "t"
      ],
      [
        "Ġ",
        "-"
      ],
      [
        "is",
        "e"
      ],
      [
        "a",
        "c"
      ],
      [
        "Ġn",
        "o"
      ],
      [
        "Ġo",
        "ut"
      ],
      [
        "Ġcom",
        "e"
      ],
      [
        "i",
        "c"
      ],
      [
        "re",
        "at"
      ],
      [
        "ver",
        "s"
      ],
      [
        "n",
        "ess"
      ],
      [
        "it",
        "y"
      ],
      [
        "Ġw",
        "h"
      ],
      [
        "ve",
        "s"
      ],
      [
        "Ġ",
        "!"
      ],
      [
        "p",
        "p"
      ],
      [
        "Ġp",
        "ro"
      ],
      [
        "Ġe",
        "ar"
      ],
      [
        "an",
        "ce"
      ],
      [
        "Ġag",
        "ain"
      ],
      [
        "o",
        "st"
      ],
      [
        "at",
        "e"
      ],
      [
        "ver",
        "y"
      ],
      [
        "Ġup",
        "on"
      ],
      [
        "t",
        "ain"
      ],
      [
        "u",
        "d"
      ],
      [
        "Ġ",
        "ho"
      ],
      [
        "Ġm",
        "ay"
      ],
      [
        "Ġ",
        "j"
      ],
      [
        "ve",
        "d"
      ],
      [
        "Ġbe",
        "c"
      ],
      [
        "re",
        "n"
      ],
      [
        "Ġb",
        "l"
      ],
      [
        "ad",
        "e"
      ],
      [
        "at",
        "her"
      ],
      [
        "e",
        "l"
      ],
      [
        "a",
        "ce"
      ],
      [
        "Ġd",
        "ay"
      ],
      [
        "l",
        "es"
      ],
      [
        "a",
        "b"
      ],
      [
        "Ġl",
        "i"
      ],
      [
        "Ġca",
        "me"
      ],
      [
        "Ġbe",
        "fore"
      ],
      [
        "w",
        "ay"
      ],
      [
        "Ġse",
        "e"
      ],
      [
        "Ġthe",
        "se"
      ],
      [
        "Ġo",
        "ur"
      ],
      [
        "Ġs",
        "h"
      ],
      [
        "ĠT",
        "he"
      ],
      [
        "ot",
        "her"
      ],
      [
        "at",
        "h"
      ],
      [
        "ur",
        "n"
      ],
      [
        "ou",
        "t"
      ],
      [
        "Ġm",
        "ade"
      ],
      [
        "T",
        "hen"
      ],
      [
        "Ġ",
        "v"
      ],
      [
        "a",
        "m"
      ],
      [
        "i",
        "g"
      ],
      [
        "a",
        "u"
      ],
      [
        "ow",
        "n"
      ],
      [
        "ut",
        "h"
      ],
      [
        "T",
        "he"
      ],
      [
        "ris",
        "t"
      ],
      [
        "ĠC",
        "h"
      ],
      [
        "Ġhe",
        "a"
      ],
      [
        "ĠCh",
        "rist"
      ],
      [
        "Ġwh",
        "om"
      ],
      [
        "u",
        "st"
      ],
      [
        "ĠS",
        "o"
      ],
      [
        "e",
        "ver"
      ],
      [
        "Ġcom",
        "m"
      ],
      [
        "c",
        "i"
      ],
      [
        "re",
        "s"
      ],
      [
        "Ġa",
        "c"
      ],
      [
        "be",
        "lie"
      ],
      [
        "Ġ",
        "hat"
      ],
      [
        "v",
        "ing"
      ],
      [
        "w",
        "ard"
      ],
      [
        "Ġ",
        "R"
      ],
      [
        "ha",
        "n"
      ],
      [
        "k",
        "e"
      ],
      [
        "Ġl",
        "o"
      ],
      [
        "w",
        "e"
      ],
      [
        "u",
        "n"
      ],
      [
        "Ġ",
        "Y"
      ],
      [
        "en",
        "ce"
      ],
      [
        "en",
        "g"
      ],
      [
        "Ġe",
        "very"
      ],
      [
        "Ġdis",
        "belie"
      ],
      [
        "Ġaf",
        "ter"
      ],
      [
        "Ġsh",
        "ould"
      ],
      [
        "t",
        "ed"
      ],
      [
        "Ġ",
        "E"
      ],
      [
        "if",
        "e"
      ],
      [
        "r",
        "uth"
      ],
      [
        "Ġb",
        "r"
      ],
      [
        "e",
        "m"
      ],
      [
        "Ġear",
        "th"
      ],
      [
        "e",
        "p"
      ],
      [
        "Ġhea",
        "ven"
      ],
      [
        "f",
        "ul"
      ],
      [
        "Ġt",
        "or"
      ],
      [
        "Ġhat",
        "h"
      ],
      [
        "e",
        "ct"
      ],
      [
        "ĠH",
        "is"
      ],
      [
        "Ġ",
        "ri"
      ],
      [
        "w",
        "n"
      ],
      [
        "ou",
        "n"
      ],
      [
        "Ġd",
        "own"
      ],
      [
        "ĠM",
        "ess"
      ],
      [
        "Ġo",
        "ther"
      ],
      [
        "Ġs",
        "ome"
      ],
      [
        "Ġwor",
        "ld"
      ],
      [
        "ure",
        "ly"
      ],
      [
        "Ġw",
        "r"
      ],
      [
        "Ġw",
        "ould"
      ],
      [
        "Ġca",
        "ll"
      ],
      [
        "ig",
        "n"
      ],
      [
        "r",
        "ay"
      ],
      [
        "m",
        "b"
      ],
      [
        "Ġs",
        "in"
      ],
      [
        "Ġs",
        "ent"
      ],
      [
        "Ġtor",
        "ment"
      ],
      [
        "Ġe",
        "ven"
      ],
      [
        "ĠMess",
        "eng"
      ],
      [
        "Ġ",
        "F"
      ],
      [
        "v",
        "il"
      ],
      [
        "Ġam",
        "ong"
      ],
      [
        "er",
        "tain"
      ],
      [
        "sel",
        "f"
      ],
      [
        "Ġbe",
        "en"
      ],
      [
        "sel",
        "ves"
      ],
      [
        "Ġthe",
        "e"
      ],
      [
        "Ġgo",
        "od"
      ],
      [
        "Ġf",
        "o"
      ],
      [
        "e",
        "f"
      ],
      [
        "Ġm",
        "en"
      ],
      [
        "Ġ",
        "N"
      ],
      [
        "Ġa",
        "way"
      ],
      [
        "Ġl",
        "a"
      ],
      [
        "a",
        "ve"
      ],
      [
        "Ġc",
        "hi"
      ],
      [
        "e",
        "ed"
      ],
      [
        "Ġs",
        "he"
      ],
      [
        "it",
        "her"
      ],
      [
        "ce",
        "pt"
      ],
      [
        "Ġagain",
        "st"
      ],
      [
        "i",
        "ven"
      ],
      [
        "q",
        "u"
      ],
      [
        "Ġsay",
        "ing"
      ],
      [
        "Ġfa",
        "ith"
      ],
      [
        "o",
        "l"
      ],
      [
        "S",
        "o"
      ],
      [
        "nd",
        "er"
      ],
      [
        "Ġbelie",
        "ve"
      ],
      [
        "Ġth",
        "y"
      ],
      [
        "e",
        "w"
      ],
      [
        "Ġp",
        "er"
      ],
      [
        "Ġbl",
        "ess"
      ],
      [
        "i",
        "ce"
      ],
      [
        "Ġt",
        "han"
      ],
      [
        "he",
        "d"
      ],
      [
        "k",
        "s"
      ],
      [
        "hi",
        "p"
      ],
      [
        "is",
        "h"
      ],
      [
        "Ġg",
        "l"
      ],
      [
        "Ġs",
        "er"
      ],
      [
        "t",
        "s"
      ],
      [
        "au",
        "se"
      ],
      [
        "Ġsp",
        "e"
      ],
      [
        "Ġp",
        "l"
      ],
      [
        "ĠD",
        "ay"
      ],
      [
        "p",
        "he"
      ],
      [
        "ct",
        "ion"
      ],
      [
        "in",
        "e"
      ],
      [
        "a",
        "re"
      ],
      [
        "Ġc",
        "ertain"
      ],
      [
        "ĠT",
        "h"
      ],
      [
        "Ġac",
        "c"
      ],
      [
        "Ġo",
        "ver"
      ],
      [
        "Ġb",
        "re"
      ],
      [
        "er",
        "c"
      ],
      [
        "Ġg",
        "reat"
      ],
      [
        "i",
        "re"
      ],
      [
        "Ġd",
        "es"
      ],
      [
        "Ġhe",
        "art"
      ],
      [
        "ce",
        "ive"
      ],
      [
        "Ġa",
        "d"
      ],
      [
        "Ġw",
        "ay"
      ],
      [
        "Ġman",
        "y"
      ],
      [
        "Ġc",
        "an"
      ],
      [
        "Ġg",
        "u"
      ],
      [
        "as",
        "s"
      ],
      [
        "Ġg",
        "ive"
      ],
      [
        "Ġl",
        "ife"
      ],
      [
        "an",
        "s"
      ],
      [
        "Ġbec",
        "ause"
      ],
      [
        "ll",
        "ow"
      ],
      [
        "Ġm",
        "ight"
      ],
      [
        "ĠW",
        "ho"
      ],
      [
        "ou",
        "nd"
      ],
      [
        "Ġt",
        "urn"
      ],
      [
        "i",
        "ly"
      ],
      [
        "i",
        "me"
      ],
      [
        "Ġwe",
        "ll"
      ],
      [
        "Ġfe",
        "ar"
      ],
      [
        "Ġab",
        "out"
      ],
      [
        "Ġn",
        "or"
      ],
      [
        "Ġw",
        "ent"
      ],
      [
        "Ġo",
        "wn"
      ],
      [
        "us",
        "a"
      ],
      [
        "Ġpe",
        "ace"
      ],
      [
        "Ġri",
        "ght"
      ],
      [
        "Ġal",
        "one"
      ],
      [
        "i",
        "es"
      ],
      [
        "Ġw",
        "here"
      ],
      [
        "ĠI",
        "s"
      ],
      [
        "Ġd",
        "id"
      ],
      [
        "Ġe",
        "vil"
      ],
      [
        "ĠH",
        "im"
      ],
      [
        "Ġha",
        "nd"
      ],
      [
        "Ġhe",
        "r"
      ],
      [
        "ir",
        "it"
      ],
      [
        "ot",
        "h"
      ],
      [
        "id",
        "e"
      ],
      [
        "Ġli",
        "ke"
      ],
      [
        "Ġt",
        "ime"
      ],
      [
        "Ġs",
        "on"
      ],
      [
        "Ġ",
        "]"
      ],
      [
        "Ġm",
        "ake"
      ],
      [
        "u",
        "e"
      ],
      [
        "Ġ",
        "["
      ],
      [
        "Ġt",
        "w"
      ],
      [
        "Ġsa",
        "me"
      ],
      [
        "l",
        "ed"
      ],
      [
        "Ġm",
        "ore"
      ],
      [
        "Ġdisbelie",
        "vers"
      ],
      [
        "u",
        "m"
      ],
      [
        "Ġp",
        "art"
      ],
      [
        "Ġw",
        "ord"
      ],
      [
        "ĠS",
        "urely"
      ],
      [
        "Ġon",
        "ly"
      ],
      [
        "Ġp",
        "re"
      ],
      [
        "it",
        "t"
      ],
      [
        "f",
        "f"
      ],
      [
        "i",
        "ed"
      ],
      [
        "ĠMesseng",
        "er"
      ],
      [
        "Ġho",
        "w"
      ],
      [
        "Ġ",
        "'"
      ],
      [
        "Ġl",
        "e"
      ],
      [
        "Ġla",
        "w"
      ],
      [
        "Ġk",
        "e"
      ],
      [
        "o",
        "ok"
      ],
      [
        "os",
        "es"
      ],
      [
        "Ġser",
        "v"
      ],
      [
        "Ġ",
        "r"
      ],
      [
        "Ġl",
        "et"
      ],
      [
        "Ġa",
        "pp"
      ],
      [
        "Ġbe",
        "t"
      ],
      [
        "Ġn",
        "ow"
      ],
      [
        "a",
        "ll"
      ],
      [
        "is",
        "t"
      ],
      [
        "Ġg",
        "iven"
      ],
      [
        "Ġ",
        "ind"
      ],
      [
        "Ġof",
        "f"
      ],
      [
        "ĠM",
        "ost"
      ],
      [
        "oun",
        "t"
      ],
      [
        "Ġgl",
        "or"
      ],
      [
        "r",
        "y"
      ],
      [
        "a",
        "me"
      ],
      [
        "ĠR",
        "e"
      ],
      [
        "rou",
        "gh"
      ],
      [
        "i",
        "ous"
      ],
      [
        "Ġcomm",
        "and"
      ],
      [
        "a",
        "ch"
      ],
      [
        "l",
        "s"
      ],
      [
        "Ġ",
        "en"
      ],
      [
        "Ġu",
        "nder"
      ],
      [
        "Ġre",
        "c"
      ],
      [
        "s",
        "hip"
      ],
      [
        "re",
        "e"
      ],
      [
        "Ġc",
        "o"
      ],
      [
        "Ġa",
        "r"
      ],
      [
        "Ġan",
        "other"
      ],
      [
        "Ġth",
        "rough"
      ],
      [
        "Ġre",
        "s"
      ],
      [
        "Ġt",
        "ru"
      ],
      [
        "Ġ",
        "i"
[...]
