{
  "version": "1.0",
  "truncation": null,
  "padding": null,
  "added_tokens": [
    {
      "id": 0,
      "content": "<pad>",
      "single_word": false,
      "lstrip": false,
      "rstrip": false,
      "normalized": false,
      "special": true
    },
    {
      "id": 1,
      "content": "<sos>",
      "single_word": false,
      "lstrip": false,
      "rstrip": false,
      "normalized": false,
      "special": true
    },
    {
      "id": 2,
      "content": "<eos>",
      "single_word": false,
      "lstrip": false,
      "rstrip": false,
      "normalized": false,
      "special": true
    },
    {
      "id": 3,
      "content": "<unk>",
      "single_word": false,
      "lstrip": false,
      "rstrip": false,
      "normalized": false,
      "special": true
    }
  ],
  "normalizer": null,
  "pre_tokenizer": {
    "type": "ByteLevel",
    "add_prefix_space": false,
    "trim_offsets": true,
    "use_regex": true
  },
  "post_processor": {
    "type": "ByteLevel",
    "add_prefix_space": true,
    "trim_offsets": false,
    "use_regex": true
  },
  "decoder": {
    "type": "ByteLevel",
    "add_prefix_space": true,
    "trim_offsets": true,
    "use_regex": true
  },
  "model": {
    "type": "BPE",
    "dropout": null,
    "unk_token": null,
    "continuing_subword_prefix": null,
    "end_of_word_suffix": null,
    "fuse_unk": false,
    "byte_fallback": false,
    "ignore_merges": false,
    "vocab": {
      "<pad>": 0,
      "<sos>": 1,
      "<eos>": 2,
      "<unk>": 3,
      "!": 4,
      "\"": 5,
      "#": 6,
      "$": 7,
      "%": 8,
      "&": 9,
      "'": 10,
      "(": 11,
      ")": 12,
      "*": 13,
      "+": 14,
      ",": 15,
      "-": 16,
      ".": 17,
      "/": 18,
      "0": 19,
      "1": 20,
      "2": 21,
      "3": 22,
      "4": 23,
      "5": 24,
      "6": 25,
      "7": 26,
      "8": 27,
      "9": 28,
      ":": 29,
      ";": 30,
      "<": 31,
      "=": 32,
      ">": 33,
      "?": 34,
      "@": 35,
      "A": 36,
      "B": 37,
      "C": 38,
      "D": 39,
      "E": 40,
      "F": 41,
      "G": 42,
      "H": 43,
      "I": 44,
      "J": 45,
      "K": 46,
      "L": 47,
      "M": 48,
      "N": 49,
      "O": 50,
      "P": 51,
      "Q": 52,
      "R": 53,
      "S": 54,
      "T": 55,
      "U": 56,
      "V": 57,
      "W": 58,
      "X": 59,
      "Y": 60,
      "Z": 61,
      "[": 62,
      "\\": 63,
      "]": 64,
      "^": 65,
      "_": 66,
      "`": 67,
      "a": 68,
      "b": 69,
      "c": 70,
      "d": 71,
      "e": 72,
      "f": 73,
      "g": 74,
      "h": 75,
      "i": 76,
      "j": 77,
      "k": 78,
      "l": 79,
      "m": 80,
      "n": 81,
      "o": 82,
      "p": 83,
      "q": 84,
      "r": 85,
      "s": 86,
      "t": 87,
      "u": 88,
      "v": 89,
      "w": 90,
      "x": 91,
      "y": 92,
      "z": 93,
      "{": 94,
      "|": 95,
      "}": 96,
      "~": 97,
      "¡": 98,
      "¢": 99,
      "£": 100,
      "¤": 101,
      "¥": 102,
      "¦": 103,
      "§": 104,
      "¨": 105,
      "©": 106,
      "ª": 107,
      "«": 108,
      "¬": 109,
      "®": 110,
      "¯": 111,
      "°": 112,
      "±": 113,
      "²": 114,
      "³": 115,
      "´": 116,
      "µ": 117,
      "¶": 118,
      "·": 119,
      "¸": 120,
      "¹": 121,
      "º": 122,
      "»": 123,
      "¼": 124,
      "½": 125,
      "¾": 126,
      "¿": 127,
      "À": 128,
      "Á": 129,
      "Â": 130,
      "Ã": 131,
      "Ä": 132,
      "Å": 133,
      "Æ": 134,
      "Ç": 135,
      "È": 136,
      "É": 137,
      "Ê": 138,
      "Ë": 139,
      "Ì": 140,
      "Í": 141,
      "Î": 142,
      "Ï": 143,
      "Ð": 144,
      "Ñ": 145,
      "Ò": 146,
      "Ó": 147,
      "Ô": 148,
      "Õ": 149,
      "Ö": 150,
      "×": 151,
      "Ø": 152,
      "Ù": 153,
      "Ú": 154,
      "Û": 155,
      "Ü": 156,
      "Ý": 157,
      "Þ": 158,
      "ß": 159,
      "à": 160,
      "á": 161,
      "â": 162,
      "ã": 163,
      "ä": 164,
      "å": 165,
      "æ": 166,
      "ç": 167,
      "è": 168,
      "é": 169,
      "ê": 170,
      "ë": 171,
      "ì": 172,
      "í": 173,
      "î": 174,
      "ï": 175,
      "ð": 176,
      "ñ": 177,
      "ò": 178,
      "ó": 179,
      "ô": 180,
      "õ": 181,
      "ö": 182,
      "÷": 183,
      "ø": 184,
      "ù": 185,
      "ú": 186,
      "û": 187,
      "ü": 188,
      "ý": 189,
      "þ": 190,
      "ÿ": 191,
      "Ā": 192,
      "ā": 193,
      "Ă": 194,
      "ă": 195,
      "Ą": 196,
      "ą": 197,
      "Ć": 198,
      "ć": 199,
      "Ĉ": 200,
      "ĉ": 201,
      "Ċ": 202,
      "ċ": 203,
      "Č": 204,
      "č": 205,
      "Ď": 206,
      "ď": 207,
      "Đ": 208,
      "đ": 209,
      "Ē": 210,
      "ē": 211,
      "Ĕ": 212,
      "ĕ": 213,
      "Ė": 214,
      "ė": 215,
      "Ę": 216,
      "ę": 217,
      "Ě": 218,
      "ě": 219,
      "Ĝ": 220,
      "ĝ": 221,
      "Ğ": 222,
      "ğ": 223,
      "Ġ": 224,
      "ġ": 225,
      "Ģ": 226,
      "ģ": 227,
      "Ĥ": 228,
      "ĥ": 229,
      "Ħ": 230,
      "ħ": 231,
      "Ĩ": 232,
      "ĩ": 233,
      "Ī": 234,
      "ī": 235,
      "Ĭ": 236,
      "ĭ": 237,
      "Į": 238,
      "į": 239,
      "İ": 240,
      "ı": 241,
      "Ĳ": 242,
      "ĳ": 243,
      "Ĵ": 244,
      "ĵ": 245,
      "Ķ": 246,
      "ķ": 247,
      "ĸ": 248,
      "Ĺ": 249,
      "ĺ": 250,
      "Ļ": 251,
      "ļ": 252,
      "Ľ": 253,
      "ľ": 254,
      "Ŀ": 255,
      "ŀ": 256,
      "Ł": 257,
      "ł": 258,
      "Ń": 259,
      "ĠØ": 260,
      "Ø§": 261,
      "ÛĮ": 262,
      "ÙĪ": 263,
      "Ûģ": 264,
      "Ú©": 265,
      "ÛĴ": 266,
      "Ø±": 267,
      "ĠÙ": 268,
      "ĠÚ©": 269,
      "ĠØ§": 270,
      "ÙĨ": 271,
      "Úº": 272,
      "Ùħ": 273,
      "ĠÛģ": 274,
      "Øª": 275,
      "ÙĦ": 276,
      "Ø³": 277,
      "Ú¾": 278,
      "ÛĮÚº": 279,
      "ĠÙħ": 280,
      "ĠØ¨": 281,
      "ĠØ³": 282,
      "ÙĪØ±": 283,
      "ĠØª": 284,
      "ĠÙĨ": 285,
      "Ú¯": 286,
      "Ø¯": 287,
      "ĠØ¬": 288,
      "ÛĶ": 289,
      "ĠÛĶ": 290,
      "Ø¨": 291,
      "ĠÙ¾": 292,
      "Ø¦": 293,
      "ĠØ§ÙĪØ±": 294,
      "ĠÙĪ": 295,
      "ĠØ¯": 296,
      "ĠÚ©ÛĴ": 297,
      "ÙĪÚº": 298,
      "ĠÚ©ÛĮ": 299,
      "ĠØ³ÛĴ": 300,
      "ĠØ§Ø³": 301,
      "Ø§ÙĨ": 302,
      "ĠÙĦ": 303,
      "ĠÚ©Ø±": 304,
      "ĠÙħÛĮÚº": 305,
      "ĠÛģÛĴ": 306,
      "ĠÚ©Ûģ": 307,
      "ĠÚ¯": 308,
      "ÛĮØ§": 309,
      "ĠØ§ÙĨ": 310,
      "ĠØ±": 311,
      "ĠÚ©ÙĪ": 312,
      "Ù¾": 313,
      "ÚĨ": 314,
      "Ø¦ÛĴ": 315,
      "Ø§Ø±": 316,
      "Ø¹": 317,
      "ĠÙĨÛĴ": 318,
      "ĠÛģÙĪ": 319,
      "ĠØªÙħ": 320,
      "ĠØ¢": 321,
      "Ø´": 322,
      "ĠÙĨÛģ": 323,
      "ĠÙĪÛģ": 324,
      "Ø§ÙĦ": 325,
      "Ø¬": 326,
      "ÙĨÛĴ": 327,
      "ĠÛĮ": 328,
      "Ø§Øª": 329,
      "ÙĤ": 330,
      "ĠØ®": 331,
      "ĠÚ©Ø§": 332,
      "Ùģ": 333,
      "Ú¾ÛĮ": 334,
      "Ø²": 335,
      "ØŃ": 336,
      "ĠØªÙĪ": 337,
      "ØªÛĴ": 338,
      "ĠØ¬ÙĪ": 339,
      "ĠÛģÙħ": 340,
      "ĠÛģÛĮÚº": 341,
      "ĠÙ¾Ø±": 342,
      "ØªØ§": 343,
      "ĠØ¹": 344,
      "ÛĮÚ©": 345,
      "Úĳ": 346,
      "Ø§ÙĪØ±": 347,
      "Ú¾Ø§": 348,
      "ĠÚĨ": 349,
      "ĠØĮ": 350,
      "Ø¦ÛĮ": 351,
      "Ø§Ûģ": 352,
      "ĠÙģ": 353,
      "Ø®": 354,
      "ĠØ¨Ú¾ÛĮ": 355,
      "ĠØ§Ù¾": 356,
      "ĠØŃ": 357,
      "Ø¯Ø§": 358,
      "ÙĦØ§": 359,
      "ÙĪÙĨ": 360,
      "ĠÙĤ": 361,
      "ÛĮØ±": 362,
      "ĠÛĮÛģ": 363,
      "Ú©Ûģ": 364,
      "ĠØ´": 365,
      "ĠÙĨÛģÛĮÚº": 366,
      "ĠØ§ÙĦ": 367,
      "ÙĨØ§": 368,
      "Ú¾ÛĴ": 369,
      "Ù¹": 370,
      "ÙĦÛģ": 371,
      "Ø§Ø³": 372,
      "ĠÙĦØ¦ÛĴ": 373,
      "ĠÙĪØ§ÙĦ": 374,
      "ĠÚ©ÛĮØ§": 375,
      "Ú¯Ø±": 376,
      "ĠÙĦÙĪ": 377,
      "ÙħØ§ÙĨ": 378,
      "ÙĦÛĮ": 379,
      "ĠØ·": 380,
      "Ú¾Ø±": 381,
      "Øµ": 382,
      "ĠØªÙħÛģ": 383,
      "ĠØ±Ûģ": 384,
      "ĠÙģØ±": 385,
      "ĠØ¨ÛĮ": 386,
      "ÙĨÛĮ": 387,
      "ĠÙĦÙĪÚ¯": 388,
      "ĠØ¬Ø§": 389,
      "ĠØ²": 390,
      "ĠØ§Ù¾ÙĨÛĴ": 391,
      "Ø·": 392,
      "ĠØ·Ø±": 393,
      "Ø§Ø±ÛĴ": 394,
      "ĠØ§ÛĮ": 395,
      "Ø³ÛĮ": 396,
      "ĠØ¯ÛĮ": 397,
      "ĠØ®Ø¯Ø§": 398,
      "Ø§Ø¨": 399,
      "ĠÚ©ÛģØ§": 400,
      "Ø§Ùħ": 401,
      "ĠÛģÛĮ": 402,
      "ĠØ§ÙĦÙĦÛģ": 403,
      "ĠÚ¯ÛĴ": 404,
      "ĠØ¬Ø³": 405,
      "Ø³ÙĪ": 406,
      "ÙĨØ¯": 407,
      "Ú©Ø±": 408,
      "Ø¶": 409,
      "ĠØ³Ø¨": 410,
      "ĠØ§ÙĨÛģ": 411,
      "ÙħÛĮ": 412,
      "ÙħØ§": 413,
      "ĠÚ¯Ø§": 414,
      "ĠÛģÙĪÚº": 415,
      "ĠØ¨Ø§": 416,
      "ĠØ¬Ø§ÙĨ": 417,
      "Ú¾ÙĪ": 418,
      "ĠØ¢Ù¾": 419,
      "ĠØ®ÙĪ": 420,
      "ĠØ§ÛĮÚ©": 421,
      "Ø±ÛĮ": 422,
      "ĠÙħÛĮØ±": 423,
      "ĠØªÚ¾Ø§": 424,
      "ĠØµ": 425,
      "ĠÚ©Ø±ØªÛĴ": 426,
      "ĠØ¯ÙĪ": 427,
      "Ø§ØªÚ¾": 428,
      "ĠÙ¾Ûģ": 429,
      "ĠØ±ÙĪ": 430,
      "ĠØªÚ¾ÛĴ": 431,
      "ĠØ¬Ø¨": 432,
      "Ø¯Ûģ": 433,
      "ĠÚ©ÙĪØ¦ÛĮ": 434,
      "Ø´Ú©": 435,
      "Ø§Ø±ÛĮ": 436,
      "Ġ!": 437,
      "ØªÛĮ": 438,
      "ĠØŁ": 439,
      "ĠØ§Ø³ÛĴ": 440,
      "ÙĪØ§": 441,
      "ĠØ¯ÙĨ": 442,
      "ĠÙ¾ÛĮ": 443,
      "ÚĪ": 444,
      "ÚĨÚ¾": 445,
      "Ú©Ú¾": 446,
      "ÙħØª": 447,
      "ÙĪÙĨÚ©Ûģ": 448,
      "Ø¦ÛĮÚº": 449,
      "ĠØ¨Ûģ": 450,
      "Ø±Ø§": 451,
      "ĠØ¨Úĳ": 452,
      "ĠØ¯ÛĮÚ©": 453,
      "Ġ:": 454,
      "·²": 455,
      "ï·²": 456,
      "ĠØ¨Ø§Øª": 457,
      "ĠØ§Ú¯Ø±": 458,
      "ĠØ§ï·²": 459,
      "ÙĦØ§Ùħ": 460,
      "ĠØ³Ø§ØªÚ¾": 461,
      "ĠÙģØ±ÙħØ§": 462,
      "ĠÙ¾Ú¾Ø±": 463,
      "ĠØ¬ÙĨ": 464,
      "ĠØ¯ÛĮØ§": 465,
      "ĠØ·Ø±Ùģ": 466,
      "ĠÙħØ¬": 467,
      "ĠÙ¾Ø§Ø³": 468,
      "ĠÙĪØ§ÙĦØ§": 469,
      "ĠØ§ÛĮÙħØ§ÙĨ": 470,
      "ĠÚĪ": 471,
      "ĠØ§Ù¾ÙĨÛĮ": 472,
      "ÙĦÛĴ": 473,
      "ĠØªÙħÛģØ§Ø±ÛĴ": 474,
      "ĠØ§ÙĨÛģÛĮÚº": 475,
      "Ø¯ÛĮ": 476,
      "ÛĮØ²": 477,
      "ĠÚ©ÚĨÚ¾": 478,
      "Ø§Úº": 479,
      "ĠÙĦÙĪÚ¯ÙĪÚº": 480,
      "Ø³ÙĪØ¹": 481,
      "Ø¨Ø±": 482,
      "ĠØ¨ÛĮØ´Ú©": 483,
      "ĠØº": 484,
      "ĠØ¨ÛģØª": 485,
      "ĠÛĮØ§": 486,
      "ÙģØ±": 487,
      "ĠÚ©Ø±ÙĪ": 488,
      "ĠØ¯ÛĴ": 489,
      "Ú©ÛĮ": 490,
      "Ø°": 491,
      "ÙĪÙħ": 492,
      "Ú¯Ø§": 493,
      "ÙĶ": 494,
      "ĠÛģØ±": 495,
      "ĠØ±Ø¨": 496,
      "ĠØ¹ÙĦÛĮ": 497,
      "ÙĤÛĮ": 498,
      "ĠØ§ÛĴ": 499,
      "Ø§ØªØ§": 500,
      "ĠÚ©Ø±ÙĨÛĴ": 501,
      "Ø§ÙĨÛĮ": 502,
      "ĠÙ¾Ø§": 503,
      "ĠØ·Ø±ØŃ": 504,
      "Ø¨ÛĮ": 505,
      "ĠØªÚ©": 506,
      "Ø³Ø§": 507,
      "ĠØ¹ÙĦÛĮÛģ": 508,
      "Ù¾Ø³": 509,
      "ĠÙħØ¹": 510,
      "Ø§ÙĨÛĴ": 511,
      "ĠØ¨ÙĦ": 512,
      "ĠØªØ§": 513,
      "ÙĤØª": 514,
      "ĠØ¬Ø§Ø¦ÛĴ": 515,
      "ÛĮØª": 516,
      "ĠØªÙħÛģÛĮÚº": 517,
      "ĠØ¯Ø±": 518,
      "Ø§Ø¯": 519,
      "ĠÚ©Ú¾": 520,
      "ĠÙĦÛĴ": 521,
      "ĠÙĪØ§ÙĦÛĴ": 522,
      "ĠØ±ÛģÛĴ": 523,
      "ĠØ§Ø³ÛĮ": 524,
      "ĠØ³ÙĪ": 525,
      "ĠÚĨØ§Ûģ": 526,
      "ĠÚ¯ÛĮØ§": 527,
      "Ø®Øª": 528,
      "ĠÙħÛĮØ±ÛĴ": 529,
      "ĠÛĮØ³ÙĪØ¹": 530,
      "ÛģØ±": 531,
      "Ø«": 532,
      "Ú¯ÛĮ": 533,
      "ĠÙĦØ§": 534,
      "ĠÙħØ±": 535,
      "ĠØ±Ú©Ú¾": 536,
      "ĠÚ©Ø±ØªØ§": 537,
      "ÙħÛĮÙĨ": 538,
      "ÙĪÙĦ": 539,
      "ÙĪÙĨØ¯": 540,
      "ĠØ§Ø¨": 541,
      "Ø¢": 542,
      "Ø§ØªÛĴ": 543,
      "ĠØªØ§Ú©Ûģ": 544,
      "ÙĦÙħ": 545,
      "ĠØŃÚ©": 546,
      "ĠØ¨Ø±": 547,
      "ĠÙ¹": 548,
      "Ú©ÛĴ": 549,
      "ĠØ¨Ø¹": 550,
      "ĠØ³ÙĨ": 551,
      "Øº": 552,
      "Ú¯ÛĴ": 553,
      "ĠØ¯ÛĮÚ©Ú¾": 554,
      "ĠÙħÙĪ": 555,
      "ÙĪÛģ": 556,
      "ĠÛģÙĪØ¦ÛĴ": 557,
      "ĠØ¨ÙĦÚ©Ûģ": 558,
      "Ø®Øµ": 559,
      "ĠØ¸": 560,
      "ĠÙħØŃ": 561,
      "ĠÚ©Ø³ÛĮ": 562,
      "ĠØ§ÙĨÛģÙĪÚº": 563,
      "ĠÙĨØ§": 564,
      "ĠØ¢Ø³": 565,
      "ĠØ¨Ø¯": 566,
      "ĠÚ©Ø§Ùħ": 567,
      "ĠØ®Ø¯Ø§ÙĪÙĨØ¯": 568,
      "ĠÙħØ¬Ú¾ÛĴ": 569,
      "Ø³ÙĦØ§Ùħ": 570,
      "Ù¾Ú¾Ø±": 571,
      "ĠÛĮØ¹": 572,
      "ĠØ§ÙĦØ³ÙĦØ§Ùħ": 573,
      "ĠÚ©ÛĮÙĪÙĨÚ©Ûģ": 574,
      "ĠØ¹Ø°": 575,
      "ĠØ§Ù¹": 576,
      "ĠØ¹Ø°Ø§Ø¨": 577,
      "ĠØ²ÙħÛĮÙĨ": 578,
      "ĠØ³Ø±": 579,
      "Ø§ÛģÛĮ": 580,
      "ĠÚĨÛĮØ²": 581,
      "Ù°": 582,
      "ĠÙħÙĤ": 583,
      "ĠØ¨ÛĴ": 584,
      "ĠØ´Ø®Øµ": 585,
      "ĠØ¨ÙĨØ§": 586,
      "ĠØ¨ÛĮÙ¹": 587,
      "ÙĨÚĨ": 588,
      "Ø§Ø±Ø§": 589,
      "Ø³Øª": 590,
      "Ø¬Ø§": 591,
      "ĠÙħÚ¯Ø±": 592,
      "ĠØªÛĮØ±": 593,
      "Ø¤": 594,
      "ĠØ¢Ø³ÙħØ§ÙĨ": 595,
      "ĠÚ©Ø±ÛĮÚº": 596,
      "ÛĮÚ©ÙĨ": 597,
      "ĠØ¢Ø¯": 598,
      "ĠÛģÙħØ§Ø±ÛĴ": 599,
      "Ú©Ú¾Ø§": 600,
      "ĠÙħØ³ÛĮ": 601,
      "ÙĪØ¯": 602,
      "Ø¹Øª": 603,
      "ĠÙħØ³ÛĮØŃ": 604,
      "ĠÙĪÙĤØª": 605,
      "ÚĳÛĴ": 606,
      "ĠØŃÙĤ": 607,
      "Ø¨Øª": 608,
      "ĠØ¨Ø§Ù¾": 609,
      "ĠÙĨÚ©": 610,
      "Ø³ÛĴ": 611,
      "ĠØ°": 612,
      "Ø¸": 613,
      "ÛĮÛģ": 614,
      "ĠØ¯ÙĦ": 615,
      "Ú©ÛĮÙĪÙĨÚ©Ûģ": 616,
      "ĠÛĮØ¹ÙĨÛĮ": 617,
      "Ø¯Ø§Ø±": 618,
      "Ø±Øª": 619,
      "ĠÙ¾Ø³": 620,
      "ĠÙ¾ÛģÙĦÛĴ": 621,
      "ĠÙĪØ§ÙĦÙĪÚº": 622,
      "ĠØ¯Ø§": 623,
      "ĠÚ©Ø±ÛĴ": 624,
      "ĠØ±Ø³ÙĪ": 625,
      "ĠÚ¯Ø¦ÛĴ": 626,
      "ĠØ®ÙĪØ´": 627,
      "ĠØ¨Ú¾Ø§": 628,
      "Ø¬Ú¾": 629,
      "ĠØŃÚ©Ùħ": 630,
      "ĠÙħÙĨ": 631,
      "Ø±ÛĴ": 632,
      "ĠÙĤÙĪÙħ": 633,
      "ĠØ²ÙĨØ¯": 634,
      "Ø´Øª": 635,
      "ĠØ±Ø³ÙĪÙĦ": 636,
      "ÛĮØ¯": 637,
      "ĠØ³Ú©": 638,
      "ĠÙ¾ÛĮØ¯Ø§": 639,
      "ĠÙ¾ÛģÙĨÚĨ": 640,
      "Ø¬Ø¨": 641,
      "ĠØ¬Ø§Ø¦ÛĮÚº": 642,
      "Ø§Ø¦": 643,
      "ĠØ³ÙĪØ§": 644,
      "ĠØ±ÙĪØŃ": 645,
      "ÙĪØ±Øª": 646,
      "Ø§ÙĨÛģ": 647,
      "Ø§Ú¯Ø±": 648,
      "Ø§ÛģØ±": 649,
      "ĠÚĪØ§ÙĦ": 650,
      "ĠØªÚ¾ÛĮ": 651,
      "ĠÚ¯ÙĨ": 652,
      "ĠÛģÙĪØ§": 653,
      "ÛĮØ§Úº": 654,
      "ĠØ¯ÙĪØ³": 655,
      "ĠÙ¹Ú¾": 656,
      "ĠØ¬ÛĮ": 657,
      "ĠÚ¯ÙĪ": 658,
      "ĠÚĨÚ¾ÙĪ": 659,
      "ĠÙĤØ±": 660,
      "ÚĳØ§": 661,
      "ĠØŃØ§ÙĦ": 662,
      "ĠØ¨Ú¾Ø§Ø¦ÛĮ": 663,
      "ĠÙħÛĮØ±ÛĮ": 664,
      "ĠØ¢Ø¯ÙħÛĮ": 665,
      "ÙĪÛĮ": 666,
      "Ø§ÛĴ": 667,
      "Ú©Ø§Ø±": 668,
      "ĠØ¯ÛĮÚº": 669,
      "ĠÙĪÛģÛĮ": 670,
      "ĠÙĦÛĮØ§": 671,
      "ĠÙĨØ§Ùħ": 672,
      "ĠØ¬Ûģ": 673,
      "ĠÚ¯Ú¾Ø±": 674,
      "ĠÙĪØ§": 675,
      "ĠØªÙħÛģØ§Ø±ÛĮ": 676,
      "Ø¯ÙĪÚº": 677,
      "Ø§Ø³Øª": 678,
      "Ú©Ø§": 679,
      "ĠØ¨ÚĳÛĮ": 680,
      "ĠØ¨Ø®": 681,
      "ĠØ¢Ø¦ÛĴ": 682,
      "ĠØ´Ø±": 683,
      "ĠØ§Øª": 684,
      "ĠÛģÙĪÚ¯Ø§": 685,
      "ÛĮØ§Ø±": 686,
      "ÛĮØ´": 687,
      "ĠØ±ØŃ": 688,
      "ĠØ±Ø§Ûģ": 689,
      "ĠØ®ÙĪØ¨": 690,
      "ĠØ¨Ø¹Ø¯": 691,
      "ĠØ¨ÚĳØ§": 692,
      "ĠÙĨØ´": 693,
      "ĠØ±ÛģØ§": 694,
      "ĠØ§ÛĮØ³Ø§": 695,
      "ĠØ¬Ú¾": 696,
      "ĠØªØ¹": 697,
      "ĠØ¯ÛĮØªØ§": 698,
      "Ø¨Ø§ÙĨ": 699,
      "ĠÚĪØ±": 700,
      "ĠØ¨ÚĨ": 701,
      "ĠØ³Ùħ": 702,
      "ĠÚ©ÛģØªØ§": 703,
      "ĠØ¨Ø®Ø´": 704,
      "ĠØ¨Ø§Ø¯": 705,
      "Ø±Ùģ": 706,
      "ĠÙĦÛĮ": 707,
      "Ø·Ø§": 708,
      "ĠÚ¯ÙĨØ§Ûģ": 709,
      "ĠØ¶": 710,
      "ØªØ§Ø¨": 711,
      "ØµÛĮ": 712,
      "ĠÙħØ§ÙĨ": 713,
      "ÙĦÙĪ": 714,
      "Ø³Ùħ": 715,
      "ĠÛĮÙĤÛĮ": 716,
      "ĠÙģØ±ÙħØ§ÛĮØ§": 717,
      "Ø·Ø±": 718,
      "ÙĪØ¯ÛĮ": 719,
      "ĠØ²ÛĮØ§": 720,
      "ĠÙĦÚ¯ÛĴ": 721,
      "Ø§Ùģ": 722,
      "ĠÚ©ØªØ§Ø¨": 723,
      "ĠÚ¯ÛĮ": 724,
      "ĠØ¯ÙĨÛĮØ§": 725,
      "ĠØ¹Ùħ": 726,
      "ĠÙħÛĮØ±Ø§": 727,
      "ĠÙ¾ÙĪ": 728,
      "Ø§ÙĨØ§": 729,
      "Ø¬ÙĪ": 730,
      "ĠÙĨÛĮÚ©": 731,
      "ĠØ¬ÙĦ": 732,
      "ĠÙĤØ¯": 733,
      "ĠØ³ÚĨ": 734,
      "ĠØ¨Ø§ØªÛĮÚº": 735,
      "ĠÙħØ¯": 736,
      "ĠØ¯ÙĪÙĨ": 737,
      "ĠÙ¾ÙĪØ±": 738,
      "ĠØ¨ÙĨ": 739,
      "ĠÚ©ÛģØªÛĴ": 740,
      "ĠØ¬ÙĨÛģ": 741,
      "ÙĦÛĮÙħ": 742,
      "ĠØ¢ÛĮØ§": 743,
      "ĠÛģÙħØ§Ø±ÛĮ": 744,
      "ĠØŃØ§": 745,
      "Ø§Ø²": 746,
      "ĠÙħØ§ÙĦ": 747,
      "ĠØµÙĦÛĮ": 748,
      "ĠØ¨Ø§ØªÙĪÚº": 749,
      "ÙĪØª": 750,
      "ĠØ¨Ø§Ø¯Ø´": 751,
      "ÙħØ¹": 752,
      "ÙĦÛĮÚ©ÙĨ": 753,
      "ĠØ²ÛĮØ§Ø¯Ûģ": 754,
      "Ø±ÙĪØ±": 755,
      "ĠÚ¯Ø¦ÛĮ": 756,
      "ĠØ¬Ø§ÙĨØªÛĴ": 757,
      "ĠØ¬Ø³ÛĴ": 758,
      "ĠÙħØ¬Ú¾": 759,
      "ĠÚ¯Ø±": 760,
      "ÙħÚ¯Ø±": 761,
      "ĠØ³Ø¨Ø¨": 762,
      "ĠØ¯ÙĪÙĨÙĪÚº": 763,
      "ĠØ®ÙĪØ¯": 764,
      "ĠØ±Ú©": 765,
      "ĠÙĪØ³": 766,
      "ĠØ§Ø¹": 767,
      "ĠØ¨Ø§Ø±": 768,
      "Ú¯Ø²": 769,
      "ĠØ¬Ø§ØªØ§": 770,
      "ĠØ±Ø§Ø³Øª": 771,
      "Ø¨Ø§Ø¯": 772,
      "ÚĨÚ¾ÛĴ": 773,
      "ĠÚ©Ø§ÙģØ±": 774,
      "ĠÚĨÙĦ": 775,
      "ÛĮÙĨ": 776,
      "ĠÙħÙĦ": 777,
      "ĠØ¬ÙĪØ§Ø¨": 778,
      "ĠÙ¾Ø§Ú©": 779,
      "Ø¨Ûģ": 780,
      "ĠÙĤØ¨": 781,
      "ÙĪØ§Ø²": 782,
      "ĠØ§ÛĮØ³ÛĴ": 783,
      "ĠØ¨Ø¹Ø¶": 784,
      "ĠØ§Ù¹Ú¾Ø§": 785,
      "ĠÛģØ§ØªÚ¾": 786,
      "ĠØ¯ÙĪØ³Ø±ÛĴ": 787,
      "ĠØ§ÙĪ": 788,
      "ÙħØ§ÙĦ": 789,
      "ĠÛģÙĪÚ¯": 790,
      "ĠÙ¾Úĳ": 791,
      "ĠÙĦÚ¯Ø§": 792,
      "Ø¬Ø¦ÛĴ": 793,
      "ĠØ¸Ø§ÛģØ±": 794,
      "ÙĪØŃ": 795,
      "ÙħØ±": 796,
      "ĠÛģÙĪØ¦ÛĮ": 797,
      "ĠØ´Ú©": 798,
      "ĠØ´Ø§Ú¯Ø±": 799,
      "ĠÛģØ¯Ø§": 800,
      "ĠÚ©Ø±Ú©ÛĴ": 801,
      "ĠÙĦØ§Ø¦ÛĴ": 802,
      "ĠÛģØ¯Ø§ÛĮØª": 803,
      "ĠÙĪØ¢": 804,
      "ĠÛĮÛģÙĪØ¯ÛĮ": 805,
      "ĠÚĨØ§ÛģØªØ§": 806,
      "ĠÙĪØ³ÙĦÙħ": 807,
      "ĠÙĪØ¢ÙĦÛģ": 808,
      "ĠØ¯Ø¹": 809,
      "ØŃØª": 810,
      "ĠØ§Ù¹Ú¾": 811,
      "ĠØ²ÙĨØ¯Ú¯ÛĮ": 812,
      "ĠÚ©ÛģÙĨÛĴ": 813,
      "ĠØªÛĮØ±ÛĴ": 814,
      "ĠØ¶Ø±ÙĪØ±": 815,
      "ĠÛģÙħÛĮÚº": 816,
      "Ø®ÙĦ": 817,
      "ØªÙħ": 818,
      "Ú©ÛĮØ§": 819,
      "Ø¯Ø³": 820,
      "ĠØ§ÙĨØ¯": 821,
      "Ø¨ÛĮØ´Ú©": 822,
      "ĠÚ©ÙĦØ§Ùħ": 823,
      "Ú¯Ø§Ø±": 824,
      "ĠØ§Ø®Øª": 825,
      "ÙĪØ³": 826,
      "ĠØ¨ÙĨØ¯": 827,
      "ĠÛģÙĪØªØ§": 828,
      "ĠÚ©Ø±ÙĨØ§": 829,
      "ĠØ¹ÙĪØ±Øª": 830,
      "ĠØ¨Ú¾ÛĮØ¬": 831,
      "ĠÚ©ÛģÛĮÚº": 832,
      "ĠÙĦÛĮÚ©ÙĨ": 833,
      "ĠÛģÙĪÙĨÛĴ": 834,
      "ĠØ¬Ø§ÙĨØªØ§": 835,
      "ĠØ±ÛģÙĪ": 836,
      "Ú¯Ûģ": 837,
      "ĠØ±Ú©Ú¾ØªÛĴ": 838,
      "ĠÚ©Ø¦ÛĴ": 839,
      "ĠÛģÙĪÚ©Ø±": 840,
      "ĠØ¢Ø®": 841,
      "ĠÛĮÛģÛĮ": 842,
      "Ù¹Ø§": 843,
      "ĠØ¢Ú¯": 844,
      "Ø±ÛĮØ¨": 845,
      "ĠÙ¾Ú¾": 846,
      "ĠØ¯ÛĮØªÛĴ": 847,
      "ĠÚĨÚ¾ÙĪÚĳ": 848,
      "Ø§ØªÛĮ": 849,
      "ĠØ®Ø¨Ø±": 850,
      "ĠØ¯Ø§Ø®ÙĦ": 851,
      "ĠÚ©Ú¾Ø§": 852,
      "ĠÙģØ¶": 853,
      "ĠØ¨Ø§Ø¹": 854,
      "ĠÙħØ¯Ø¯": 855,
      "ĠÚ¯Ú¾": 856,
      "ĠÙ¾Ú©": 857,
      "ĠÙĪÛģØ§Úº": 858,
      "ĠØªÙħÛģØ§Ø±Ø§": 859,
      "ÛĮØ¨": 860,
      "ĠÙĤÛĮØ§": 861,
      "Ø³Ø§ÙĨ": 862,
      "Ø§ÙĦÙħ": 863,
      "Ø¬Ú¾ÛĴ": 864,
      "ĠÙĪØ¹": 865,
      "ĠÙ¾ÛĮÚĨÚ¾ÛĴ": 866,
      "Ø±Ø±": 867,
      "ĠØ¨Ú¾": 868,
      "ĠØ§Ù¾ÙĨØ§": 869,
      "ĠØ¯ÛĮÚ©Ú¾Ø§": 870,
      "ĠØ³Ø§Ùħ": 871,
      "ĠÙħØŃØ¨Øª": 872,
      "ĠØ¨Ø§Ø¹Ø«": 873,
      "ÙģØª": 874,
      "ĠØ¹Ø·Ø§": 875,
      "ĠØ¨Ú¾ÛĮØ¬Ø§": 876,
      "ÚĨÛģ": 877,
      "ĠØ®Ø§": 878,
      "ĠÛģÙħÛĮØ´": 879,
      "ĠÙħØ´": 880,
      "ĠØ¨ÙĪ": 881,
      "ĠÚ©Ø³": 882,
      "ĠÙħÙĪØ³": 883,
      "ĠØ³Ø±Ø¯Ø§Ø±": 884,
      "ĠÛģÙħÛĮØ´Ûģ": 885,
      "ĠÛģÙĦØ§": 886,
      "Ù¾Ø§": 887,
      "ĠÚ©ÙģØ±": 888,
      "Ø²Ø§": 889,
      "ĠÙģÛĮ": 890,
      "ĠÙģØ±ÙħØ§ÙĨ": 891,
      "ĠÙĨØµÛĮ": 892,
      "ĠØ§Ø¹ÙħØ§ÙĦ": 893,
      "ĠØ¯Ø¹Ø§": 894,
      "ĠÛĮØ§Ø¯": 895,
      "ĠÙĨÚ©ÙĦ": 896,
      "ÙĨÛģ": 897,
      "ØªÙĪ": 898,
      "Ø§Ø¨Øª": 899,
      "Ø±Ø§Ø¦ÛĮ": 900,
      "ĠØ§ÚĨ": 901,
      "ĠØµØ±Ùģ": 902,
      "ĠØ¹ÙħÙĦ": 903,
      "Ø¨Ø§Ø¯Øª": 904,
      "ÛĮØ³ÙĪØ¹": 905,
      "ĠÙħÙĤØ±Ø±": 906,
      "ĠØ¨ÙĦØ§": 907,
      "Ø²Ø®": 908,
      "ĠØ¹Ø¨Ø§Ø¯Øª": 909,
      "ÚĳÛĮ": 910,
      "ĠÙģØ±Ùħ": 911,
      "Ø¬Ûģ": 912,
      "ĠØ¨ÛģØªØ±": 913,
      "ĠØ´ÛģØ±": 914,
      "ĠÛĮÛģØ§Úº": 915,
      "ĠØ¯ÛĮÙĨÛĴ": 916,
      "ĠÛĮÙĤÛĮÙĨØ§": 917,
      "ĠÚ©ÛĮÙĪÚº": 918,
      "ÙĤÙĪ": 919,
      "ĠØ¯ÙĪØ²Ø®": 920,
      "ĠØ§Ø®ØªÛĮØ§Ø±": 921,
      "ĠÙĨØ¨ÛĮ": 922,
      "ĠÚ©ÛģÛģ": 923,
      "ĠØ¬Ø§Ø¤": 924,
      "Ø¢ÙĨ": 925,
      "ĠÙĪØ¹Ø¯Ûģ": 926,
      "ÛģÙĦ": 927,
      "ĠØ¬ÙħØ¹": 928,
      "ĠÚ©ÙĪÙĨ": 929,
      "ĠØªÚ¾": 930,
      "Ø±ÛĮØ¹Øª": 931,
      "ĠÙĤØ§Ø¦": 932,
      "ĠÙĤÛĮØ§ÙħØª": 933,
      "ĠÛģÙĦØ§Ú©": 934,
      "ĠÙħÙĨØ§": 935,
      "Ø²Ø±": 936,
      "ĠÙĨÚ©Ø§ÙĦ": 937,
      "Ø³ÙĦ": 938,
      "ĠØ´Ø±ÛĮØ¹Øª": 939,
      "ĠØ¯ÛĮØ¬Ø¦ÛĴ": 940,
      "ĠÙĤØ³Ùħ": 941,
      "ÙĪØ´": 942,
      "ÙģØ§": 943,
      "ĠØ³ÙĨØ§": 944,
      "Ø¨Ø§Ø±": 945,
      "ĠÛģÙĪØªÛĴ": 946,
      "ĠØªÙħØ§Ùħ": 947,
      "ĠØ¹ÙĦÙħ": 948,
      "ØµÙĦ": 949,
      "ĠÙĨØµÛĮØŃØª": 950,
      "ĠØ¨Ú¾Ø±": 951,
      "ĠØ¬Ú¯Ûģ": 952,
      "ĠØ³ÙħØ¬Ú¾": 953,
      "ÛĮÙĦ": 954,
      "ĠØ¹Ø²": 955,
      "ĠÙģØ¶ÙĦ": 956,
      "ĠØ³Ø§ÙħÙĨÛĴ": 957,
      "ĠÙĤØ§Ø¦Ùħ": 958,
      "ÙĨÙĪÚº": 959,
      "ĠÚĨÚ¾": 960,
      "ÙģÙĤ": 961,
      "ĠØ¬Ø§ÙĨÛĴ": 962,
      "ĠØªØ¬Ú¾ÛĴ": 963,
      "ĠÙ¾Ú¾ÛĮ": 964,
      "ÙĤØ¹": 965,
      "ÙħÛĮÚº": 966,
      "Ø¨Ø§Ø²": 967,
      "ĠÚ¯ÙħØ±": 968,
      "Ø²Ø¯": 969,
      "ĠØ²ÙĨØ¯Ûģ": 970,
      "ĠÙĤØ±Ø¢ÙĨ": 971,
      "ĠÙģØ±ÙħØ§ØªØ§": 972,
      "ĠÚ©ÙĨ": 973,
      "ĠØ±ÙĪØ²": 974,
      "ĠØ¯ÛĮÚ©Ú¾ÙĪ": 975,
      "ĠÙĨØ´Ø§ÙĨ": 976,
      "ĠØ¢Ú©Ø±": 977,
      "ĠØ¬Ø§ØªÛĴ": 978,
      "ĠØ®ÙĪØ§Ûģ": 979,
      "ĠÛģØ±Ú¯Ø²": 980,
      "ĠÙĤØ¨ÙĪÙĦ": 981,
      "ĠØ³Ø®Øª": 982,
      "ĠÙ¾Ø§ÙĨÛĮ": 983,
      "ĠØ±Ø§Ø³ØªØ¨Ø§Ø²": 984,
      "ÙĦÙĪÙħ": 985,
      "ĠÙħÙĦØ§": 986,
      "ĠØ±Ø§Øª": 987,
      "Ø¬Ø§Øª": 988,
      "ĠÙĪØ§ÙĦÛĮ": 989,
      "Ø¨ÙĪØ¯": 990,
      "Ù¹ÛĮ": 991,
      "ĠØ¢ÙĨ": 992,
      "Ø®Ø¨": 993,
      "Ù¾Ø±": 994,
      "ĠØ±ÛģÛĮÚº": 995,
      "ĠØ¯Ø±ÙħÛĮ": 996,
      "ĠØ¢Ø®Ø±Øª": 997,
      "ĠÚ©Ø¨": 998,
      "ĠØ§ÙĨØ¬": 999,
      "ĠØ±Ú©Ú¾Ø§": 1000,
      "ĠÙĪØ§Ø³": 1001,
      "ÛĮØ§Ûģ": 1002,
      "ĠÙħØ¹Ø¨ÙĪØ¯": 1003,
      "ĠØªØ±": 1004,
      "ĠÙħØ¹ÙĦÙĪÙħ": 1005,
      "ĠÚ¯ÙĪØ§ÛģÛĮ": 1006,
      "ĠÙĪØ§Ø³Ø·": 1007,
      "ØªÙĦ": 1008,
      "ĠÙģØ±Ø´Øª": 1009,
      "ĠØªÛĮØ±ÛĮ": 1010,
      "ĠÙĦÚ¯": 1011,
      "Ø§Ø±ÙĪÚº": 1012,
      "ĠÚĨÙĦØ§": 1013,
      "ÙĪÙĦØ³": 1014,
      "ĠØ¨Ø§Ø¯Ø´Ø§ÛģÛĮ": 1015,
      "ĠØ¯Ú©Ú¾Ø§": 1016,
      "ĠÙ¹Ú¾ÛģØ±": 1017,
      "ĠØ¨ÛĮØ§ÙĨ": 1018,
      "ĠØ¸Ø§ÙĦÙħ": 1019,
      "ĠØ¯Ø±ÙħÛĮØ§ÙĨ": 1020,
      "ĠØ¢Ø²": 1021,
      "ĠÙĪØ§Ø³Ø·ÛĴ": 1022,
      "ĠØ¢ÛĮØª": 1023,
      "Ø·Ø±Ø³": 1024,
      "Ø®Ø¨Ø±ÛĮ": 1025,
      "ĠØ¬Ú¾ÙĪ": 1026,
      "ĠÚ©Ø±ÙĪÚº": 1027,
      "Ø²ÙĦ": 1028,
      "ĠØŃÚ©ÙħØª": 1029,
      "ĠØ®ÙĪØ´Ø®Ø¨Ø±ÛĮ": 1030,
      "ĠÙ¾Ú©Úĳ": 1031,
      "ĠØ§Ø¨Ø±": 1032,
      "ĠÙĦÛĮÚº": 1033,
      "ĠØ§ÙĨØ³Ø§ÙĨ": 1034,
      "Ø´ÛĮ": 1035,
      "ĠÙĤØªÙĦ": 1036,
      "ĠØ§ÛĮØ³ÛĮ": 1037,
      "ĠØ±ØŃÙħØª": 1038,
      "ĠØ¬Ú¾Ù¹": 1039,
      "ĠØ§Ú©": 1040,
      "ĠØ§ØŃ": 1041,
      "ĠØ¬Ø§ØªÛĮ": 1042,
      "ĠØ´Ø§Ú¯Ø±Ø¯ÙĪÚº": 1043,
      "ØªÙĪÚº": 1044,
      "ĠØªØ¬Ú¾": 1045,
      "ĠÛĮØ±": 1046,
      "ĠØ¢Ø³ÙħØ§ÙĨÙĪÚº": 1047,
      "ĠÙĤØ¯Ø±Øª": 1048,
      "ĠØªÚ¾ÛĮÚº": 1049,
      "ĠÙħØª": 1050,
      "ĠÙĨØ¬Ø§Øª": 1051,
      "ĠØ¬ÙĨÛģÙĪÚº": 1052,
      "ĠØ¢ÙĨÚ©Ú¾": 1053,
      "ÙħÛģ": 1054,
      "ĠØ¢Ú¯ÛĴ": 1055,
      "ĠÚ©Ø§Ûģ": 1056,
      "Ø§ÛĮØª": 1057,
      "ĠØ¨Ø§ÙĨ": 1058,
      "ĠØ¨Ø§ÙĦ": 1059,
      "ĠØ³Ø§": 1060,
      "ĠÚ©Ø§ÙģØ±ÙĪÚº": 1061,
      "ĠÛģÙĪØªÛĮ": 1062,
      "ØµÛģ": 1063,
      "Ø±ÛĮØ¹": 1064,
      "ĠØ¨ÚĳÛĴ": 1065,
      "ĠÚ©Ùħ": 1066,
      "ĠØ§Ø¬": 1067,
      "ĠÛģÙĪÚ¯ÛĮ": 1068,
      "ÙĦÛĮØ³": 1069,
      "ĠØªØ¹ÙĦÛĮÙħ": 1070,
      "ĠØ¬ÙĨÛģÛĮÚº": 1071,
      "ÛĮØ³": 1072,
      "ĠØ§ÛģÙĦ": 1073,
      "ÙĨØª": 1074,
      "ĠØ´Ø±ÛĮÚ©": 1075,
      "ĠØ¬ÙĦØ§ÙĦ": 1076,
      "Ú©ÙĪ": 1077,
      "ĠÙĪØ³ÛĮ": 1078,
      "ĠÙħÙĪØª": 1079,
      "ĠØ¯ÙĦÙĪÚº": 1080,
      "ĠÙ¾ÛģÙĨÚĨØ§": 1081,
      "ĠÚ©Ú¾ÙĪ": 1082,
      "ĠÙħØ·": 1083,
      "Ø§Ø³ÛĮ": 1084,
      "ĠØ¨Ø§ÛģØ±": 1085,
      "Ø§ÙĨÙĪÚº": 1086,
      "Ø®Ø±": 1087,
      "ĠØºÛĮØ±": 1088,
      "ĠØ±ØŃÙħ": 1089,
      "Ø¡": 1090,
      "Ø¦ÙĪØ§": 1091,
      "ÙĦØ§Ùģ": 1092,
      "ĠØ¨Ú¾ÛĮÚĳ": 1093,
      "ĠØŃØ³": 1094,
      "ĠÙ¾ÙĪØ±Ø§": 1095,
      "ĠÚ©Ø´": 1096,
      "Ø§ÙĨÚ©Ûģ": 1097,
      "ĠØ´ÛĮ": 1098,
      "ĠØ¯ÙĪØ±": 1099,
      "ĠØ§ÙĨÚ©Ø§Ø±": 1100,
      "ĠÙħÙĤØ¯Ø³": 1101,
      "ĠØ°Ø±ÛĮØ¹": 1102,
      "ĠØ«": 1103,
      "Ø±Ø§Ùħ": 1104,
      "ÙĨØ§ÙĨ": 1105,
      "Ø³Ú©": 1106,
      "Ø¨ÙĪ": 1107,
      "ĠÙĨØ´Ø§ÙĨÛĮ": 1108,
      "ĠØ³ÛĮ": 1109,
      "ĠØ¢ÙĨÛĴ": 1110,
      "ĠØ·ÙĪØ±": 1111,
      "ĠØ±ÛģÙĨÛĴ": 1112,
      "ĠÙħØ±Ø¯ÙĪÚº": 1113,
      "ĠÙ¹Ú¾Ûģ": 1114,
      "ĠØ§ÙħØª": 1115,
      "ĠÛģØ¦ÙĪØ§": 1116,
      "ĠÙĨÛĮ": 1117,
      "ĠÙĨÙĪ": 1118,
      "ÙģÛĮ": 1119,
      "ĠØ¨ÙĨØ§ÛĮØ§": 1120,
      "Ø²Ø¯ÛĮÚ©": 1121,
      "ĠÙĪØ³ÛĮÙĦÛģ": 1122,
      "Ø±Ø¶": 1123,
      "ĠÙ¾ÙĪÙĦØ³": 1124,
      "ĠØ¨ÚĳÚ¾": 1125,
      "ĠÙĨØ²Ø¯ÛĮÚ©": 1126,
      "Ø¬ÙĪØ¯": 1127,
      "ĠØ®ÙĪÙģ": 1128,
      "ĠÚĨØ§ÛģØªÛĴ": 1129,
      "ĠÚĨÛĮØ²ÙĪÚº": 1130,
      "ĠÙħØ§ÙĦÚ©": 1131,
      "ĠÙħØ®": 1132,
      "ĠÙħÛģØ±": 1133,
      "ĠØ¨ÛĮÙ¹ÛĴ": 1134,
      "ĠÙħØ§ÙĨÙĨØ¯": 1135,
      "ĠØ§ÙĨØ¬Ø§Ùħ": 1136,
      "ĠÛĮØ±ÙĪØ´": 1137,
      "ØŃÛĮ": 1138,
      "ĠØ¢Ø¯ÙħÛĮÙĪÚº": 1139,
      "ĠØ¨Ø³": 1140,
      "ĠØ³ÙĦØ§Ùħ": 1141,
      "ĠØ¢ÙĪØ§Ø²": 1142,
      "ĠÚ©Ø§ÙħÙĪÚº": 1143,
      "ĠØŃØ§ØµÙĦ": 1144,
      "ÙĪØŃÙĨØ§": 1145,
      "ÙĨØ§ÙĨÚĨÛģ": 1146,
      "ĠÙħØ§Úº": 1147,
      "ÛĮØ§ÙĦ": 1148,
      "ĠØ¸ÙĦÙħ": 1149,
      "ĠØ¨ÛĮÙ¹Ø§": 1150,
      "ĠØ¬ÛĮØ³Ø§": 1151,
      "ĠÙĨÛģØ§ÛĮØª": 1152,
      "ĠØ§ÙħÛĮ": 1153,
      "Ø¯ÙħØª": 1154,
      "Ø§ÙĦØ¨": 1155,
      "ĠÛģÙħØ§Ø±Ø§": 1156,
      "Ù¹ÛĴ": 1157,
      "ĠØ¨Ø§Ø¯Ø´Ø§Ûģ": 1158,
      "ĠÙ¾Ú¾ÙĦ": 1159,
      "ĠÙħÙĪØ§": 1160,
      "ĠØ¹Ø¯": 1161,
      "ÙĦÛĮÙĦ": 1162,
      "ĠÙĨØ§Ø²ÙĦ": 1163,
      "ĠØ¢Ø¯Ùħ": 1164,
      "ĠÛĮÛģÙĪØ¯ÛĮÙĪÚº": 1165,
      "ĠÛĮØ±ÙĪØ´ÙĦÛĮÙħ": 1166,
      "ĠØ³Ø²Ø§": 1167,
      "ĠØŃÙĤÛĮ": 1168,
      "ĠØ¬Ø§Ú©Ø±": 1169,
      "Ø¶ÛĮ": 1170,
      "ĠØŃØ§ÙĦØ§ÙĨÚ©Ûģ": 1171,
      "ĠÙĪØ§ÙĤØ¹": 1172,
      "ÙĪØ§ÙĦ": 1173,
      "Ø´Ùħ": 1174,
      "Ø¶ØŃ": 1175,
      "ĠØ±ÙĪØ´": 1176,
      "ĠØ±Ú©Ú¾ØªØ§": 1177,
      "ĠØ³Ú©ØªØ§": 1178,
      "ĠØ´ÛĮØ·": 1179,
      "ÛģÛĮ": 1180,
      "ĠØªØ¨": 1181,
      "ĠØªÚ¾ÙĪ": 1182,
      "ĠØ¯Ø§Ø±": 1183,
      "ÙĤÛģ": 1184,
      "ÙĦØ§Ø¯": 1185,
      "ÙĦØ§ÛĮØ§": 1186,
      "ĠØ¨ÛĮÙĪÛĮ": 1187,
      "ĠÙ¹Ú¾ÛģØ±Ø§": 1188,
      "ĠØ§ÙħÛĮØ¯": 1189,
      "ĠØ¨Ø§Ø±ÛĴ": 1190,
      "ĠÙ¾ÛĮØ±": 1191,
      "ĠÙĦÚĳ": 1192,
      "Ø§ÙĦØª": 1193,
      "ĠØ´Ú©Ø±": 1194,
      "ĠÙģØ±ÙħØ§Ø¦ÛĴ": 1195,
      "Ø«Ø±": 1196,
      "ĠÙ¾Ø·Ø±Ø³": 1197,
      "ĠØ±ÛģØªÛĴ": 1198,
      "ÙģØ±ÙħØ§ÙĨ": 1199,
      "ĠÚĪØ§ÙĦØ§": 1200,
      "ĠØ¬ÛģØ§Úº": 1201,
      "ĠÚ©Ú¾ÛĮ": 1202,
      "ĠØ¨Øº": 1203,
      "ĠÙĨØ¸": 1204,
      "ĠÙĦÚ©Ú¾Ø§": 1205,
      "Ø¹ÙħØª": 1206,
      "ĠÛĮÙĪØŃÙĨØ§": 1207,
      "ØµÙĦÛģ": 1208,
      "ĠØ¬Ø§ÙĨÙĨÛĴ": 1209,
      "ĠÙĨØ§ÙģØ±ÙħØ§ÙĨ": 1210,
      "ĠÛģÙĪÚ¯ÛĮØ§": 1211,
      "ĠØ¹Ø²Øª": 1212,
      "ĠÙħÙĪØ§ÙģÙĤ": 1213,
      "ÛĮÙĪÚº": 1214,
      "ĠØ³Ø§Øª": 1215,
      "ĠÙ¾ÙĦ": 1216,
      "ĠØ¢Ø¬": 1217,
      "ĠØ®ÛĮØ§ÙĦ": 1218,
      "ĠØ®Ø¯ÙħØª": 1219,
      "ĠÚ©Ú¾Ø§ÙĨÛĴ": 1220,
      "ĠÛĮÙĤÛĮÙĨ": 1221,
      "ĠÚ¯ÙħØ±Ø§Ûģ": 1222,
      "Ø±Ùħ": 1223,
      "Ø¨ÙĦ": 1224,
      "ĠØ¯ÛĮÙĨ": 1225,
      "ĠØ§ÙĪÙĦØ§Ø¯": 1226,
      "ĠÚ©Ø¨Ú¾ÛĮ": 1227,
      "ĠÙĨÙĤ": 1228,
      "ĠÙĨØ¹ÙħØª": 1229,
      "ĠØµØ¨Ø±": 1230,
      "Ø§ÙĨÛģÙĪÚº": 1231,
      "ĠØ§ÙĪÙ¾Ø±": 1232,
      "Ø¯ÙĪ": 1233,
      "ĠØŃØ¶": 1234,
      "ĠØ¨Ø¯ÙĨ": 1235,
      "ĠØ®ÙĪØ´ÛĮ": 1236,
      "ĠÙĨÙħØ§": 1237,
      "Ø¬Ø³": 1238,
      "ØµØ±": 1239,
      "ĠÙģØ±ÙħØ§ÙĨÛĴ": 1240,
      "ĠÙĨØ´Ø§ÙĨÛĮØ§Úº": 1241,
      "ĠØ§Ùģ": 1242,
      "Ø§Ø±Ûģ": 1243,
      "ĠÙħØ¹Ø§Ùģ": 1244,
      "ĠÚ©Ú¾ÚĳÛĴ": 1245,
      "ĠØ§ÙĨØ¯Ø±": 1246,
      "ĠØªÛĮØ§Ø±": 1247,
      "ÚĨÛĴ": 1248,
      "ĠÙģØ±ÙħØ§Ø¦ÛĮ": 1249,
      "ĠØªÛĮØ±Ø§": 1250,
      "ĠØ³Ú©ØªÛĴ": 1251,
      "Ø¹ÙĪÙĨ": 1252,
      "ĠØ¨Ø§Ø·": 1253,
      "ĠØ±Ú©Ú¾ÙĪ": 1254,
      "ĠØ®Ø§Ø·Ø±": 1255,
      "ĠØ¯Ú©Ú¾": 1256,
      "ĠØ®Ø±": 1257,
      "ĠÙħØ±Ø¯": 1258,
      "ĠÙ¾Ø³ÙĨØ¯": 1259,
      "ĠØ®ÙĪÙĨ": 1260,
      "Ø§Ø¨Ø±": 1261,
      "ĠØ¬Ø³Ùħ": 1262,
      "ĠØ°Ú©Ø±": 1263,
      "Ø¨ÙĦÚ©Ûģ": 1264,
      "ĠØ¨Ø§Ø¨Øª": 1265,
      "ĠØµÙĪØ±Øª": 1266,
      "ĠØ¨Ø¯ÙĦÛģ": 1267,
      "ĠÙģÛĮØµÙĦÛģ": 1268,
      "Ø±Ø§Ø¦ÛĮÙĦ": 1269,
      "ĠÙģØ§Ø¦": 1270,
      "Ú©Øª": 1271,
      "ĠÙħØ³ÙĦ": 1272,
      "Ù¾Øª": 1273,
      "ĠØ¹Ûģ": 1274,
      "ĠØ¢Ù¾Ø³": 1275,
      "ĠØºØ§ÙĦØ¨": 1276,
      "ÙģØ±ÙħØ§": 1277,
      "ĠØ±Ø³ÙĪÙĦÙĪÚº": 1278,
      "ĠÙ¾ÙĪØ±ÛĮ": 1279,
      "ĠØ´ÛĮØ·Ø§ÙĨ": 1280,
      "ĠÛģØ§Úº": 1281,
      "ĠØ¨ÙĪÙĦ": 1282,
      "ĠØ§ÙĨØª": 1283,
      "ĠØªÙĪØ¨Ûģ": 1284,
      "ĠÙĤÛĮ": 1285,
      "ĠÙĤØ±ÛĮØ¨": 1286,
      "ĠØ²Ø¨Ø§ÙĨ": 1287,
      "Ø±ÙģØª": 1288,
      "Ø³ÙħÛģ": 1289,
      "ĠÙģØ±Ø´ØªÙĪÚº": 1290,
      "ĠÙ¾ÛĮØ±ÙĪÛĮ": 1291,
      "ÛģÙħ": 1292,
      "ÙĦØª": 1293,
      "ÙĦØ¨": 1294,
      "ĠÙħØ²": 1295,
      "ĠÙ¾ÛĮØ§": 1296,
      "ĠØ³ÙĨÙĨÛĴ": 1297,
      "ĠÙħÙĨØª": 1298,
      "ĠØ¬ÛĮØ³ÛĴ": 1299,
      "Ø§Ø¦ÛĮ": 1300,
      "ĠÙħÙĪÙħ": 1301,
      "ĠØ³Ø§Ø±ÛĮ": 1302,
      "ĠØ¨Ú¾Ø§Ø¦ÛĮÙĪ": 1303,
      "ĠÙĪØ§Ø¶ØŃ": 1304,
      "ĠØ¨Ú¾ÙĦØ§": 1305,
      "ĠØ§ÚĨÚ¾Ø§": 1306,
      "ĠØ¢ÛĮØªÙĪÚº": 1307,
      "ĠØ¨ØºÛĮØ±": 1308,
      "ĠØŃØ¶ÙĪØ±": 1309,
      "ĠØ§Ø¹Øª": 1310,
      "ĠÙħØ§Ø±": 1311,
      "ĠØ¨Ù¾Øª": 1312,
      "Ø¬Ø²": 1313,
      "ĠÙ¾ÛģØ§": 1314,
      "ĠØ¬ÙĨØª": 1315,
      "ĠØ§Ø¨ÙĨ": 1316,
      "ÛģÛĮØ²": 1317,
      "ĠØ¨Ø§Ø²": 1318,
      "ĠÚĨÛĮØ²ÛĮÚº": 1319,
      "ĠÛģÙĪÚ¯Ø¦ÛĴ": 1320,
      "ĠÚ©Ø§ÛģÙĨ": 1321,
      "ĠØ¹ÛģØ¯": 1322,
      "ĠØ¨Ù¾ØªØ³ÙħÛģ": 1323,
      "ĠØ§Ø±Ø§": 1324,
      "ÙĨÚ¯": 1325,
      "ĠØ¨Ø±Ø§": 1326,
      "ĠØªØ³": 1327,
      "ĠÚ©Ø±Ø¯": 1328,
      "ĠÙ¾Ø±ÛģÛĮØ²": 1329,
      "ĠØ¬Ø§ÙĨØ§": 1330,
      "ĠÙħÙĨÛģ": 1331,
      "ĠØ´Ø§Ú¯Ø±Ø¯": 1332,
      "ÙĤÙĪØ¨": 1333,
      "ĠØ§Ø¬Ø±": 1334,
      "ĠÙ¾ÛģØ§Úĳ": 1335,
      "ĠÙħÚ©Ø±": 1336,
      "ĠÙĨÙĪØ±": 1337,
      "ĠØ¯ÛĮØ¦ÛĴ": 1338,
      "Ø§Ø¨ÙĤ": 1339,
      "Ø¨ÛĮØ¨": 1340,
      "ĠØ³ÙĪØ§Ø¦ÛĴ": 1341,
      "ĠÙĨÙĤØµ": 1342,
      "ÛĮØ³ÛĮ": 1343,
      "ĠØ¯Ø´Ùħ": 1344,
      "ĠØ¨Ø§ÙĨØ¯": 1345,
      "ĠÚĨÙĦÛĴ": 1346,
      "ĠÚĨÚ©ÛĴ": 1347,
      "Ø§ÛģÛĮÙħ": 1348,
      "ĠØ¢Ø²ÙħØ§": 1349,
      "ĠÙ¾Øª": 1350,
      "ĠÙĪØ¬Ûģ": 1351,
      "ĠØ§Ø³Ø±Ø§Ø¦ÛĮÙĦ": 1352,
      "ĠÛģÙĪÙĨØ§": 1353,
      "ĠØ±ÛģÛĮ": 1354,
      "ĠÚ¯ÙĪØ§Ûģ": 1355,
      "ĠÙ¾ÚĳÛĴ": 1356,
      "ØªØ§Ú©Ûģ": 1357,
      "ÙĪØ³Ùģ": 1358,
      "ĠØ®ÙĪØ§ÛģØ´": 1359,
      "ĠØ§Ú©Ø«Ø±": 1360,
      "Ø¨Ø§ÙĨÛĮ": 1361,
      "Ø¦ÙĤ": 1362,
      "ÙĤØ¯Ø³": 1363,
      "ĠØŃØ¨ÛĮØ¨": 1364,
      "ĠØ¬Ø§ÙĨØ¨": 1365,
      "ĠÙ¾ÛģÚĨ": 1366,
      "ĠÙĦØ§Ø¦ÙĤ": 1367,
      "ĠØ¯ÛĮÚ©Ú¾ØªÛĴ": 1368,
      "ĠÛĮØ¹ÙĤÙĪØ¨": 1369,
      "ĠÙħØ·Ø§Ø¨ÙĤ": 1370,
      "ĠØ§Ø±Ø§Ø¯Ûģ": 1371,
      "Ú¯ÙĪ": 1372,
      "Ø§Ø±Øª": 1373,
      "ĠØ¯ÙĪØ³Øª": 1374,
      "ĠÚ©Ú¾Ø§ÙĨØ§": 1375,
      "ĠÙħØ¶": 1376,
      "Ø¨ÛĴ": 1377,
      "ĠØ¹ÙĤ": 1378,
      "ĠÚ¯Ø±ÙĪÛģ": 1379,
      "ÙĦÛĮØ³ÛĮØ§": 1380,
      "ĠÚ©Ø´ØªÛĮ": 1381,
      "ĠÚ©ÙĦÛĮØ³ÛĮØ§": 1382,
      "ĠÚ¯Ø²": 1383,
      "Ø¬ÛĮ": 1384,
      "ÙģØ§Ø±": 1385,
      "ĠØ¹ÙĨ": 1386,
      "ĠØ´Ø§Ùħ": 1387,
      "ÙĨØ¯Ø±": 1388,
      "ĠØ³Ø±Ú©": 1389,
      "ĠÙģØ§Ø¦Ø¯Ûģ": 1390,
      "ÙħØ¯": 1391,
      "ĠÙĨÙģ": 1392,
      "Ú¯Ø§Ûģ": 1393,
      "ĠÙ¾Ú©Ø§Ø±": 1394,
      "ĠÙĪØ§ÙĦÙĪ": 1395,
      "ĠØ¨Ø®Ø´ÙĨÛĴ": 1396,
      "ĠÙħØ±ÛĮ": 1397,
      "ĠÚ©Ø±ØªÛĮ": 1398,
      "ĠØ¨ÙĦÙĨØ¯": 1399,
      "ĠØŃØ§ÙĦØª": 1400,
      "ĠØ¨ÙĨØ¯ÙĪÚº": 1401,
      "ĠÙĨÙħØ§Ø²": 1402,
      "ĠÙĨÙĤØµØ§ÙĨ": 1403,
      "ĠÚĨÚĳ": 1404,
      "ĠÚĨØ§ÛģÛĴ": 1405,
      "ĠØ¯Ø§Ø¯Ø§": 1406,
      "ĠØ¨ÚĨØ§": 1407,
      "ĠÙħÙĦÚ©": 1408,
      "ĠÙħØ´Ø±": 1409,
      "ĠÙ¾ØªÚ¾Ø±": 1410,
      "Ø¨ØŃ": 1411,
      "ĠØ¯Ûģ": 1412,
      "ĠØ¢Ø¦ÛĮ": 1413,
      "ĠÙģØ±ÛĮØ³ÛĮ": 1414,
      "ĠØ¨Ø§Øº": 1415,
      "ĠÙ¾ÛĮØ´": 1416,
      "ĠØºÙħ": 1417,
      "ĠØ¨Ú¾Ø§Ø¦ÛĮÙĪÚº": 1418,
      "ĠÚ¯ÙĨØ§ÛģÙĪÚº": 1419,
      "ĠØ±Ú©Ú¾ÛĮ": 1420,
      "ĠÙ¾ÚĳÚ¾": 1421,
      "ĠØ±Ø§Ø³ØªØ¨Ø§Ø²ÛĮ": 1422,
      "Ø§ÛĮ": 1423,
      "Ú©Ùħ": 1424,
      "ĠØ¨Ø²Ø±": 1425,
      "ĠØ³Ø§Ø±ÛĴ": 1426,
      "ĠØ¢ØªØ§": 1427,
      "ÙĤØ±ÛĮØ¨": 1428,
      "ĠØŃØ¯": 1429,
      "ĠØ§ÙĦÙĤØ¯Ø³": 1430,
      "ĠÙ¾ÛĮØº": 1431,
      "ĠÚĪÚ¾": 1432,
      "ĠÙ¾Ø§ÛĮØ§": 1433,
      "ĠØ®Ø§ÙĨÛģ": 1434,
      "ĠÙ¾Ø±Ø³Øª": 1435,
      "ĠØ´ÙĪ": 1436,
      "ĠÚ©ÛģØ§Úº": 1437,
      "ĠÙĦÛĮÙĨÛĴ": 1438,
      "ĠØ³Øª": 1439,
      "ÙĪØ±ÛĮ": 1440,
      "ĠÛĮÙĪØ³Ùģ": 1441,
      "ĠÙĤÛĮØ¯": 1442,
      "ĠÙģØ±Ø¹ÙĪÙĨ": 1443,
      "ĠØ¨ÛĮÙħ": 1444,
      "ĠØ¬Ø§ÙĪ": 1445,
      "ĠÚĪØ±ØªÛĴ": 1446,
      "ĠÚ©Øª": 1447,
      "Ø³Ø¨": 1448,
      "ĠÙĦØ¹": 1449,
      "Ø¶Ø±": 1450,
      "ĠØ±ÙĪÚ©": 1451,
      "ĠØºÙĪØ±": 1452,
      "Ø¬Ø§Ø¦ÛĴ": 1453,
      "ĠÙĤØ¯Ø±": 1454,
      "ĠØ§Ø¨Ø±Ø§ÛģÛĮÙħ": 1455,
      "ĠÙĨÛĮÚĨÛĴ": 1456,
      "ĠÙħÛģØ±Ø¨Ø§ÙĨ": 1457,
      "ĠÙħØ³ÙĦÙħØ§ÙĨ": 1458,
      "ĠØŃØ±Ø§Ùħ": 1459,
      "ÙĦÛĮÙģ": 1460,
      "ĠØªÚ©ÙĦÛĮÙģ": 1461,
      "ĠØ¯Ø±Ø®Øª": 1462,
      "Ø§ØŃ": 1463,
      "ĠØ¬Øª": 1464,
      "ĠØ¯Ú¾ÙĪ": 1465,
      "ĠØ¹ÙĪØ±ØªÙĪÚº": 1466,
      "ĠØ®Ø§Øµ": 1467,
      "Ø¨ÙĪØ·": 1468,
      "Ø§ÙĤ": 1469,
      "ÙĪØ¹": 1470,
      "ĠÙħØ«": 1471,
      "ĠØ³Ø¬": 1472,
      "ĠÙĨØ¨": 1473,
      "Ù¹Ú¾": 1474,
      "ĠØµØ§Ùģ": 1475,
      "ĠÙ¾Ø§Ø¦ÛĴ": 1476,
      "ÙħØ¹ÙĪÙĨ": 1477,
      "ĠÙħØ¶Ø¨ÙĪØ·": 1478,
      "ĠÙħØµÛĮ": 1479,
      "ĠØ¨ØªØ§": 1480,
      "ĠØ¨ØªÙĪÚº": 1481,
      "ÙĪØ±Ø§": 1482,
      "ĠØªÛĮÙĨ": 1483,
      "ĠØ¯ÙĪÚº": 1484,
      "ĠÚ©Ø±Ø³Ú©": 1485,
      "ĠØ¢Ø¦ÛĮÚº": 1486,
      "ĠØ¨Ø§ÙĤÛĮ": 1487,
      "ĠØ¯ÙĨÙĪÚº": 1488,
      "ĠØ¯Ø±ÛĮØ§": 1489,
      "Ø§Ø¯Ø±": 1490,
      "ĠØ¨Ø±Ø³": 1491,
      "ĠØ¬Ú¾Ú¯": 1492,
      "ĠÙ¾ÙĦÙ¹": 1493,
      "ĠØ³Ø¬Ø¯Ûģ": 1494,
      "ĠÙħØµÛĮØ¨Øª": 1495,
      "ĠØ¨Ú¾ÙĪ": 1496,
      "ĠØ³ÛĮØ¯": 1497,
      "Ø§ÙĦÙĦÛģ": 1498,
      "ÙĨØ§Ú©": 1499,
      "ĠØ¨ÛĮÙ¹Ú¾": 1500,
      "ĠÚ©ÙħØ²": 1501,
      "ĠØ°Ø±ÛĮØ¹ÛĴ": 1502,
      "ĠØ«Ø§Ø¨Øª": 1503,
      "ĠÙĨØ¸Ø±": 1504,
      "ÛģÙĨÚĨ": 1505,
      "ĠØ¨Ø±ÛĮ": 1506,
      "ĠØ³Ú©ÛĴ": 1507,
      "ĠØ¬Ø¯Ø§": 1508,
      "Ø¨Ø§": 1509,
      "ÚĨÙĨØ§ÙĨÚĨÛģ": 1510,
      "ĠØŃØµÛģ": 1511,
      "ĠØ´Ø§": 1512,
      "ĠØ¨Ø±Ø§Ø¨Ø±": 1513,
      "ĠØ¨ÛĮÙ¹Ú¾ÛĴ": 1514,
      "Ø¤Úº": 1515,
      "ĠÚ¯Ø±Ø¯": 1516,
      "ĠÙħØ¯Ø¯Ú¯Ø§Ø±": 1517,
      "ĠØ§Ùħ": 1518,
      "ĠÛģÛĮÚ©": 1519,
      "Ø´Ø±": 1520,
      "ĠÙĤØ¨Ø±": 1521,
      "Ø³ÙĪØ³": 1522,
      "ĠØ¯Ø±ÙĪØ§Ø²": 1523,
      "ĠÚĨØ§ÛģØ¦ÛĴ": 1524,
      "ĠÙħÙĨØ§Ø¯ÛĮ": 1525,
      "ĠØ¨Ø§Ø·ÙĦ": 1526,
      "ĠØ®Ø±ÚĨ": 1527,
      "ĠØ¹ÙĨÙĤØ±ÛĮØ¨": 1528,
      "ĠÙħØ±ÛĮÙħ": 1529,
      "ĠÛģÛĮÚ©ÙĦ": 1530,
      "Ø³Ø¨Øª": 1531,
      "ĠÙĦÚ©Ú¾": 1532,
      "Ø´Ú©Ø±": 1533,
      "Ø²ÙĤ": 1534,
      "ĠÚĨÙĪ": 1535,
      "ĠÚĨÚ©Ø§": 1536,
      "Ø·Ø³": 1537,
      "ĠØ¢Ù¾ÛģÙĨÚĨ": 1538,
      "ĠØ¬ÙĨÚ¯": 1539,
      "ĠÙ¾Ø§Ø¦ÛĮÚº": 1540,
      "ĠØ¯Ø±Ø¯": 1541,
      "ĠØ³ÙĨØ§ÙĨÛĴ": 1542,
      "ĠÙħØŃØ¶": 1543,
      "ĠÙĤÙĪÙħÙĪÚº": 1544,
      "ĠØ§ØªØ±": 1545,
      "ĠÙĨÛĮÚ©ÛĮ": 1546,
      "ĠÚ©Ú¾ÙĪÙĦ": 1547,
      "ĠÙĨÙĪÚ©Ø±": 1548,
      "ÙħÚ©": 1549,
      "ĠÙħØ®Øª": 1550,
      "ĠÚ©ÛģÛĴ": 1551,
      "ĠØ·ÙĦØ¨": 1552,
      "ĠØ²ÙħØ§ÙĨ": 1553,
      "ĠØ§ÙĨÛģÛĮ": 1554,
      "ĠÚ©Ú¾ÚĳØ§": 1555,
      "ĠÙħØ±Ø¶ÛĮ": 1556,
      "ĠØ¯ÛĮÚ©Ú¾ÙĨÛĴ": 1557,
      "ĠØŃØ§Ø¶Ø±": 1558,
      "ĠÙ¾Ú¾ÛĮØ±": 1559,
      "ĠØ¹ÙĤÙĦ": 1560,
      "ÛĮÙħ": 1561,
      "ĠÚ¯Ø²Ø±": 1562,
      "ĠØ±Ø²ÙĤ": 1563,
      "ÙĤØ§Øª": 1564,
      "ĠØ®ÙĦØ§Ùģ": 1565,
      "Ø²ÙĨØ¯": 1566,
      "ĠØ¬Ø§Ø¯ÙĪ": 1567,
      "ĠÙħØ¬Ø±Ùħ": 1568,
      "Ø¢Ù¾": 1569,
      "ĠØ¢Ø³ÙħØ§ÙĨÛĮ": 1570,
      "ĠØ¬Ú¾Ù¹ÙĦØ§ÛĮØ§": 1571,
      "ĠÙĨØ³Ø¨Øª": 1572,
      "ĠÙĪØ§Ø±": 1573,
      "ÚĨÚ¾Ø§": 1574,
      "ĠÙģØ±Ø´": 1575,
      "ÛĮØ²Ûģ": 1576,
      "ĠÚ©Ø§ÙħÙĦ": 1577,
      "ĠØ§Ù¹Ú¾Ø§Ø¦ÛĴ": 1578,
      "ĠØ§ÚĨÚ¾ÛĮ": 1579,
      "ĠÙħØ®Ø§ÙĦ": 1580,
      "ĠØ¹Ø¯Ø§ÙĦØª": 1581,
      "ÛģØ§Ùħ": 1582,
      "Ú©ÙĦ": 1583,
      "ĠÚ©Ø§ÙĨ": 1584,
      "ĠØ±Ø§": 1585,
      "ĠØ¹Ø±Ø¶": 1586,
      "ĠØ±ÙĪØ§ÙĨÛģ": 1587,
      "ĠØ¨ÙĪØ¬Ú¾": 1588,
      "ĠØ¨Ø³ØªÛĮ": 1589,
      "ĠØ±ÙĪØ´ÙĨ": 1590,
      "ĠÙ¾ÛģÚĨØ§ÙĨ": 1591,
      "ĠÙħØ³": 1592,
      "ĠØªÙĦØ§": 1593,
      "ĠØªØ§Ø¨": 1594,
      "ĠÙĪØŃÛĮ": 1595,
      "Ø´Ø§": 1596,
      "ĠØ´ÙģØ§": 1597,
      "ÙĤÛĮÛģ": 1598,
      "ĠØ§ØªØ§Ø±Ø§": 1599,
      "ĠØŃØ³Ø§Ø¨": 1600,
      "ĠØŃÙĤÛĮÙĤØª": 1601,
      "ĠØ¨Ú¾ÙĦØ§Ø¦ÛĮ": 1602,
      "ĠØªØ§Ø¨Ø¹": 1603,
      "Ûĥ": 1604,
      "ĠØ§Ø¯Ø§": 1605,
      "ĠØ¨Ø±Ø§Ø¦ÛĮ": 1606,
      "ĠØ§ÙĨÚ¯": 1607,
      "ĠØ§ÙĨØµ": 1608,
      "ĠÚ©ÙĪØ´": 1609,
      "ĠÙģØ®Ø±": 1610,
      "ĠÙģØ±Ø²ÙĨØ¯": 1611,
      "ĠÙ¾Ø§ÙĪ": 1612,
      "ĠÙĨØ§Ù¾Ø§": 1613,
      "ĠÙħÚ©Ø±Ùħ": 1614,
      "ĠØ¨Ø²Ø±Ú¯": 1615,
      "ĠÚ©ÙģØ§Ø±": 1616,
      "Ø¦Ø´": 1617,
      "ĠÙĦØ§ÙĨÛĴ": 1618,
      "ĠÙĤÙĪØª": 1619,
      "ĠÙģØ±ÛĮØ¨": 1620,
      "ĠØ·Ø±ÛĮ": 1621,
      "ĠØ¯ÛĮÚ©Ú¾ÛĮÚº": 1622,
      "ĠÙħØº": 1623,
      "ĠÚ¯ÙħØ§ÙĨ": 1624,
      "ĠÛĮÙĪÚº": 1625,
      "ÙĤØ±": 1626,
      "Ø®ÙĪ": 1627,
      "ĠÙĦÙĪÙ¹": 1628,
      "ĠÙĦÙĪÙ¹Ø§": 1629,
      "ĠØ·Ø§": 1630,
      "ĠØ±ÛģØªØ§": 1631,
      "ĠØ±ÙĪÙ¹ÛĮ": 1632,
      "ĠÙħÙĪØ¬ÙĪØ¯": 1633,
      "ĠÙĪØ§Ù¾Ø³": 1634,
      "ĠØ¨Ø®Ø´ÛĮ": 1635,
      "ĠØ³ÚĨÛĴ": 1636,
      "ĠØ®Ø¨Ø±Ø¯Ø§Ø±": 1637,
      "ĠØ¸Ø§ÙĦÙħÙĪÚº": 1638,
      "ĠØ¢ÙĨÚ©Ú¾ÛĮÚº": 1639,
      "ĠÙ¾Ø±Ø³ØªØ´": 1640,
      "ĠÙģØ±Ø´ØªÛĴ": 1641,
      "ÙĪØ§Ø±": 1642,
      "ÙĦÙĪÚº": 1643,
      "ĠÛģÙĪÙĨ": 1644,
      "ĠØ¢ØªÛĴ": 1645,
      "ĠØ¨Ø¯ÙĦ": 1646,
      "ĠÚ¯ÙĪÛĮØ§": 1647,
      "Ø·Ø§Ø¹Øª": 1648,
      "ĠØ¨Ú¾ÛĮØ¬ÛĴ": 1649,
      "ĠØ§Ø¨Ø±ÛģØ§Ùħ": 1650,
      "ĠØ§ÙĨØµØ§Ùģ": 1651,
      "Ø±Ûģ": 1652,
      "ĠØ§Ø³ØªØ§": 1653,
      "ĠÚ©ÛģÙĨØ§": 1654,
      "ĠÚĨÙĨØ¯": 1655,
      "ĠØ³ÙĨÚ©Ø±": 1656,
      "Ø´ØªÛģ": 1657,
      "ĠÙ¾ÙĪÚĨÚ¾": 1658,
      "ĠØ´ÙĪÛģØ±": 1659,
      "ĠÚ©ÙĪØ´Ø´": 1660,
      "ĠØ§Ø·Ø§Ø¹Øª": 1661,
      "ĠØ¨ÙĨÛĮ": 1662,
      "ĠÙĦØ§ØªÛĴ": 1663,
      "ĠØŃÙĪØ§ÙĦ": 1664,
      "Ø¶Ø§": 1665,
      "ĠØ±Ú©Ú¾ÛĮÚº": 1666,
      "ĠØ±Ú©Ú¾ÙĨÛĴ": 1667,
      "ĠÙħÙĤØ§Ùħ": 1668,
      "ĠØ³Ú©ÛĮÚº": 1669,
      "ĠØ³ÙħØ¬": 1670,
      "ĠÙĦÛĮØªÛĴ": 1671,
      "ĠÙ¾ÙĪÚĨÚ¾Ø§": 1672,
      "ĠØ¬ÙĦØ¯": 1673,
      "ĠÚ©ÙĨØ§Ø±ÛĴ": 1674,
      "ĠØ§Ø³ØªØ§Ø¯": 1675,
      "ĠØ§Ø±": 1676,
      "ĠØ§Ú¯": 1677,
      "ĠÙħÚ©": 1678,
      "Ø§ÙĨØª": 1679,
      "ĠÚ¯ÙĦÛĮÙĦ": 1680,
      "ĠØ¹Ø±": 1681,
      "ÛĮØ±ÛĴ": 1682,
      "ÛĮØ±Ø§ÙĨ": 1683,
      "ĠØ´ÙħØ¹ÙĪÙĨ": 1684,
      "ĠÚ©Ú¾Ø§ØªÛĴ": 1685,
      "ĠÙĨØ¨ÙĪØª": 1686,
      "ĠØ§Ø·": 1687,
      "ĠÙħØ°": 1688,
      "ĠØ³ÙĪØ±": 1689,
      "ĠÙĪÛĮ": 1690,
      "ĠØ§ÙĦØ²": 1691,
      "ĠØ¨ÛĮÚĨ": 1692,
      "ÙĨØ¯Ûģ": 1693,
      "ĠØ¨ÚĳÚ¾Ø§": 1694,
      "Ø§Ø¯Ùħ": 1695,
      "ĠØ³ÙĨØªÛĴ": 1696,
      "ĠØªØ¹Ø¬Ø¨": 1697,
      "ĠØªØ®": 1698,
      "Ø¨ÛĮØ±": 1699,
      "ÙĪÙĨÚ¯Ø§": 1700,
      "ĠØµØ¯": 1701,
      "ĠÙ¾Ø§Ø¦ÛĮ": 1702,
      "ĠÙ¾ÛģÙĨÚĨÛĴ": 1703,
      "ĠØ±Ú©Ú¾ÛĴ": 1704,
      "ĠØ±Ø§Ø³ØªÛģ": 1705,
      "ĠÙĨØ¨ÛĮÙĪÚº": 1706,
      "ĠÛģÙĦØ§Ú©Øª": 1707,
      "ĠÙ¾Ø±ÛģÛĮØ²Ú¯Ø§Ø±": 1708,
      "ĠØ¯Ø´ÙħÙĨ": 1709,
      "ĠÙĪØ§Ø±Ø«": 1710,
      "Ú©ÙĪÚº": 1711,
      "ĠÚ©Ù¾": 1712,
      "ĠÚ©Ø§Ø±": 1713,
      "ÙħØ¨Ø±": 1714,
      "ĠØ®ÛĮØ±": 1715,
      "ĠØ¹ÙĦØ§": 1716,
      "ĠÙģÙĤÛĮÛģ": 1717,
      "ÙĦØ§ØŃ": 1718,
      "ĠØ´Ø¹": 1719,
      "Ø°Ø±": 1720,
      "ĠØ°Ø±ÛĮØ¹Ûģ": 1721,
      "ĠØ¨Ø§ÙĨØ¯Ú¾": 1722,
      "ĠÙħÛģ": 1723,
      "Ø¯ÛĴ": 1724,
      "ĠØ¢ÙĪ": 1725,
      "ĠÛĮÙĪÙĨ": 1726,
      "ĠÙģÚ©Ø±": 1727,
      "ĠÛĮÛģÙĪØ¯": 1728,
      "ĠØ²ÙĪØ±": 1729,
      "ĠØ§Ø¨Ú¾ÛĮ": 1730,
      "ĠØ´Ø±ÙĪØ¹": 1731,
      "ĠØ§ØªØ§Ø±": 1732,
      "ĠÚĨÙĦØªÛĴ": 1733,
      "ĠØ¨ÙĦØ§ÛĮØ§": 1734,
      "ĠÚ¯ÙħØ±Ø§ÛģÛĮ": 1735,
      "ĠÙħÙĪÙħÙĨ": 1736,
      "ÙĦÙĤ": 1737,
      "ĠÙĨÙĪØŃ": 1738,
      "Ø¯Ø§Ø±ÛĮ": 1739,
      "ĠØ¯Ø³Øª": 1740,
      "ĠÚ©ÛĮÙĪÙĨ": 1741,
      "ĠÚ©ÛģÙĪ": 1742,
      "ĠØ®Ø§Ø¯Ùħ": 1743,
      "ĠØ¹Ø¸": 1744,
      "ĠÙģØª": 1745,
      "ÙħØ§Ø¹Øª": 1746,
      "ĠØ§Ú¯Ø±ÚĨÛģ": 1747,
      "ÙĦÙĪØ¨": 1748,
      "ĠÙ¾ÙĪØ´ÛĮ": 1749,
      "ĠØ§ÙĨØªØ¸": 1750,
      "ĠØŃÙĪØ§ÙĦÛģ": 1751,
      "ĠØªØ§Ø±": 1752,
      "ĠÚĨØ§ÙĦ": 1753,
      "Ú¯Ø±Ø¯": 1754,
      "ĠØ³Ø¨Øª": 1755,
      "ĠØ¨ÙĨØ§Ø¦ÛĴ": 1756,
      "ĠÙ¹Ú¾Ú©": 1757,
      "ĠÙħØ¯Øª": 1758,
      "ĠØŃØ§Ú©Ùħ": 1759,
      "ĠØ¨Ø§Ø±Ûģ": 1760,
      "ÙģØªÛģ": 1761,
      "Ø¨Ø§Ø±Ú©": 1762,
      "ĠØ§ÙĦØ²Ø§Ùħ": 1763,
      "ĠÚ©ÛĮÙĪÙĨÚ©Ø±": 1764,
      "Ġ)": 1765,
      "ÛĮØ¯Ûģ": 1766,
      "ĠÙħÛĮ": 1767,
      "ĠÙħØµ": 1768,
      "ĠØ¨Øª": 1769,
      "ĠØªÛĮØ³": 1770,
      "ĠØ¢Ø±": 1771,
      "ĠÚ©Ø§Ù¹": 1772,
      "ÙĦØ§Ø·Ø³": 1773,
      "ĠÙĦØ§Ø¦ÛĮÚº": 1774,
      "ĠÙ¹Ú¾ÙĪ": 1775,
      "ĠÚĪØ±ÙĪ": 1776,
      "ĠØ³ÙħÙĨØ¯Ø±": 1777,
      "ĠÙģØ±Ø´ØªÛģ": 1778,
      "ĠÙ¾ÛĮØºÙħØ¨Ø±": 1779,
      "ĠØ²ÙħØ§ÙĨÛģ": 1780,
      "Ø§Ø¦ÛĴ": 1781,
      "Ú©Ø§Ùħ": 1782,
      "Ø¨Ø§Ø³": 1783,
      "ĠÚ©ÛĮØ¬Ø¦ÛĴ": 1784,
      "ØŃØ§": 1785,
      "ĠÙģÙĪØ±Ø§": 1786,
      "ĠÙĤØµ": 1787,
      "ÙħØ§ÙĨÛĮ": 1788,
      "ĠØµØ¨ØŃ": 1789,
      "ĠØºÙĦ": 1790,
      "ĠÙħØ¹Ø±ÙģØª": 1791,
      "ĠØ¨Ø±Ú©Øª": 1792,
      "ĠØ¬ÛģØ§Ø²": 1793,
      "ĠÙĤØ¯Ùħ": 1794,
      "ĠØ§Ù¹Ú¾Ø§ÙĨÛĴ": 1795,
      "ĠÚ©Ø±Ø¯ÛĮØ§": 1796,
      "ĠØ¯Ø±Ø¯ÙĨØ§Ú©": 1797,
      "ĠÙĨØ§Ù¾Ø§Ú©": 1798,
      "ĠÙ¾ÙĪØ´ÛĮØ¯Ûģ": 1799,
      "ĠØªØ§Ø±ÛĮÚ©": 1800,
      "ĠÙħØ§": 1801,
      "ĠÙħÙĦÛĴ": 1802,
      "ĠÙ¾ÙĨ": 1803,
      "ĠØ¯ÙĨÛĮ": 1804,
      "Ù¾ÛĮ": 1805,
      "Ø´Ø§Ø¯": 1806,
      "ÙĤØ·": 1807,
      "ØŃÙĤÛĮ": 1808,
      "ĠØ¹Ø§ÙĦÙħ": 1809,
      "ÙĪÙĨÚĪ": 1810,
      "Ø¶Ø¨": 1811,
      "ĠØ¬Ø§ÙĨÙĪÚº": 1812,
      "ĠØ¯ÙĪØ¨Ø§Ø±": 1813,
      "ĠØºØ¶Ø¨": 1814,
      "ĠÙĦØ§ÛĮØ§": 1815,
      "ĠÙĤØ±Ø¨Ø§ÙĨÛĮ": 1816,
      "ĠÙħØ§ÙĨÚ¯": 1817,
      "ĠÚ¯Ú¾ÚĳÛĮ": 1818,
      "ĠØ§ØŃØ³Ø§ÙĨ": 1819,
      "ĠÙĨØ´Ø§ÙĨÛĮÙĪÚº": 1820,
      "ĠÙħØ²Ûģ": 1821,
      "ĠÙ¹Ú¾Ú©Ø§ÙĨØ§": 1822,
      "ĠØ¯ÙĨÛĮÙĪÛĮ": 1823,
      "ĠÛģÛĮØ±": 1824,
      "ÙĪØ±ÙĪÚº": 1825,
      "ĠØ¬ÙħØ§Ø¹Øª": 1826,
      "ĠØ±Ø³": 1827,
      "ĠØªÙĪÚĳ": 1828,
      "ĠÚĨÙĨØ§ÙĨÚĨÛģ": 1829,
      "Ø®Ø¯Ø§": 1830,
      "ÙĨØ¯ÙĪÚº": 1831,
      "Ø«ÛĮÙĦ": 1832,
      "ĠØ¨Ø±ÛĴ": 1833,
      "ĠØªÙĦØ§Ø´": 1834,
      "ĠÙ¹Ú¾ÙĪÚ©Ø±": 1835,
      "ĠØ¯ÙĪØ¨Ø§Ø±Ûģ": 1836,
      "ÛģÚ¯Ø§Ø±": 1837,
      "ĠÚ¯Ø§Ûģ": 1838,
      "ĠØªÙħØ«ÛĮÙĦ": 1839,
      "ÙĤÙģ": 1840,
      "ÙĤÙĪÙħ": 1841,
      "ĠÚĨØ§Ø±": 1842,
      "Ø±ÛĮÙģ": 1843,
      "ĠØµØŃÛĮ": 1844,
      "ĠÚ¯ÙĨÛģÚ¯Ø§Ø±": 1845,
      "ĠØŃÙĤÛĮÙĤÛĮ": 1846,
      "ĠÙĨØ§ÙģØ±ÙħØ§ÙĨÛĮ": 1847,
      "ĠØ³Ø±Ú©Ø´ÛĮ": 1848,
      "ĠØ¨ØŃ": 1849,
      "ĠÙĨÙĪØ§Ø²": 1850,
      "ĠØ±Ø¬ÙĪ": 1851,
      "ĠÚ©Ø§ÙģÛĮ": 1852,
      "ĠÚĨØ±": 1853,
      "ĠÚĨÛģØ±": 1854,
      "ĠØ±ÛģÙĨØ§": 1855,
      "ĠØ¯ÛĮÙĨØ§": 1856,
      "ĠØµØ§ØŃ": 1857,
      "ĠØ¯ÙĪÙĦØª": 1858,
      "ĠØ±ÙĪÚ¯Ø±Ø¯": 1859,
      "ĠØ¨ÛĮÙ¹Ú¾Ø§": 1860,
      "ĠØ¯ÙĪØ³Ø±ÛĮ": 1861,
      "ĠØ¬ÛģÙĨ": 1862,
      "ĠØ¨ÚĨÛĴ": 1863,
      "ĠØ³Ø§ØªÚ¾ÛĮ": 1864,
      "ĠØ±Ø¬ÙĪØ¹": 1865,
      "ĠØ±ÙĪÚ¯Ø±Ø¯Ø§ÙĨÛĮ": 1866,
      "ĠÚ©ÙħØ§": 1867,
      "ĠÚ©ÛģÙĦ": 1868,
      "ĠÚ¯Ø±ÙģØª": 1869,
      "ÙģÙĪØ±": 1870,
      "Ø²Øª": 1871,
      "ĠÙģØ³Ø§": 1872,
      "ĠØŃÙħØ¯": 1873,
      "Ø¯Ø§Ø²": 1874,
      "ĠÚĪØ±Ø§": 1875,
      "ĠÚĨØ§ÛģØ§": 1876,
      "ĠØ¨Ø±Ú¯Ø²": 1877,
      "ĠÙħÙĤØ§Ø¨": 1878,
      "ĠØ¨Ú¾Ø§Ú¯": 1879,
      "ĠØ¬ÛģØ§ÙĨÙĪÚº": 1880,
      "ĠØ³ÙħØ¬Ú¾ØªÛĴ": 1881,
      "ĠØ¹Ø²ÛĮØ²": 1882,
      "ĠÙħØµØ±": 1883,
      "Ø¨Ø¹": 1884,
      "ĠÚ©ÛĮØ³Ø§": 1885,
      "ĠÚ©Ø§Ø¦": 1886,
      "ĠØ¨ÛģØªØ§ÙĨ": 1887,
      "Ø¨ÛĮØŃ": 1888,
      "ĠÙħØ¹Ø¬Ø²": 1889,
      "ĠÚ©Ú¾ÙĦØ§": 1890,
      "ĠØ³Ú©ÙĪ": 1891,
      "ĠØ¯ÙĪØ³Ø±Ø§": 1892,
      "ĠØ´Ø±Ùħ": 1893,
      "ĠÙģØ±ÙħØ§ÙĨØ¨Ø±": 1894,
      "ĠØ¢ÛĮØªÛĮÚº": 1895,
      "ĠØ¢ÙĨÚ©Ú¾ÙĪÚº": 1896,
      "ĠÙħØ«Ø§ÙĦ": 1897,
      "ĠÙģØ³Ø§Ø¯": 1898,
      "ÙĦØ¦ÛĴ": 1899,
      "ĠØªØ¯": 1900,
      "ĠÛģÙĪØ¬Ø§": 1901,
      "ĠØ®Ø§ÙĦ": 1902,
      "ĠÙ¾Ø±ÙĪØ±": 1903,
      "ĠÙģÙĤØ·": 1904,
      "ĠØ§ÙĦÙģÙĪØ±": 1905,
      "ĠÙħØ±Ø¯Ûģ": 1906,
      "ĠÙ¹Ú©": 1907,
      "ĠØ¨Ø¯Ø±": 1908,
      "ĠØ°ÙħÛģ": 1909,
      "ĠÙĦÛĮØªØ§": 1910,
      "ĠÙ¾ÙĪØ´Ø§": 1911,
      "ĠØ§ØŃÚ©Ø§Ùħ": 1912,
      "ĠØ§Ø¹ØªØ¨Ø§Ø±": 1913,
      "ĠÙĦØ¹ÙĨØª": 1914,
      "ĠØ·Ø§ÙĤØª": 1915,
      "ĠÙħÛģÙĦ": 1916,
      "ĠØªÙĪØ±": 1917,
      "ĠØ¯Ùħ": 1918,
      "ĠÚ¯Ø±Ø§": 1919,
      "ØŃÙĤ": 1920,
      "ĠØ¹Ø¨Ø±": 1921,
      "ĠØŃÛĮØ§": 1922,
      "ĠØŃÛĮØ±Ø§ÙĨ": 1923,
      "ĠØ§ÛĮÙĦ": 1924,
      "ĠÙħØ±Øª": 1925,
      "ĠØ°Ø§Øª": 1926,
      "ĠØ¬ÛģØ§Ø¯": 1927,
      "ĠØ¨Ø®Ø´Ø´": 1928,
      "ĠØ³ÚĨØ§": 1929,
      "ĠØ¨Ø§ÙĦÚ©ÙĦ": 1930,
      "ĠØªÚ¾ÙĪÚĳÛĮ": 1931,
      "ĠÙģØ±ÛĮØ³ÛĮÙĪÚº": 1932,
      "Ø®ÙĪØ§Ø³Øª": 1933,
      "ĠØ¬ÛģÙĨÙħ": 1934,
      "ĠÙ¾ÙĪØ´Ø§Ú©": 1935,
      "ĠÙħØ¨Øª": 1936,
      "ĠØ³ÙĦ": 1937,
      "ĠØªÙĨ": 1938,
      "ĠÙĨØ³ÙĦ": 1939,
      "ĠÙĦÚ¯ÛĮ": 1940,
      "ĠØ¢ÚĨ": 1941,
      "ÛĮØ±ÛĮ": 1942,
      "ĠØ§ÙĦÚ¯": 1943,
      "ĠÙĦÙĪØ·": 1944,
      "ĠØ¨ÙĨÙĪ": 1945,
      "ĠÛģØ§ØªÚ¾ÙĪÚº": 1946,
      "ĠØ¢Ú¯Ø§Ûģ": 1947,
      "ĠÚĨÚ¾Ù¾Ø§": 1948,
      "ĠØ¬Ú¾ÙĪÙ¹": 1949,
      "ĠØ¬Ú¾Ù¹ÙĦØ§": 1950,
      "ĠÚ©Ø§ÛģÙĨÙĪÚº": 1951,
      "ĠØªØ³Ø¨ÛĮØŃ": 1952,
      "ĠÚ©ÙħØ²ÙĪØ±": 1953,
      "ÙĤØ±Ø§Ø±": 1954,
      "ĠÛģÙĪÙĨÚ¯ÛĴ": 1955,
      "ĠØ³ÙĪØ±Ø¬": 1956,
      "ĠÚ©Ù¾ÚĳÛĴ": 1957,
      "ĠØ§ÙĨØªØ¸Ø§Ø±": 1958,
      "ĠÛģÛĮØ±ÙĪØ¯ÛĮ": 1959,
      "ĠÙħØ¨ØªÙĦØ§": 1960,
      "Ú©Ø³": 1961,
      "Ø±ÙĪÚº": 1962,
      "ĠØ§ÙĪÙĨ": 1963,
      "ĠÙħÙĨØ¯": 1964,
      "ĠØ¨Ø§Ûģ": 1965,
      "ĠÙĨÛĮØ§": 1966,
      "ĠÙĨÚ¯Ûģ": 1967,
      "ĠØ¢Ø±Ø§Ùħ": 1968,
      "Ú¾ÛĮÙĦ": 1969,
      "ĠÚĨÙ¾": 1970,
      "ĠÙĤØ§Ø¯Ø±": 1971,
      "ĠØ¬Ø³ÙħØ§ÙĨÛĮ": 1972,
      "ĠÙ¾ÛĮÙ¹": 1973,
      "ĠØ¯Ø±Ø®ÙĪØ§Ø³Øª": 1974,
      "ÙĪÛģÛĮ": 1975,
      "ĠØ±ÙĪØŃØ§ÙĨÛĮ": 1976,
      "ĠÚ¯Ú¾Ø±ÙĪÚº": 1977,
      "ĠØ±ØŃÙħØ§ÙĨ": 1978,
      "ĠØ¨ÚĨÙĪÚº": 1979,
      "ĠØ³ÚĨØ§Ø¦ÛĮ": 1980,
      "ĠØ§ÙģØ³ÙĪØ³": 1981,
      "Ú©Ø§Ø±ÛĮ": 1982,
      "ĠØ³Ù¾": 1983,
      "Ú¯ÛĮØ§": 1984,
      "ĠÙ¾ÚĳØ§": 1985,
      "ĠØ¯ÛĮØ±": 1986,
      "ĠØ§Ø³Øª": 1987,
      "ĠÛģÙĪÚ©Ûģ": 1988,
      "ĠÛģÙĪØ³Ú©": 1989,
      "ĠÚĨØ§ÙĨ": 1990,
      "ĠØ´Ûģ": 1991,
      "Ù¹Ú©": 1992,
      "ĠÙ¾ÙĪØ±ÛĴ": 1993,
      "ĠÙ¾Ø§Ú©ÛĮØ²Ûģ": 1994,
      "ĠØ¬Ú¾ÙĪÙ¹ÛĴ": 1995,
      "ĠÚ©ØªÙĨÛĮ": 1996,
      "ĠØªØ¯Ø¨ÛĮØ±": 1997,
      "ĠÙħÛģÙĦØª": 1998,
      "ĠÙĪØ±": 1999,
      "Ø§Ù¾": 2000,
      "ÙĪÛĴ": 2001,
      "ĠØ§ÚĨÚ¾ÛĴ": 2002,
      "ĠØ§ÙħØ±": 2003,
      "ĠÛģØ§Ø±": 2004,
      "ĠÙħÚĨÚ¾": 2005,
      "ĠØ¨Ø´Ø±": 2006,
      "ĠØ³ÙħÛĮ": 2007,
      "ĠØ¬Ú¾ÛĮÙĦ": 2008,
      "ĠÙ¾Ø§ÙĨÛĴ": 2009,
      "ĠÙĦÚ©": 2010,
      "ÙģÙĪ": 2011,
      "ĠØ´Ø§ÙĨ": 2012,
      "ĠÙħØ±ÙĨÛĴ": 2013,
      "ĠØ¯ÛĮÚ©Ú¾ØªØ§": 2014,
      "ĠÙħØŃØªØ§": 2015,
      "ĠÚĪØ±ØªØ§": 2016,
      "ĠØ¹ÙħØ±": 2017,
      "ĠØ¬ÙĦØ¯ÛĮ": 2018,
      "ĠÛĮÛģÙĪØ¯ÛĮÛģ": 2019,
      "ĠØ§Ø®ØªÙĦØ§Ùģ": 2020,
      "ĠØ¢Ø®Ø±": 2021,
      "ĠÙħÙĨØ§ÙģÙĤ": 2022,
      "ĠØ¯Ú©Ú¾Ø§Ø¦ÛĮ": 2023,
      "ĠØºÛĮØ±ÙĤÙĪÙħ": 2024,
      "ĠÙħØµÙĦÙĪØ¨": 2025,
      "ĠÙħØ¨Ø§Ø±Ú©": 2026,
      "ĠØ³Ø§ÙĦ": 2027,
      "ĠÙ¾Ø§ÙĨ": 2028,
      "ĠÙ¾ÚĨÚ¾": 2029,
      "ĠØ¯Ùģ": 2030,
      "ĠØ¯ÙĦØ§": 2031,
      "ĠÚ©ÛģÛĮ": 2032,
      "ĠØ§ÙĨØ¯Ø§Ø²": 2033,
      "ĠÙ¾Ø±Ø³": 2034,
      "ĠÙĦÙĪÚ¯ÙĪ": 2035,
      "ÙģØ±Øª": 2036,
      "ĠÙĤØ¨ÙĦ": 2037,
      "ĠÙ¹Ú¾ÛģØ±ÛĴ": 2038,
      "ĠØ±ÙĪØ´ÙĨÛĮ": 2039,
      "ĠØªØ³ÙĦÛĮ": 2040,
      "ĠÙħØ®Ø§ÙĦÙģØª": 2041,
      "ĠÛģÛĮØ±ÙĪØ¯ÛĮØ³": 2042,
      "ÙĪØ¬": 2043,
      "ÙĪØ²": 2044,
      "ĠØ§Ø²": 2045,
      "ĠØ³Ú©Ú¾Ø§": 2046,
      "ĠØªØ®Øª": 2047,
      "ĠØ§ÙĪØ±ÙĪÚº": 2048,
      "ÛĮØ§Ø¯": 2049,
      "ĠÙĨÛģØ±": 2050,
      "ĠÙģÙĦ": 2051,
      "ĠØ¬Ø¨Ú©Ûģ": 2052,
      "ĠØºÙĦØ§Ùħ": 2053,
      "ÙħÛĮÙĨØ§ÙĨ": 2054,
      "ĠÙħÙĪØ³ÛĮ": 2055,
      "ĠÙħØŃÙģÙĪ": 2056,
      "ĠØªØ¹Ø±ÛĮÙģ": 2057,
      "ĠÙħØ®ÙĦÙĪ": 2058,
      "ĠÙĪØ§ÙĤØ¹ÛĮ": 2059,
      "ĠÚ¯Ø²Ø§Ø±": 2060,
      "ĠÙĨÙģØ³": 2061,
      "ĠÚĨÚĳÚ¾": 2062,
      "ĠØ§Ø·ÙħÛĮÙĨØ§ÙĨ": 2063,
      "ĠÚ©Ø§Ø¦ÙĨ": 2064,
      "ÙĪØ¨": 2065,
      "ĠØ§Ø¬Ø§": 2066,
      "ĠÙħÙ¹ÛĮ": 2067,
      "ĠØ¯Ú¾": 2068,
      "ĠØ¯ÙĦÛĮÙĦ": 2069,
      "ĠØ±ÛĮØ§": 2070,
      "ĠØ±Ø®Øµ": 2071,
      "Ø¹Ûģ": 2072,
      "ĠØ¢Ø¤": 2073,
      "Ø¬ÛĮØ¯": 2074,
      "ĠØ®Ø²": 2075,
      "ĠØ¹Ø§": 2076,
      "ĠØ¹ÛĮØ¯": 2077,
      "Ú¾Ø§Úĳ": 2078,
      "ĠÚĨÚ©ÛĮ": 2079,
      "ØµÙĪÙĦ": 2080,
      "ĠÙ¾ÛģÙĦÛĮ": 2081,
      "ĠÙ¾ÛĮÙĦØ§Ø·Ø³": 2082,
      "ĠÚ©Ú¾Ø§ØªØ§": 2083,
      "ĠØ³ÙĨÛĮÚº": 2084,
      "ĠÙħØŃÙĨØª": 2085,
      "Ø¸Ø±": 2086,
      "ĠÚ¯ÙĪØ´Øª": 2087,
      "ĠÙĨÛĮÚ©ÙĪ": 2088,
      "ĠÙħÙĦØ§ÙħØª": 2089,
      "ĠÙħÙĤØ¯Ø³ÙĪÚº": 2090,
      "ĠØ¯Ø±ÙĪØ§Ø²Ûģ": 2091,
      "ĠØ¨Ø¯Ø±ÙĪØŃ": 2092,
      "ĠÙ¾Ø§ÙĨÚĨ": 2093,
      "ĠÙħØŃÙģÙĪØ¸": 2094,
      "ĠØ±Ø®ØµØª": 2095,
      "ÙĪØ¶": 2096,
      "ĠÚ©Ø¦ÛĮ": 2097,
      "ĠÙħÙĦÛĮ": 2098,
      "ĠÙħØ´Ú©": 2099,
      "ĠØ¨ÛĮØ§Ûģ": 2100,
      "ĠÙĨÚ¯Ø§Ûģ": 2101,
      "ĠÙĨØ°Ø±": 2102,
      "ĠÙĦØ´Ú©Ø±": 2103,
      "ĠÚ¯Ø¦ÛĮÚº": 2104,
      "ÛĮØ§Ø¡": 2105,
      "Ø¹Ø§Ùħ": 2106,
      "Ø§ÙĦØŃ": 2107,
      "ØŃØ§ÙĦ": 2108,
      "ÚĳÙĪÚº": 2109,
      "Ø¯Ø§Ø´Øª": 2110,
      "ĠØ¯ÛĮÙĪ": 2111,
      "ĠØ®Ø¯Ø§Ø¦ÛĴ": 2112,
      "ĠØ¯ÙĪÚĳ": 2113,
      "ÛĮØ²ÛĮ": 2114,
      "ĠØªÚ©Ø¨Ø±": 2115,
      "ĠØ¨Ø¯ÙĦÛĴ": 2116,
      "ÙĪØ³Ûģ": 2117,
      "ÙģØ§Ø¸": 2118,
      "ĠÙĨÙģØ¹": 2119,
      "ĠÚĪÚ¾ÙĪÙĨÚĪ": 2120,
      "ĠØ·Ø±ÛĮÙĤ": 2121,
      "ĠÛĮÛģÙĪØ¯Ø§Ûģ": 2122,
      "ĠØ³Ù¾Ø§ÛģÛĮ": 2123,
      "ĠÚ©Ø§Ø¦ÙĨØ§Øª": 2124,
      "ĠØ§Ø´": 2125,
      "ÙħÛĮØ±": 2126,
      "ĠØ³ÛĮÙĨ": 2127,
      "ĠØ¢Ø¬Ø§Ø¦ÛĴ": 2128,
      "Ø²Ø§Ø±": 2129,
      "ĠÙĤØ§Ø¨": 2130,
      "Ù¹Ú¾Ø§": 2131,
      "ØµØ±ÛĮ": 2132,
      "ĠÙ¾ÛģÙĨ": 2133,
      "ĠØ¯ÛĮÚ©Ú¾ÛĮ": 2134,
      "ĠÙħØ¹Ùħ": 2135,
      "ĠØ³ÙĪØ§ÙĦ": 2136,
      "Ø«Ø±Øª": 2137,
      "ĠØ§Ø¨Ø¯": 2138,
      "ĠØ§Ø¨ÙĦÛĮØ³": 2139,
      "ĠÙħÙĪÙĤØ¹": 2140,
      "ĠÙ¾ÛģÙĨÚĨÛĮ": 2141,
      "ĠØ§ØªØ§Ø±ÛĮ": 2142,
      "ĠØµÙĦÛĮØ¨": 2143,
      "ĠØ¨Ø§Ø±Ú¯Ø§Ûģ": 2144,
      "ĠÙħÙĤØ±Ø±Ûģ": 2145,
      "ĠØ¢Ø²Ø§Ø¯": 2146,
      "ĠÙĨØ¹ÙħØªÙĪÚº": 2147,
      "ĠØ±Ø§Ø¶ÛĮ": 2148,
      "ĠÙĪÛĮØ³Ø§": 2149,
      "ĠØªØ®ÙĦÛĮ": 2150,
      "ĠÙ¾ÙĨØ§Ûģ": 2151,
      "ĠÙħØŃØªØ§Ø¬": 2152,
      "ĠÙĨÛģØ±ÛĮÚº": 2153,
      "ĠØ§Ø¬Ø§Ø²Øª": 2154,
      "ĠØ¹Ø§Ø¬Ø²": 2155,
      "Ġ(": 2156,
      "ÙĪØ¬ÙĪØ¯": 2157,
      "ÛģÙĪØ±": 2158,
      "Ú©ØªØ§": 2159,
      "ÙĨØ³": 2160,
      "ĠØ³Ø§Ø±Ø§": 2161,
      "ĠØªÛģ": 2162,
      "ĠØªØµ": 2163,
      "ĠÚ©ÛĮØ³ÛĴ": 2164,
      "ĠØ§ÙĨØ¹Ø§Ùħ": 2165,
      "ÚĨØ§": 2166,
      "ĠØ®Ø·": 2167,
      "Ø²Ùħ": 2168,
      "ĠÚĨØ±Ø§": 2169,
      "ĠØŃØ±": 2170,
      "ĠØ¨ÛĮØª": 2171,
      "ĠØ²Ø¨Ø±": 2172,
      "Ø·ÙĨØª": 2173,
      "ĠØ¯Ø±Ø³Øª": 2174,
      "ĠØ³ÙĪØ§Ø±": 2175,
      "ĠØ±Ú©Ú¾ÙĨØ§": 2176,
      "ĠØ¨Ø±Ø¯Ø§Ø´Øª": 2177,
      "ĠÚ©Ø§ÙħÛĮØ§": 2178,
      "ĠØ°ÙĦØª": 2179,
      "ĠÙħÙĨÚ©Ø±": 2180,
      "ĠÙĤØ±Ø¨Ø§ÙĨ": 2181,
      "Ú©Ø§Ø±ÙĪÚº": 2182,
      "ĠØ§ÙĨØ¯Ú¾ÛĴ": 2183,
      "ĠÙħØ²ÛĮØ¯": 2184,
      "ĠØ´Ø§ÙħÙĦ": 2185,
      "ĠØ¯Ø±ÛĮØ§ÙģØª": 2186,
      "ĠØ³ÛĮØ¯Ú¾ÛĮ": 2187,
      "ØŃØ§Ø¸": 2188,
      "ĠÙħÙĤØ§Ø¨ÙĦÛģ": 2189,
      "ĠØªØ®ÙĦÛĮÙĤ": 2190,
      "ÛĮØ¹": 2191,
      "ĠÚ©ÙĦ": 2192,
      "ĠØ§ÙĤØ±Ø§Ø±": 2193,
      "ÙĦÙģ": 2194,
      "ÙĦØŃ": 2195,
      "ĠØªÙĤÙĪ": 2196,
      "Ù¾Ø·Ø±Ø³": 2197,
      "ĠØªÙħØ¬ÛĮØ¯": 2198,
      "ĠØ®ÛĮ": 2199,
      "ĠØ¹Ø¬": 2200,
      "ÛĮØ±ÙĪÚº": 2201,
      "ĠØºØ±ÛĮØ¨": 2202,
      "Ø®ØªÛģ": 2203,
      "ĠØ§Ø¨Øª": 2204,
      "ĠÚĪØ§ÙĦÛĮÚº": 2205,
      "ĠØ¬ÛģØ§ÙĨ": 2206,
      "ĠØ¨Ø®Ø´Ø§": 2207,
      "ĠØ¹ÙĪØ±ØªÛĮÚº": 2208,
      "ĠØ¨ÙĪÙĦÛĴ": 2209,
      "ĠÙħÙĨØ§Ø³Ø¨": 2210,
      "ĠÚĨÚ¾Ù¾": 2211,
      "ĠØ±ÙĪØ²Ûģ": 2212,
      "ĠÙħÙĪÙħÙĨÙĪÚº": 2213,
      "ĠØ¨ÛĮÙħØ§Ø±ÛĮ": 2214,
      "ĠØ¨Ø²Ø±Ú¯ÙĪÚº": 2215,
      "ĠÙħØ°Ø§ÙĤ": 2216,
      "ĠØµØŃÛĮØŃ": 2217,
      "ĠØµØ§ØŃØ¨": 2218,
      "ĠØ¨Ø±Ú¯Ø²ÛĮØ¯Ûģ": 2219,
      "ĠØ³ÙĦØ·ÙĨØª": 2220,
      "ĠØ³ÙħÛĮØª": 2221,
      "ÙģØ§Ø¸Øª": 2222,
      "ĠØ§Ø¯": 2223,
      "ÙĨÚ©": 2224,
      "ÙĨÚĪ": 2225,
      "ĠÙħØ§Øª": 2226,
      "ĠÙĨØ¦ÛĮ": 2227,
      "ĠØ¬ÙĦØ§": 2228,
      "ĠØ¬Ø§Ø±ÛĮ": 2229,
      "Ø¨Ú¾": 2230,
      "Ø¨Ø±Ø§": 2231,
      "ĠÙĦØŃØ§Ø¸": 2232,
      "ĠÚ©Ø§Ø´": 2233,
      "ĠÚĨÙĪÙĨÚ©Ûģ": 2234,
      "ĠØŃØ¬": 2235,
      "ĠØŃÙģØ§Ø¸Øª": 2236,
      "ÙĦÛĮÙħØ§ÙĨ": 2237,
      "ĠØµØ§ÙĦØŃ": 2238,
      "ĠØµÙĦØŃ": 2239,
      "ĠÙģØ±ÙħØ§Ø¦ÛĮÚº": 2240,
      "ĠÙ¾Ú¾Ø±ØªÛĴ": 2241,
      "ĠØºØ±": 2242,
      "ĠÙħØ¹ÙĨÛĮ": 2243,
      "Ú¯ÛĮÙĨ": 2244,
      "ĠØ³ÙĨÚ¯": 2245,
      "Ø³ØªÛģ": 2246,
      "ÛĮÛģÛĮ": 2247,
      "ĠÙĤØ±Ø¶": 2248,
      "ĠÚĨÚĳÚ¾Ø§": 2249,
      "ĠÚ©Ø±Ø³Ú©ØªØ§": 2250,
      "ĠØ¬Ú¾Ú¯Úĳ": 2251,
      "ĠÙ¾Ø±ÛģÛĮØ²Ú¯Ø§Ø±ÙĪÚº": 2252,
      "ĠØºÙĦØ¨Ûģ": 2253,
      "ØŃÙĤÛĮÙĤØª": 2254,
      "ĠØ§Ø¨ØªØ¯Ø§": 2255,
      "ÙĪØ³ÛĮ": 2256,
      "ÙĪÙħØª": 2257,
      "ÙħÙĦ": 2258,
      "ĠÙħÙģ": 2259,
      "ĠØ¨Ø¯ÛĮ": 2260,
      "ÙĪØ±Ûģ": 2261,
      "Ø¨ÙĪÙĦ": 2262,
      "ĠØ±ÙĨ": 2263,
      "Ø²ÙĪ": 2264,
      "ĠØ¹Ø¯Ø§": 2265,
      "Ø·ÙĨ": 2266,
      "Ø·Ùģ": 2267,
      "Ø§ÙħÙĦÛģ": 2268,
      "ĠÛĮØ§ÙģØªÛģ": 2269,
      "Ú©ÛĮÛģ": 2270,
      "ĠÙĨØ§Ø´Ú©Ø±": 2271,
      "ĠØ¨ÚĨÛģ": 2272,
      "ĠÚ¯Ú¾Ù¹": 2273,
      "ĠØ¬Ú¾ÙĪÙ¹Ø§": 2274,
      "ĠÚ©Ú¾ÛĮØª": 2275,
      "ĠÚ©Ú¾ÛĮÙĨÚĨ": 2276,
      "ĠØ¨ÙĪÙĦÙĨÛĴ": 2277,
      "ĠØ¢Ø²ÙħØ§ÛĮØ´": 2278,
      "ĠØ¨Ø§ØºØ§Øª": 2279,
      "ĠÙħØ³ÙĦÙħØ§ÙĨÙĪÚº": 2280,
      "ĠØ¬Ø§Ø¯ÙĪÚ¯Ø±": 2281,
      "ĠÙĦÙĪÙ¹Ø§Ø¦ÛĴ": 2282,
      "ĠØ³ÙħØ¬Ú¾Ø§": 2283,
      "ĠØ¹ÙĦØ§ÙĤÛģ": 2284,
      "ĠØ¹Ø¨Ø±Øª": 2285,
      "ĠØ¹Ø¯Ø§ÙĪØª": 2286,
      "ĠÚ©Ø«Ø±Øª": 2287,
      "ØªØ¨": 2288,
      "ØªÙĨÛģ": 2289,
      "ÙĦØªÙħ": 2290,
      "ĠÙħÚ©Ûģ": 2291,
      "ĠÙħØ§Ø±ÛĴ": 2292,
      "ĠÙħØªÙĪ": 2293,
      "Ø¯ØªÛĮ": 2294,
      "Ø¯Ú¯Ø§Ø±": 2295,
      "ĠØ¯Ø³": 2296,
      "ĠÚ¯ÙĨØ§": 2297,
      "ÛĮØ§Ø³": 2298,
      "ĠØ®ØªÙĨÛģ": 2299,
      "ĠØªÙĪÙĨÛĴ": 2300,
      "ÛĮÚ©Ûģ": 2301,
      "Ø¦ÛĮÛĴ": 2302,
      "Ù¹ÛĮØ§Úº": 2303,
      "ĠØ¯ÙĪÙĦØªÙħ": 2304,
      "ĠØºÛĮØ¨": 2305,
      "ĠØŃÚ©ÙĪÙħØª": 2306,
      "ĠÙĨÚ©ÙĦØ§": 2307,
      "ĠØ²ÛĮØ§Ø¯ØªÛĮ": 2308,
      "ØªÙħÛģ": 2309,
      "ĠØ¨ÙĦØ§Ø¦ÛĴ": 2310,
      "ÙĤÙĪÙģ": 2311,
      "ĠÙĨØ¸Ø§Ùħ": 2312,
      "ĠØºÙħÚ¯ÛĮÙĨ": 2313,
      "ĠÚ©Ø±Ø³Ú©ØªÛĴ": 2314,
      "ĠØ¨Ú¾ÙĪÙĦ": 2315,
      "ĠØ®ÛĮØ±Ø§Øª": 2316,
      "ĠØ¯Ø³ØªÙĪØ±": 2317,
      "ĠØ¨ØŃØ«": 2318,
      "ĠÚ©ÛģÙĦØ§ØªØ§": 2319,
      "ĠÙ¾Ø±ÙĪØ±Ø¯Ú¯Ø§Ø±": 2320,
      "ĠØ¹Ø¬ÛĮØ¨": 2321,
      "ĠØ§Øµ": 2322,
      "ĠØ§ÚĳØ§": 2323,
      "ĠØ¨Ú©": 2324,
      "ĠØ³Ù¾Ø±": 2325,
      "ĠØ³ÙĦÛĮÙħØ§ÙĨ": 2326,
      "ĠØªÙĨÚ¯": 2327,
      "ĠÙĨØ§Ø¯": 2328,
      "ĠØ¬Ø²Ø§": 2329,
      "ĠÙ¾Ø§Ø±": 2330,
      "ĠÚ¯Ø±ÛĮ": 2331,
      "ĠÛģÙĪØ´": 2332,
      "ĠØ¹Ø§Ø¯": 2333,
      "ĠÚĨÙĨ": 2334,
      "ĠÚĨÚ©Ú¾": 2335,
      "ĠØ¨Ø§ÙĪØ¬ÙĪØ¯": 2336,
      "ĠØ±ÙĪØ§": 2337,
      "ĠÚ©Ú¾ÙĦ": 2338,
      "ĠÚ©Ú¾ÙĦÛĮ": 2339,
      "ĠÙĦØ§ÙĪ": 2340,
      "ĠØ³ÙĨÙĪ": 2341,
      "ĠÚĨÙĦÙĨÛĴ": 2342,
      "ĠÛģÙĪÚ¯Ø¦ÛĮ": 2343,
      "ĠØ¬Ú¾Ù¹ÙĦ": 2344,
      "ĠØ§Ø¹ØªÙĤ": 2345,
      "ĠØ¢Ø²ÙħØ§Ø¦Ø´": 2346,
      "ĠØ¬ØªÙĨÛĴ": 2347,
      "ĠÛĮÙĪÙĨØ§ÙĨÛĮ": 2348,
      "ĠØ¹Ø¸ÛĮÙħ": 2349,
      "ĠÙĤØµÙĪØ±": 2350,
      "ĠØ±Ø³Ø§ÙĦØª": 2351,
      "ĠÙħÚĨÚ¾ÙĦÛĮ": 2352,
      "Ø§ï·²": 2353,
      "ÙĪØ§Ûģ": 2354,
      "ĠÚ©ÛĮÚº": 2355,
      "ĠÚ©ÙħØ§ÙĦ": 2356,
      "ĠØ§ÙĪÙĦ": 2357,
      "ÙħØ§Ø±": 2358,
      "ÙħÙĪØ³": 2359,
      "ĠÛģÙĦ": 2360,
      "ÙĦØ³": 2361,
      "ĠÙħØ²Ø¯": 2362,
      "ĠØ³ÙģØ±": 2363,
      "Ø¨Ø§ÙĦ": 2364,
      "Ø§ÙĨÚ©": 2365,
      "ĠØ§ÙĨØ³": 2366,
      "ĠÛģÙĪØ¬Ø§Ø¦ÛĴ": 2367,
      "ĠÙģØ³": 2368,
      "Ø±ÛĮÙĨ": 2369,
      "ĠÙ¾ÛĮÙ¹Ú¾": 2370,
      "ĠØ¨Ø±ÙĨ": 2371,
      "ĠØ¨Ø±Ø¨Ø§Ø¯": 2372,
      "ĠØ³ÙĨØªØ§": 2373,
      "ĠØ¸Ø§Ûģ": 2374,
      "ĠÙħÙĤØ¯": 2375,
      "Ø´ØªØ±": 2376,
      "ĠØ§Ø¹Ø¶Ø§": 2377,
      "ĠÚĨÙĦÛĮÚº": 2378,
      "ĠØ§Ù¹Ú¾Ø§ÛĮØ§": 2379,
      "ĠÚ¯Ú¾Ø¨Ø±Ø§": 2380,
      "ĠØ³Ø±Ø¯Ø§Ø±ÙĪÚº": 2381,
      "ĠÙĦÚ¯ÛĮÚº": 2382,
      "ĠØ¯Ú©Ú¾Ø§Ø¦ÛĴ": 2383,
      "ĠØªØ¨Ø§Ûģ": 2384,
      "ĠØªÚ¾ÙĪÚĳÛĴ": 2385,
      "ĠØªÚ¾ÙĪÚĳØ§": 2386,
      "ĠØ³Ø±Ú©Ø´": 2387,
      "ĠØ¬Ú¾Ú¯ÚĳØ§": 2388,
      "ĠØ´Ø§ÛĮØ¯": 2389,
      "ÙħÚ©ÙĨ": 2390,
      "ĠØ§Ú¯ÙĦÛĴ": 2391,
      "ĠØªÛĮØ³Ø±ÛĴ": 2392,
      "ĠÙĪØ±ÙĨÛģ": 2393,
      "ĠØ³Ù¾Ø±Ø¯": 2394,
      "Ø§Ø¯Ûģ": 2395,
      "ÙĪØ¨Ûģ": 2396,
      "ĠÙħØ³Øª": 2397,
      "ĠØ¨ÛĮØ§": 2398,
      "ĠØ¨Ø´": 2399,
      "ĠØ¨ÙĨÛĴ": 2400,
      "ĠØ¨Ø¬Ø§": 2401,
      "ĠØ³ÛĮØ±": 2402,
      "ĠØªÙĤ": 2403,
      "Ú¯Ø§Ø±ÛĮ": 2404,
      "ĠÙ¾Ú¾ÙĪ": 2405,
      "ĠØ¯Ø§ÙĨ": 2406,
      "ĠØ¯Ø§ÙĨØ§": 2407,
      "ĠØ§Ø³ÙĦØ§Ùħ": 2408,
      "ĠÙĦØ§ØªØ§": 2409,
      "ĠÚ©ÛģØªÛĮ": 2410,
      "ĠØ±Ø§Ø³": 2411,
      "ĠØ¢ØªÛĮ": 2412,
      "ĠÙ¾Ø±Ø¯Ûģ": 2413,
      "ĠØ´ÙħØ§Ø±": 2414,
      "ĠØ±ÛģÙĪÚº": 2415,
      "ĠØ²ÙĨØ§": 2416,
      "Ø·Ûģ": 2417,
      "Ø±Ø§Ø¯": 2418,
      "ĠØ¯ÛĮÚ©Ú¾ÛĴ": 2419,
      "Ø¯ÛĮÙĤ": 2420,
      "Ú©ÛĮÙĨ": 2421,
      "ĠØ§Ù¹Ú¾ÛĴ": 2422,
      "ĠØ¯Ø§Ø¦": 2423,
      "ĠÙĪØ§ÙĤÙģ": 2424,
      "ĠØ¨Ø§Ø¯ÙĦ": 2425,
      "ĠÙ¾Ú¾Ù¹": 2426,
      "ĠÚ©Ú¾Ø§ÛĮØ§": 2427,
      "ĠÚ©Ú¾Ø§Ø¦ÛĴ": 2428,
      "ĠÙ¾Ú¾ÛĮÙĨÚ©": 2429,
      "ĠÙĦÚĳÚ©ÛĮ": 2430,
      "ĠÙ¾ÛģØ§ÚĳÙĪÚº": 2431,
      "ĠØ¯ÛģÙĨÛĮ": 2432,
      "Ø§ÛĮÙħØ§ÙĨ": 2433,
      "ĠÙ¾ÛĮØºØ§Ùħ": 2434,
      "ĠÙħØ®Ø§ÙĦÙģ": 2435,
      "ĠÙħØºÙģØ±Øª": 2436,
      "ĠØºÛĮØ±ÙĤÙĪÙħÙĪÚº": 2437,
      "ĠØ§ÙħØ§ÙĨ": 2438,
      "ÙħÙĪØ¯": 2439,
      "ĠÛģØ²Ø§Ø±": 2440,
      "ĠØ³ØªØ§": 2441,
      "ĠØ³ÙĨÛĮ": 2442,
      "ĠØªØŃ": 2443,
      "Ø¯ÙĨ": 2444,
      "Ø¯Ø³Øª": 2445,
      "Ø§ÙĨÙ¾": 2446,
      "Ø§Ø±Ø´Ø§Ø¯": 2447,
      "Ø¬Øª": 2448,
      "ĠØ¹ÛĮØ³": 2449,
      "ÚĳÚ©": 2450,
      "ĠÙģÙĪØ¬": 2451,
      "ĠØ¨Ø§Ø´": 2452,
      "ĠÙ¾Ø§ÙĪÚº": 2453,
      "ĠÙħØ¹Ø§": 2454,
      "ĠØªØ§Ú©": 2455,
      "ĠÚĨØ§ÛģÛĮÚº": 2456,
      "ĠØ¨Ø±Øª": 2457,
      "ØºØ±Ø¶": 2458,
      "ĠØ¯Ø§ÙĪØ¯": 2459,
      "ĠÙħÙĨØ¹": 2460,
      "ĠÚĪØ§ÙĦÛĴ": 2461,
      "ĠØ¨Ø§Ø±Ø´": 2462,
      "ĠØ¨ÙĨØ¯ÛĴ": 2463,
      "ĠÚ©ÙĨØ§Ø±Ûģ": 2464,
      "ĠØªØ±ÙĤÛĮ": 2465,
      "ĠØ¨Ø§ÙĦØ§": 2466,
      "ÙģÛĮÙĤ": 2467,
      "ĠØ³ÙĦØ§ÙħØªÛĮ": 2468,
      "ĠÙħØ¹Ø§ÙģÛĮ": 2469,
      "ĠÙĤÛĮØµØ±": 2470,
      "ĠØ¯Ø±ÙĪØ§Ø²ÛĴ": 2471,
      "Ø®Ø¯Ø§ÙĪÙĨØ¯": 2472,
      "ĠØ§ÛĮÙĦÛĮØ§Ûģ": 2473,
      "ĠÙĨÚ¯ÛģØ¨Ø§ÙĨ": 2474,
      "ĠÛģØ§Ø±ÙĪÙĨ": 2475,
      "ĠÙģÙĦÙ¾Ø³": 2476,
      "ĠØªØµØ¯ÛĮÙĤ": 2477,
      "ĠØ¨ÛĮØ§Ø¨Ø§ÙĨ": 2478,
      "ĠØ§Ø°": 2479,
      "ÙħÙĦÛģ": 2480,
      "ÙĦÛĮÚº": 2481,
      "ÙĦÛĮØ§": 2482,
      "ĠÙħÛĮÙĦ": 2483,
      "ĠØ³Ø®": 2484,
      "ĠØªÙĦÙĪ": 2485,
      "Ø¯ÛĮÚ©": 2486,
      "ĠÙĪØ·ÙĨ": 2487,
      "ĠÚ©Ø±Ø³": 2488,
      "ĠÚ©Ø±Ø¯Ûģ": 2489,
      "ĠÚ©ÛģÙĦØ§": 2490,
      "ĠÚ¯Ø°": 2491,
      "ĠØ±Ø´ØªÛģ": 2492,
      "ĠÛģÙĪØ¬": 2493,
      "Ú¾ÛĮØ±": 2494,
      "ĠØ¹ÛĮØ¨": 2495,
      "ĠÚĨÚ©": 2496,
      "ĠÚĨÚ¾Ø§": 2497,
      "Ø¯Ø§Ø¯": 2498,
      "ĠÙĤØ·": 2499,
      "ĠØ²Ú©ÙĪ": 2500,
      "ĠØ¯ÛĮØ§ÙĨØª": 2501,
      "ĠØ®ÙĪØ§Ø¨": 2502,
      "ĠØµÙĪØ¨Ûģ": 2503,
      "ĠØ±ÙĪÙ¹ÛĮØ§Úº": 2504,
      "ĠÙ¾ÛĮÙĨÛĴ": 2505,
      "ĠÙ¾ÛĮØ´ØªØ±": 2506,
      "ÛĮØ²Ú¯ÛĮ": 2507,
      "ĠØ¨ÛģØªÛĮØ±ÛĴ": 2508,
      "ĠÙĦØ§Ø²Ùħ": 2509,
      "ĠÙħØŃØµÙĪÙĦ": 2510,
      "ĠÙĨØ§ØŃÙĤ": 2511,
      "ĠØ¢Ø³Ø§ÙĨ": 2512,
      "ĠØ³Ú©ØªÛĮ": 2513,
      "ĠÚ©Ú¾Ø§ÙĪ": 2514,
      "ÚĳÛĮÙĪÚº": 2515,
      "ĠØ´ÛģØ±ÙĪÚº": 2516,
      "ĠØ¨Ú¾Ø±ÙĪØ³Ûģ": 2517,
      "ĠÙħÙĦØ§ÙĤØ§Øª": 2518,
      "ĠÙ¹Ú¾ÛģØ±Ø§ÛĮØ§": 2519,
      "ĠØ¨ÛĮÙħØ§Ø±": 2520,
      "ĠØ·Ø±ÛĮÙĤÛģ": 2521,
      "ĠØ¢Ø±Ø²ÙĪ": 2522,
      "ĠÙ¹Ú©ÚĳÛĴ": 2523,
      "ĠØªÙĪØ±Ø§Øª": 2524,
      "ĠØ¨Ø§ÛģÙħ": 2525,
      "ĠÙĨÛĮØ§Ø²": 2526,
      "ĠÛģÙĪØ³Ú©ØªØ§": 2527,
      "ĠÚĨØ§ÙĨØ¯": 2528,
      "ĠÚĨØ±Ø§Øº": 2529,
      "ĠÚ©Ø§ÙħÛĮØ§Ø¨ÛĮ": 2530,
      "ĠØ¯ÙĪÙĦØªÙħÙĨØ¯": 2531,
      "ĠØ§Ø¹ØªÙĤØ§Ø¯": 2532,
      "ĠØ¨Ø±ÙĨØ¨Ø§Ø³": 2533,
      "ĠØ§Úĳ": 2534,
      "ĠØ³Ûģ": 2535,
      "ĠØ¬Úĳ": 2536,
      "ĠÙ¾Ø®ØªÛģ": 2537,
      "ĠØ±Ø¶Ø§": 2538,
      "ĠØ¢Øª": 2539,
      "ĠØ¢Ø¬Ø§": 2540,
      "ĠØ®Ø·Ø§": 2541,
      "Ú¾ÛĮØ³": 2542,
      "ĠÚĨÙħÚ©": 2543,
      "ĠÙĤÙĪÙĦ": 2544,
      "ĠØ¨ÛĮÙĨØ§": 2545,
      "ĠØ¨ÛģØ§": 2546,
      "ĠØ¬ÙĨØ§Øª": 2547,
      "Ø¨ÛĮÛģ": 2548,
      "ĠÚĨØ§ÛģÙĪ": 2549,
      "ĠÙĦØ§Ø¤": 2550,
      "ĠÙĨØ§Ú©": 2551,
      "ĠØ¨ÛĮÙ¹ÛĮ": 2552,
      "ĠØ³ÙħØ¬Ú¾ÛĴ": 2553,
      "ĠØ¹ÙħØ¯Ûģ": 2554,
      "ĠØ¨ÙĨØ§ØªÛĴ": 2555,
      "ĠÙ¾Ø§Ú©ÛĮØ²Ú¯ÛĮ": 2556,
      "ĠÙ¾ÚĳÛĮ": 2557,
      "ĠØ§ÙĨØ¯Ú¾ÛĮ": 2558,
      "ĠØ§ÙĨØ¯Ú¾Ø§": 2559,
      "ĠØ¨Ú¾ÛĮØ¬ÛĮ": 2560,
      "ĠØ¨Ú¾ÛĮØ¬ÙĨÛĴ": 2561,
      "ĠØ³ÙĨØ§Ø¦ÛĮ": 2562,
      "ĠØ³ÙħØ¬Ú¾ØªØ§": 2563,
      "ĠÙ¾Ú¾ÛĮÙĦ": 2564,
      "ĠÙħØ¹Ø¨ÙĪØ¯ÙĪÚº": 2565,
      "ĠØŃØ³Ø¯": 2566,
      "ĠÙħÙĨØªØ¸Ø±": 2567,
      "Ø¬ÛĮØ¯Ûģ": 2568,
      "ĠÙħÚ©Ø¯": 2569,
      "ĠØ¹Ø±ØµÛģ": 2570,
      "ĠØªØ§Ø±ÛĮÚ©ÛĮ": 2571,
      "ĠÙħØ´Ú©ÙĦ": 2572,
      "Ø¨Ú¾ÙĦØ§": 2573,
      "ĠÙħØªÙĪØ¬Ûģ": 2574,
      "ĠØªÙĦÙĪØ§Ø±": 2575,
      "Ø§ÛĮÚ©": 2576,
      "ĠØ§Ø®": 2577,
      "ÙħÙĪÙĨ": 2578,
      "ĠÙħÛĮØ¯": 2579,
      "ĠØ¨ÚĨÚ¾": 2580,
      "ĠØ³Ùģ": 2581,
      "ĠØªØ¬": 2582,
      "ĠØ¬ÙĦØ§ÛĮØ§": 2583,
      "ĠÙ¾Ø§ØªÛĴ": 2584,
      "ĠÚ©ÛĮØ³ÛĮ": 2585,
      "ĠÙĦØ§ÙĦ": 2586,
      "ĠØ±ÛĮØ²Ûģ": 2587,
      "Ø§ÙĦÛĮ": 2588,
      "Ø¬Ø¯": 2589,
      "ĠØ®Ø±ÛĮ": 2590,
      "ĠØ®Ø´Ú©": 2591,
      "ĠÚĨÙĦÙĪ": 2592,
      "ĠØŃÙĦ": 2593,
      "ĠØ·Ø¨": 2594,
      "ĠØ·Ø¹": 2595,
      "ĠÙģØ±ÙĤ": 2596,
      "ĠØ¯ÛĮÙĨØ¯": 2597,
      "ĠØ¯ÛĮØªÛĮ": 2598,
      "ĠØ¹ÙĦÛĮÚ¾": 2599,
      "ĠØ³ÙĪÚĨ": 2600,
      "ĠÙĨÚ©ÙĦÛĴ": 2601,
      "ĠØ°Ø¨ØŃ": 2602,
      "ÛĮÛģØ§Úº": 2603,
      "ĠØ¯Ø§ÙĪ": 2604,
      "ĠØ±ÙĪØŃÙĪÚº": 2605,
      "ĠÙĪØ§Ø¬Ø¨": 2606,
      "ĠÙĤØ¨Ø¶": 2607,
      "ĠØ§Ù¹Ú¾ÙĨÛĴ": 2608,
      "ĠØ³Ø§ÙħØ±ÛĮ": 2609,
      "ĠÙĤØ³ÙħÛĮÚº": 2610,
      "ĠÙ¾Ú©ÚĳÙĪØ§": 2611,
      "ĠØ¨Ú¾ÛĮÚĳÙĪÚº": 2612,
      "ĠÙĪØ§ÙĤØ¹Ûģ": 2613,
      "ĠÙĤÛĮØ¯ÛĮ": 2614,
      "ĠÙħØ´Ø±Ú©": 2615,
      "ĠÙħØ´Ø±Ú©ÙĪÚº": 2616,
      "ĠÙĤØ¨Ø±ÙĪÚº": 2617,
      "ĠÚĨÙĪÙ¾Ø§": 2618,
      "ĠØŃÛĮØ§Øª": 2619,
      "ĠÙħØ±ØªØ¨Ûģ": 2620,
      "ĠØ²Ø¨Ø±Ø¯Ø³Øª": 2621,
      "ĠØ¯Ø§Ø¦ÙħÛĮ": 2622,
      "ÙĪÙģ": 2623,
      "Ø±Ø¨": 2624,
      "ÙĨØ¬": 2625,
      "ĠÙħÛĴ": 2626,
      "ĠØ¨Ø¬": 2627,
      "ĠØ¨Øµ": 2628,
      "Ø¯ÙĪØ³": 2629,
      "Ø¨ÙĪØ±": 2630,
      "ĠØ¯Ø§Ø±ÙĪÚº": 2631,
      "ĠÙĦØ¨Ø§Ø³": 2632,
      "ĠÚ©Ø±Ø¯ÛĮ": 2633,
      "ĠØ§ÙĨØ¨": 2634,
      "ĠØ±ÙĨÚ¯": 2635,
      "Ù¾ÙĪÙĦØ³": 2636,
      "ĠÛģÙĪØ¦ÛĮÚº": 2637,
      "ĠØ¢Ûģ": 2638,
      "Ø´Ûģ": 2639,
      "ĠÙĪÛģÛĮÚº": 2640,
      "ĠØ®ØªÙħ": 2641,
      "Ø®Ø¨Ø±": 2642,
      "ÙĪÙĨØ§": 2643,
      "Ù¹Ú¾ÛĴ": 2644,
      "ÙĨÛĮÛģ": 2645,
      "Ø³ÙĪØ§Ø¦ÛĴ": 2646,
      "ĠØ¬ÙĨÚ©ÙĪ": 2647,
      "ĠØªØ§Ú©ÛĮ": 2648,
      "ĠØ³ÙĨØ§ØªÛĴ": 2649,
      "ĠØ¯ÙĦÛĮØ±ÛĮ": 2650,
      "Ø§Ø¦ÙĦ": 2651,
      "ĠØ´Ø±Ú©": 2652,
      "ĠÙ¾Ú¾ÙĪÙĨ": 2653,
      "ĠÙĤÛĮØ§Ùħ": 2654,
      "ĠÙĦÚ¯Ø§ØªÛĴ": 2655,
      "ĠØ§ÙĨØ³Ø§ÙĨÙĪÚº": 2656,
      "ĠÚ©Ø´Ø§Ø¯Ûģ": 2657,
      "ĠØ§ÙħØªÙĪÚº": 2658,
      "ĠÚ©Ø±Ø¯ÛĴ": 2659,
      "ĠÚ©ÙħØ²ÙĪØ±ÛĮ": 2660,
      "ĠÙħØ®ØªÙĦÙģ": 2661,
      "ĠØ§Ø±Ø´Ø§Ø¯": 2662,
      "ĠÙħØ¹Ø¬Ø²ÛĴ": 2663,
      "ĠÙģØ±ÙħØ§ÙĨØ¨Ø±Ø¯Ø§Ø±": 2664,
      "ĠØºØ±ÙĤ": 2665,
      "ĠØ§ÙĨØ³Ø§ÙĨÛĮ": 2666,
      "ĠØ±Ø§Ø³ØªÛĴ": 2667,
      "ĠØ¢ØªØ´": 2668,
      "ĠÙħÛĮØ¯Ø§ÙĨ": 2669,
      "âĢ": 2670,
      "ĠâĢ": 2671,
      "ĠÚ©Ø§ÙĨÙĪÚº": 2672,
      "ĠØ§ÙĤØª": 2673,
      "ĠØ§Ø±Øª": 2674,
      "ÙħÛĴ": 2675,
      "ĠÙħØ³Ø§": 2676,
      "ĠÙħÙħÚ©ÙĨ": 2677,
      "ĠØ³ÙĦÙĪ": 2678,
      "ĠØ³ÛĮØ§Ûģ": 2679,
      "Ø¯Ø±": 2680,
      "Ø¯Ú¾": 2681,
      "ĠÙ¾Ø´Øª": 2682,
      "Ù¾ÛĴ": 2683,
      "Ø¹ÛĮ": 2684,
      "ĠØ¢ÙĨØ§": 2685,
      "ĠØ¢ÙħÛĮÙĨ": 2686,
      "ĠÛĮÚ©": 2687,
      "ÙĤØ§": 2688,
      "ĠØªÙĪÙģÛĮÙĤ": 2689,
      "ĠÙģØ±Ø¶": 2690,
      "ÙĨØ¯ÛĴ": 2691,
      "Ø¯ÛĮØ¯": 2692,
      "ĠØºØµÛģ": 2693,
      "ĠØ³ÙĪÙĨÛĴ": 2694,
      "ĠÙĦØ§Ú©Ø±": 2695,
      "ĠØ°Ø±Ø§": 2696,
      "ĠÙħÙĨØµ": 2697,
      "ĠÙ¾ÛģÙĨÚĨØªÛĮ": 2698,
      "ĠØ¬ÛĮØ³ÛĮ": 2699,
      "ĠÚĨÚ¾ÙĪÚĳÛĴ": 2700,
      "ĠØ¬Ú¾Ú©": 2701,
      "ĠØ¨ÚĨØ§ÙĨÛĴ": 2702,
      "ĠÙħÛĮØ±Ø§Ø«": 2703,
      "ĠÙ¾ÙĪØ¬": 2704,
      "ĠØ¨ÙĨØ§ÙĨÛĴ": 2705,
      "ĠØ¢Ú¯ÛĮØ§": 2706,
      "ĠÙģØ¶ÛĮÙĦ": 2707,
      "ĠØ¨Ú¾Ù¹Ú©": 2708,
      "ĠØªØ±Ø³": 2709,
      "ĠØ¬Ú¾ÙĪÙ¹ÛĮ": 2710,
      "ĠØ³Ø§ÙħØ§ÙĨ": 2711,
      "Ø¨ÙĪØ¨": 2712,
      "ĠØ¹Ø¯ÙĦ": 2713,
      "ĠØ¨ÛĮÙĪÛĮÙĪÚº": 2714,
      "ĠØ§ÙĨØªÛģ": 2715,
      "ĠÙĤÛĮÙħØª": 2716,
      "ĠÙ¾Ø±ÛģÛĮØ²Ú¯Ø§Ø±ÛĮ": 2717,
      "ĠØ¢Ù¾ÛģÙĨÚĨÛĴ": 2718,
      "ĠØ¨Ø³ØªÛĮÙĪÚº": 2719,
      "ĠØ³ÙħØ¬Ú¾ÙĪ": 2720,
      "ĠÙĪÛĮØ³ÛĴ": 2721,
      "ĠØ¹Ø¸ÙħØª": 2722,
      "ĠÙģØªØŃ": 2723,
      "ĠÙģØªÙĨÛģ": 2724,
      "ĠØ³Ø§ØªÚ¾ÛĮÙĪÚº": 2725,
      "ĠÚ¯Ø±ÙģØªØ§Ø±": 2726,
      "ĠÙģØ±ÙħØ§ÙĨØ¨Ø±Ø¯Ø§Ø±ÛĮ": 2727,
      "ĠØ®Ø²Ø§ÙĨÛģ": 2728,
      "ÛĮØ¹ÙĨÛĮ": 2729,
      "ĠØ±ÙĨØ¬ÛĮØ¯Ûģ": 2730,
      "ĠØ¯ÛĮØ§ÙĨØªØ¯Ø§Ø±": 2731,
      "ĠÙģØ¶ÛĮÙĦØª": 2732,
      "Ø§Øµ": 2733,
      "ÙĪÙĤ": 2734,
      "ÛģÙĪ": 2735,
      "Ø±ÙĪØ±Øª": 2736,
      "ĠÚ©ÙħÛĮ": 2737,
      "ĠÙĨØ±": 2738,
      "ĠØ¯Ø¦ÛĴ": 2739,
      "ÚĨÛĮ": 2740,
      "Ø²Ûģ": 2741,
      "ĠÙģÙĦØ§ØŃ": 2742,
      "ĠØ¨Ú¾ÛĮØ¯": 2743,
      "Ø³ÛĮÛģ": 2744,
      "ĠØµÛĮ": 2745,
      "ĠØµÙĪØ±": 2746,
      "ĠÙ¾Ø§Ú©Ø±": 2747,
      "Ù¾Ø³ÙĨØ¯": 2748,
      "ĠÙ¹ÙĪ": 2749,
      "ĠÙħØŃØ¨ÙĪØ¨": 2750,
      "ĠÙĨØ§Ù¾Ø³ÙĨØ¯": 2751,
      "ĠØ¨Ø¯Ú©Ø§Ø±": 2752,
      "ĠØ¨ÛĮÙ¹ÙĪÚº": 2753,
      "Ø³ØªØ§ÙĨ": 2754,
      "ĠØ¯Ø§Ø¤": 2755,
      "ĠØ±ÙĪØŃÛĮÚº": 2756,
      "ĠØ¯ÙĪØ³Ø±ÙĪÚº": 2757,
      "ĠÚ¯Ú¾Ø±Ø§ÙĨÛĴ": 2758,
      "Ø§Ø³ØªÛģ": 2759,
      "ĠØ¶Ø±ÙĪØ±Øª": 2760,
      "ĠØŃØ§Ø¬Øª": 2761,
      "ĠÚ©Ú¾Ø§Ø¦ÛĮÚº": 2762,
      "ĠÙ¾Ú©Ø§Ø±Ø§": 2763,
      "ĠÙĨÚ©Ø§ÙĦØªØ§": 2764,
      "ĠÙ¾Ú¾ÛĮÙĦØ§": 2765,
      "ĠÙ¹Ú¾ÛģØ±Ø§ØªÛĴ": 2766,
      "ĠÙħØªØ¹": 2767,
      "ĠØ®Ø±Ø§Ø¨": 2768,
      "ĠØ®ÙĪØ§ÛģØ´ÙĪÚº": 2769,
      "ĠØ®ÙĪØ§ÛģØ´Ø§Øª": 2770,
      "ĠÙħØ«ÙĦ": 2771,
      "ĠØ¨ØªØ§Ø¤": 2772,
      "ĠØ§ÙħÙĨ": 2773,
      "ĠØ¢Ù¾ÛģÙĨÚĨØ§": 2774,
      "ĠÙħØ®ØªÙĪÙĨ": 2775,
      "ĠÙģÙĤÛĮÛģÙĪÚº": 2776,
      "ĠÛģÙĪØ¬Ø§Ø¦ÛĮÚº": 2777,
      "ĠØ®Ø§ÙĦØµ": 2778,
      "ĠØªØ¹Ø±ÛĮÙģÛĮÚº": 2779,
      "ĠÙħØ®ÙĦÙĪÙĤ": 2780,
      "ĠØªØ§Ú©Ø³ØªØ§ÙĨ": 2781,
      "ĠÙħÚ©Ø¯ÙĨÛĮÛģ": 2782,
      "Ø§Ø·Ûģ": 2783,
      "ĠÚ©ÙħØ±": 2784,
      "ĠØ§Ø¶": 2785,
      "ĠØ§Ú©ÛĮ": 2786,
      "ĠÛģÙ¹": 2787,
      "Ø³ÙĪÚº": 2788,
      "Ú¾ÙĪÚº": 2789,
      "ĠØ³ÛĮÚ©": 2790,
      "ĠÙĨØµ": 2791,
      "ĠØ¬Ø§ÙĦ": 2792,
      "ĠÙ¾Ø§ØªØ§": 2793,
      "ĠÙ¾Ú¾Ø§Úĳ": 2794,
      "ĠÙĪØ¬ÙĪØ¯": 2795,
      "ĠÙĦØ·Ùģ": 2796,
      "ĠØ±Ø¯": 2797,
      "ĠÛģÙĪÚĨ": 2798,
      "ĠØ¢ÙĨØ¯": 2799,
      "ĠÛĮØ³": 2800,
      "ĠÛĮÙĪÙħ": 2801,
      "Ø²ÛĮ": 2802,
      "ĠØªÙĪØ¬Ûģ": 2803,
      "ÚĳÚ¾ÛĮ": 2804,
      "ĠÚĨØ´Ùħ": 2805,
      "Ø®ÛĮ": 2806,
      "ÙĦØ§ÙħÛĮ": 2807,
      "ĠÙĤÙĦ": 2808,
      "Ù¹Ú©Ø§": 2809,
      "ĠØ±ÛģØªÛĮ": 2810,
      "ĠØ²Ø¯Ûģ": 2811,
      "ĠØ¨Ø§Ø¦ÛĮÚº": 2812,
      "ĠØ¬Ø§ÙĨÙĪØ±": 2813,
      "ĠØµÙĦÛģ": 2814,
      "ĠÙ¾ÛģÙĦØ§": 2815,
      "ĠØ¨ÛģÙĨ": 2816,
      "ĠØ§ÛĮÙħØ§ÙĨØ¯Ø§Ø±": 2817,
      "Ø¯ÛĮÛģ": 2818,
      "ĠØºØ±Ø¶": 2819,
      "ĠÚ©Ú¾Ø¬": 2820,
      "ĠÙ¹Ú¾ÛĮ": 2821,
      "ĠØ¯Ø§Ø¦ÛĮÚº": 2822,
      "ĠÚĨÚ¾ÙĪÙ¹Ø§": 2823,
      "ĠÚĨÚ¾ÙĪÙ¹ÛĴ": 2824,
      "ĠÙĤØ±Ø§Ø±": 2825,
      "ĠÙĦÛĮÙĨØ§": 2826,
      "Ú¯Ø²Ø±": 2827,
      "ĠØ¯Ø¹ÙĪØª": 2828,
      "ĠØ¨Ú¾ÛĮØ¬ØªØ§": 2829,
      "ĠÚ¯Ú¾Úĳ": 2830,
      "ĠØ§ÚĨØ§ÙĨÚ©": 2831,
      "ĠÙģØ±ÙħØ§ØªÛĴ": 2832,
      "ĠØ§ØŃØ§Ø·Ûģ": 2833,
      "ĠØ³Ø§ÛĮÛģ": 2834,
      "ĠØ¯Ø´ÙħÙĨÙĪÚº": 2835,
      "ĠÙħØ³ÙĦÙħØ§ÙĨÙĪ": 2836,
      "ĠÙħØ³Ø¬Ø¯": 2837,
      "ĠØ¢Ø±Ø§Ø³ØªÛģ": 2838,
      "ĠØ¯ÙģÙĨ": 2839,
      "ĠØ¸Ø§ÛģØ±ÛĮ": 2840,
      "ĠØ¨Ø´Ø§Ø±Øª": 2841,
      "ĠØ³Ø®ØªÛĮ": 2842,
      "ĠØ³ÙģÛĮØ¯": 2843,
      "ĠØ§ÙĨØ¨ÛĮØ§Ø¡": 2844,
      "ĠÛģØ§": 2845,
      "ĠÙħØ¨": 2846,
      "ĠÙħÙĪÙĦ": 2847,
      "ĠÙħØ¤": 2848,
      "ĠØ³Ø§Ø²": 2849,
      "ĠØªÛĮ": 2850,
      "Ú¯Ø§ÙĨÛģ": 2851,
      "ĠØ¬ÙħÙĦÛģ": 2852,
      "Ø¨Ø§Ø¨": 2853,
      "ĠÙ¾ÛĴ": 2854,
      "ĠÙ¾Ø§ÙĦ": 2855,
      "ÙĤØ§Ùħ": 2856,
      "Ø®Ø§ÙĨÙĪÚº": 2857,
      "ĠØ¨ÛĮÙĪ": 2858,
      "ĠØ²ÛĮØª": 2859,
      "ĠØ¬Ø³Ú©ÛĮ": 2860,
      "ĠØµØŃ": 2861,
      "ĠØ¯ÙĪØ¯Ú¾": 2862,
      "ĠÙ¾ÛģÙĦÙĪ": 2863,
      "Ø±Ø§Ùģ": 2864,
      "Ø¯ÛĮÙĨ": 2865,
      "ĠØ¯Ø±Ú¯Ø²Ø±": 2866,
      "ĠÚĨØ§ÛģÛĮ": 2867,
      "ØºÛģ": 2868,
      "ĠÙĨØ§ØµØ±ÛĮ": 2869,
      "ĠØ³Ø±Ú¯Ø±": 2870,
      "ĠÙħÙĨØ²ÙĦ": 2871,
      "ĠØ³Ú©ÙĪÙĨ": 2872,
      "ĠÚĨÚ¾ÙĪÙ¹": 2873,
      "ĠØ´Ø±Ø§Ø¨": 2874,
      "ĠØ§ØªÙĨÛĮ": 2875,
      "ĠÚ©ØªØ§Ø¨ÙĪÚº": 2876,
      "ĠØ¨ÙĨÛĮØ§Ø¯": 2877,
      "ĠÙ¾ÚĳÙĪØ³ÛĮ": 2878,
      "ĠØ¨ÙĨØ¯Ûģ": 2879,
      "ĠÚ©Ú¾Ø§Ø¦ÛĮ": 2880,
      "ĠØ¨ÙĪÛĮØ§": 2881,
      "ĠÙĨÚ©Ø§ÙĦØ§": 2882,
      "ĠØ¯Ú©Ú¾Ø§ÛĮØ§": 2883,
      "Ú©ÙĪØ¦ÛĮ": 2884,
      "ĠØ«ÙħÙĪØ¯": 2885,
      "ĠÙĨÙĪØ´ØªÛģ": 2886,
      "ĠÙ¾ÛĮØ§ÙĦÛģ": 2887,
      "ĠØ¯Ú¾ÙĪÚ©Ûģ": 2888,
      "ĠØ³ÛĮØ¯Ú¾Ø§": 2889,
      "ĠØ´ÙģØ§Ø¹Øª": 2890,
      "ĠØµØ¯Ø±": 2891,
      "ĠÚ©Ø§Ø±Ø³Ø§": 2892,
      "ĠÙħÛģÙħØ§ÙĨ": 2893,
      "ĠÚĨØ§ÙĦÛĮØ³": 2894,
      "ĠÙ¾ÛĮØºÙħØ¨Ø±ÙĪÚº": 2895,
      "ĠØ³Ù¾Ø§ÛģÛĮÙĪÚº": 2896,
      "ĠØ³ÛĮÙĨÙĪÚº": 2897,
      "ĠÙĤØ§Ø¨ÙĦ": 2898,
      "ĠØ®ÛĮÙħÛģ": 2899,
      "ĠØŃÙĦØ§ÙĦ": 2900,
      "ĠØ§ÙĤØªØ¯Ø§Ø±": 2901,
      "ĠÙ¾ÙĪØ¬ØªÛĴ": 2902,
      "ĠØ²ÛĮØªÙĪÙĨ": 2903,
      "Ġ]": 2904,
      "ÙĪØ§Ø¨": 2905,
      "ÙħÙĪÚº": 2906,
      "ĠÛģÚĪ": 2907,
      "ĠÛģÙ¹Ø§": 2908,
      "ĠÙħØ§ÛĮ": 2909,
      "ĠØ¨Ú¯Ø§": 2910,
      "ĠØ³Ú©Ú¾": 2911,
      "ĠØªÚ©Ø±": 2912,
      "Ø¯Øª": 2913,
      "ĠØ§Ø³ÙĦØ¦ÛĴ": 2914,
      "ĠÚ©Ø±Ùħ": 2915,
      "ĠÚ©Ø±ÙĦÛĮ": 2916,
      "ĠØ±Ø®": 2917,
      "ĠØ±Ø§Ø²": 2918,
      "ĠØ¢Ø¨Ø§Ø¯": 2919,
      "ĠØ¢Ø³ÛĮÛģ": 2920,
      "Ø´ÙħÛģ": 2921,
      "Ø§ÙĦÛĮÚº": 2922,
      "ĠØ®Ø³": 2923,
      "ĠÙ¾Ø±Ø§ÙĨÛĮ": 2924,
      "ĠÙ¾Ø±ÙĨØ¯ÙĪÚº": 2925,
      "ĠØ¹ÛĮØ´": 2926,
      "ĠØ¹Ø·Ø±": 2927,
      "ĠÚĨÚ¾ÛĮ": 2928,
      "ĠÚĨØ§Ø±ÙĪÚº": 2929,
      "ĠÚĨØ´ÙħÛģ": 2930,
      "ÙĦÛĮØª": 2931,
      "ĠØ¬Ø§Ú¯": 2932,
      "ĠØ²ÙĨØ¬": 2933,
      "Ø·ÛĮÚ©Ûģ": 2934,
      "ĠÚ¯Ø§ÙĪ": 2935,
      "Ø±ÛĮØŃ": 2936,
      "ĠØ±ÙĪÚ©ÛĴ": 2937,
      "ÙħØªÚ¾ÛĮØ³": 2938,
      "Ø±Ø§Ø²": 2939,
      "ĠÙħØ¬Ø¨ÙĪØ±": 2940,
      "Ø¢Ø®Ø±": 2941,
      "ÙĪÛģØ§Úº": 2942,
      "ĠÙħØŃØ±": 2943,
      "Ø³ØªØ³": 2944,
      "ĠØ°ÙĦÛĮÙĦ": 2945,
      "ĠÙħÙĨØ¬ÛĮ": 2946,
      "ĠÙ¾ÛģÙĨÚĨÙĨÛĴ": 2947,
      "ĠÚĨÙĦÙĨ": 2948,
      "ĠÙ¾ÚĳÚ¾Ø§": 2949,
      "ĠÙĦÚ¯Ø§ÛĮØ§": 2950,
      "ĠÚ©Ú¾Ø§Ø¤": 2951,
      "Ø²Ø§Ø¯ÛĮ": 2952,
      "ĠÙĨÚ©ÙĦØªÛĮ": 2953,
      "ĠØŃØ³ÙĨ": 2954,
      "ĠØ«ÙĪØ§Ø¨": 2955,
      "Ø¶ØŃØ§ÙĤ": 2956,
      "ĠÙĦÚĳÚ©ÙĪÚº": 2957,
      "ĠÚ©Ú¾ÛĮÙĦ": 2958,
      "ĠØ²Ø¨Ø§ÙĨÛĮÚº": 2959,
      "ĠØ¨Ø§ÙĨØ¯Ú¾Ø§": 2960,
      "ĠØ¨ÛĮÙħØ§Ø±ÙĪÚº": 2961,
      "ĠÙĦØ¹ÙĨ": 2962,
      "ĠØ±ÙĪÚ©ØªÛĴ": 2963,
      "ĠØ´Ø§Ø¯ÛĮ": 2964,
      "ĠØŃØ§Ú©ÙħÙĪÚº": 2965,
      "ĠÚĨÛģØ±ÛĴ": 2966,
      "ĠØ´Ø±ÙħÙĨØ¯Ûģ": 2967,
      "ĠÙĦÚ©Ú¾ÛĮ": 2968,
      "ĠÙ¾Ø±Ø³ØªÛĮ": 2969,
      "ĠÙħØ§ØªØŃØª": 2970,
      "ĠÙģØ³ØŃ": 2971,
      "ĠØ¯ÛĮÙĨØ¯Ø§Ø±ÛĮ": 2972,
      "ĠÙħØ³Ø§ÙģØ±": 2973,
      "ĠÛĮØ³Ø¹": 2974,
      "ĠÚ©Ø§Ø±Ø³Ø§Ø²": 2975,
      "ĠÙħØ§ÛĮÙĪØ³": 2976,
      "ĠØ§ØµÙĦ": 2977,
      "ĠØ§Ø¶ØŃØ§ÙĤ": 2978,
      "ÙĦØ§Øª": 2979,
      "Ø³Ø§Ø±": 2980,
      "ĠÙħÙ¹Ø§": 2981,
      "ĠØªÙĨÛģ": 2982,
      "ĠÙĨØ§Ø±": 2983,
      "ĠÙĨØ±Ùħ": 2984,
      "ĠÙ¾Ø§Ø¨": 2985,
      "ĠØ¯ÙĦÛĮ": 2986,
      "ĠÚ©Ø±ÙĦÛĴ": 2987,
      "ĠÚ¯Ú¾Ø§": 2988,
      "ĠÚ¯ÙģØª": 2989,
      "ĠÚ¯Ø°Ø±": 2990,
      "ÛĮØ§Ø±ÛĮ": 2991,
      "Ø¹Ø¯": 2992,
      "Ø¹Ø§Ø¯": 2993,
      "ĠÛģÙĪÚ¯ÛĴ": 2994,
      "ĠØ¢Ø¨Ø§": 2995,
      "ĠØ¢Ø²Ø§Ø¯ÛĮ": 2996,
      "ĠØ®ÙĦØ§": 2997,
      "ĠØ®ÙħÛĮØ±": 2998,
      "ÙģÙĤØª": 2999,
      "ĠØ¬ÙĪØ§ÙĨ": 3000,
      "ĠÛģÙħØª": 3001,
      "ĠÙ¾Ø±Ø¯ÛĮ": 3002,
      "ÚĳÚ¾": 3003,
      "ĠÚĨÙĪØ±": 3004,
      "ÛĮØ±Øª": 3005,
      "ĠØ´Ø¯ÛĮØ¯": 3006,
      "ÙĦÛĮØº": 3007,
      "Ø§ÙħÙĪØ´": 3008,
      "ÙħØ§Ø¦ÛĮ": 3009,
      "ĠÙ¾ÛģØ±": 3010,
      "ĠÙ¾ÛĮÙĪ": 3011,
      "ĠØºØ§Ùģ": 3012,
      "ĠØºÙĦØ§ÙħÛĮ": 3013,
      "ÙĤÛĮÙĨ": 3014,
      "ĠØ¯Ø±Ø¬Ûģ": 3015,
      "ĠÙĦØ§Ø´": 3016,
      "ĠÙħØ±Øº": 3017,
      "ĠØ±Ú©Ú¾ØªÛĮ": 3018,
      "ĠØ¨Ø±Ø®": 3019,
      "Ø§Ø¦Ø´": 3020,
      "ĠÚĪØ§ÙĦÙĨÛĴ": 3021,
      "Ø·Ø§Ú©ÛĮÛģ": 3022,
      "ĠØ¹ÙħØ§Ø±Øª": 3023,
      "ĠØ¯ÙĪÙĨÚ¯Ø§": 3024,
      "ĠÙĪØ³Ø¹Øª": 3025,
      "ĠÚĨÙĦØªØ§": 3026,
      "ÛĮÙĨÛģ": 3027,
      "ĠÙĦÚ¯Ø§Ø¦ÛĴ": 3028,
      "ĠÙħØ´ÙĪØ±Ûģ": 3029,
      "ĠÙĨØµÛĮØ¨": 3030,
      "ĠÙĨÚ©ÙĦÚ©Ø±": 3031,
      "ĠØ¹Ø¨Ø§Ø¯ØªØ®Ø§ÙĨÙĪÚº": 3032,
      "ĠØ¨Ú¾Ø±ÙĪ": 3033,
      "ĠÚĨÚ¾ÚĳØ§": 3034,
      "ĠØ§ÙĨØ¬ÛĮØ±": 3035,
      "ĠÙĦÚĳÚ©ÛĴ": 3036,
      "ĠÙĦÚĳÚ©Ø§": 3037,
      "ĠØ§ÙģØ³": 3038,
      "ĠØ¯Ú©Ú¾Ø§ØªØ§": 3039,
      "ĠØ¬ØªÙĨÛĮ": 3040,
      "ĠÙ¾ÙĦÙ¹ÙĨ": 3041,
      "ĠØ³ÛĮØ¯Ú¾ÛĴ": 3042,
      "ĠØ§ÙħÙĪØ§ÙĦ": 3043,
      "ĠØ§ÙĨÚ¯ÛĮØ²ÛĮ": 3044,
      "ĠÙħÚ©Ø§ÙĨ": 3045,
      "ĠØ´Ø¹ÛĮØ¨": 3046,
      "ĠÙħÛĮØ¹Ø§Ø¯": 3047,
      "ĠÙħØ§Ø¬": 3048,
      "ĠÚ¯ÙĨÛģÚ¯Ø§Ø±ÙĪÚº": 3049,
      "ĠÙĨÙĪØ§Ø²Ø§": 3050,
      "ĠÚĨØ±ÙĪØ§Ûģ": 3051,
      "ĠØ§ÙĪÙĨÙ¹": 3052,
      "ĠØ¨Ø¯Ø±ÙĪØŃÙĪÚº": 3053,
      "ĠØºØ±ÛĮØ¨ÙĪÚº": 3054,
      "ĠØ§ØµÙĦØ§ØŃ": 3055,
      "ĠØ§ÙħØ§ÙĨØª": 3056,
      "ĠÚĨÚ©Ú¾ÙĪ": 3057,
      "ĠØµÛĮØ¯Ø§": 3058,
      "ĠØªÛĮÙħØªÚ¾ÛĮØ³": 3059,
      "ĠÙ¾Ø§Ø¨ÙĨØ¯": 3060,
      "ÙĪØµ": 3061,
      "ÙĪØ§ÙĨÛĴ": 3062,
      "ĠÚ©Ùģ": 3063,
      "ĠÚ©ÙĦÙħ": 3064,
      "ĠØ§Ø«Ø±": 3065,
      "ØªÚ¾": 3066,
      "Ø³ØªØ§": 3067,
      "ĠÙħØ²Ø§": 3068,
      "ĠØ¨Ø³Ø§": 3069,
      "ĠØªÙĨØ¯Ø±": 3070,
      "ĠÙĨØŃ": 3071,
      "ĠÙĨÙħÙĪÙĨ": 3072,
      "ĠØ¯Ø¨Ø§": 3073,
      "ĠÙĦÙĪÚº": 3074,
      "ĠÚ©ÛģÙĪÚº": 3075,
      "ĠÚ¯Ø¯": 3076,
      "ĠÚ¯ÙĦÛģ": 3077,
      "ĠÚ©ÙĪÚĳÛĴ": 3078,
      "ĠÛģÙĪÙĦØ¦ÛĴ": 3079,
      "Ø§ÙĦÛĴ": 3080,
      "ÙģØ§Øª": 3081,
      "ĠØªÙĪÚ©ÙĦ": 3082,
      "ĠØ¬ÙĪØ´": 3083,
      "ĠØ¹ÙĪØ¶": 3084,
      "ĠÚĨÙ¹": 3085,
      "ĠØŃÛĮ": 3086,
      "Ù¹Ú¾ÛĮ": 3087,
      "ĠØ±ÛģÙĨ": 3088,
      "ĠÙģØ±ÙĤÛģ": 3089,
      "ĠÙģØ±ÛĮØ§Ø¯": 3090,
      "ÙĨÛĮÙĨ": 3091,
      "ĠØ¯ÛĮÚ¯Ø±": 3092,
      "ĠØ¢Ù¾Ú©": 3093,
      "ĠÙ¾ÛģÙĨÛĴ": 3094,
      "ĠÙ¾ÛģÙĨØ§": 3095,
      "ÙĪØ§ØŃ": 3096,
      "ĠØ³Ø§ØªÚ¾Ú¾": 3097,
      "ĠØ¨Ø±Ø³Ø§": 3098,
      "ĠÙħØŃÙħØ¯": 3099,
      "ĠÙħÙĤØ¨ÙĪÙĦ": 3100,
      "Ø¸ÙĪØ±": 3101,
      "ĠÚĪØ§ÙĦÙĪ": 3102,
      "ĠØ¬ÛĮØªØ§": 3103,
      "ĠØ§ØªÙĨØ§": 3104,
      "ĠØªØ¹Ø¸": 3105,
      "Ø¨Ø§ÙĨÙĪÚº": 3106,
      "ĠØ¨Ø®Ø´ÛĴ": 3107,
      "ÙĦÙĪÚ¯": 3108,
      "ĠÙ¾ÙĪØ¬Ø§": 3109,
      "ĠØ¢Ø®Ø±ÛĮ": 3110,
      "ĠØ¨Ú¾Ø§Ø±ÛĮ": 3111,
      "ĠØ¨ÙĦØ§Ú©Ø±": 3112,
      "ĠØ¨Ú¾Ø±Ø§": 3113,
      "ĠØ±ÙĪØ²ÛĮ": 3114,
      "ĠÙħÛģØ±Ø¨Ø§ÙĨÛĮ": 3115,
      "ĠØªØ¨ÙĦÛĮØº": 3116,
      "ĠÚ©Ú¾ÛĮØªÛĮ": 3117,
      "ÛģÙħØ§Ø±ÛĴ": 3118,
      "ĠÙ¾ÛģÚĨØ§ÙĨØ§": 3119,
      "ĠÚ¯Ø±Ø¯ÙĨ": 3120,
      "ĠÙħØ¬Ø±ÙħÙĪÚº": 3121,
      "ĠØµØ¯ÙĤ": 3122,
      "ĠÙħØ§ÙĨÚ¯ØªÛĴ": 3123,
      "ĠØªÙĪØ±ÛĮØª": 3124,
      "ĠØŃÛĮØ§Ø¦ÛĮ": 3125,
      "ĠØªÙĨÚ¯ÛĮ": 3126,
      "ĠØ¢ÚĨÚ©Ø§": 3127,
      "ĠØ¨Ø´Ø±Ø·ÛĮÚ©Ûģ": 3128,
      "ĠÙħÙĨØ§ÙģÙĤÙĪÚº": 3129,
      "ĠØ³Ú©Ú¾Ø§ÛĮØ§": 3130,
      "ĠØ§Ø¨ØªØ¯Ø§Ø¡": 3131,
      "ĠØªØŃÙħÙĦ": 3132,
      "ĠØªØ§Ú©ÛĮØ¯": 3133,
      "ĠØ¯Ø§Ø¤Ø¯": 3134,
      "ĠÙħØªØ¹ÙĦÙĤ": 3135,
      "ĠØ¢ÙĨØ¯Ú¾ÛĮ": 3136,
      "ĠÚ©Ú¾Ø¬ÙĪØ±": 3137,
      "ĠÙħØŃØ±ÙĪÙħ": 3138,
      "ĠÚ¯ÙģØªÚ¯ÙĪ": 3139,
      "ĠØºØ§ÙģÙĦ": 3140,
      "ĠÙĨÙħÙĪÙĨÛģ": 3141,
      "ÛĮÙĨØ¯Ûģ": 3142,
      "Ú©ØªÛĴ": 3143,
      "ĠÛģØ¬": 3144,
      "ÙĦÛĮØ§Úº": 3145,
      "Ø³ÙĨ": 3146,
      "ĠÙħØªØ§": 3147,
      "ĠØ³ÙģØ§Ø±": 3148,
      "ĠØ³Ø§ÙĨÙ¾": 3149,
      "ĠØªØ±Ø§": 3150,
      "ĠØªÛĮØ²": 3151,
      "ĠØªØŃÙĤÛĮ": 3152,
      "ĠÙĨØ¯Ø§": 3153,
      "ĠÙĨØªÛĮ": 3154,
      "Ú¯ÙĨØ§": 3155,
      "Ø¯ÙĦ": 3156,
      "Ø¯Ø§ÙĨ": 3157,
      "ĠØ¬Ú¾Ø§": 3158,
      "ĠÙ¾ÙĦØ§": 3159,
      "ĠØ¯Ø§ÙĨÛĴ": 3160,
      "ĠØ§Ø³ØŃ": 3161,
      "ĠÚ©Ø±Ø§": 3162,
      "ĠØ§ÙĨØ·Ø§Ú©ÛĮÛģ": 3163,
      "ĠÛģÙĪØªÙĪ": 3164,
      "Ø´ÙħØ¹ÙĪÙĨ": 3165,
      "Ø¬ÙĨ": 3166,
      "Ø²ÙħÛĮÙĨ": 3167,
      "ĠÙ¾Ø±ÛĮØ´": 3168,
      "ÚĳÙĨÛĴ": 3169,
      "ĠØŃØ§ÙħÙĦÛģ": 3170,
      "ÙĦØ§ÙĤ": 3171,
      "ÛĮØ±Ûģ": 3172,
      "ÙĦÛģØ§": 3173,
      "ĠØ·Ø§ÙĦØ¨": 3174,
      "ĠØ¨ÛĮÚ¯Ø§ÙĨÛģ": 3175,
      "Ø³ÛĮÙĪÚº": 3176,
      "ĠØ¬Ø§ÙĨÙĪØ±ÙĪÚº": 3177,
      "ĠØµÙĦØ§ØŃ": 3178,
      "ĠØ±ÙĪÛĮØ§": 3179,
      "ĠØ¬ÙĨØªÙĪÚº": 3180,
      "ĠÚĪÙĪØ¨": 3181,
      "ÙģØ±Ø¹ÙĪÙĨ": 3182,
      "ĠÙħØ¹Ø§Ùħ": 3183,
      "ĠÙħØ¹Ø§ÙħÙĦÛģ": 3184,
      "ĠØ¯Ø±Ø¬Ø§Øª": 3185,
      "ĠÚ©Ú¾Ù¹": 3186,
      "ĠÚ©Ú¾ÙĦÛĴ": 3187,
      "ĠØ§Ø¨Ú¾": 3188,
      "ĠØ§Ø¨Ø¯ÛĮ": 3189,
      "ĠØ³Ø±ÛĴ": 3190,
      "ĠÙħÙĤØµ": 3191,
      "ĠØŃÙĤÛĮØ±": 3192,
      "ĠÙĨÚ©Ø§ØŃ": 3193,
      "ĠØ±Ø³ÙĪØ§": 3194,
      "ĠÙħÙĨØ¸ÙĪØ±": 3195,
      "Ø´ØªÙĪÚº": 3196,
      "ĠØ¯ÙĪØ³ØªÛĮ": 3197,
      "ĠÚĨÚ¾ÙĪÚĳØ§": 3198,
      "ĠÙĤØ±Ø¨Øª": 3199,
      "ÚĳØ§Ø¦ÛĮ": 3200,
      "ĠÙĨØ§ÙħÛģ": 3201,
      "ĠØ§ØªØ±Ø§": 3202,
      "ĠØ³ÚĨÛĮ": 3203,
      "ÛĮÙĨØª": 3204,
      "ĠØ§Ù¹Ú¾Ø§Ø¦ÛĮÚº": 3205,
      "ĠÙħØ´ÙĤØª": 3206,
      "ĠÙħØ´ÛģÙĪØ±": 3207,
      "ĠØ¨Ú¾Ø±ÛĮ": 3208,
      "ĠÚ©ÙĨÙĪ": 3209,
      "ĠÙħÙĦØ§Ù¾": 3210,
      "ĠÙĦÚ¯Ø§ØªØ§": 3211,
      "ĠÙĦÚ¯Ø§ÙĨÛĴ": 3212,
      "ĠØ¨Ø§ÙĨÙ¹": 3213,
      "ĠÙĨÛĮØ³Øª": 3214,
      "ĠØªØ¨Ø§ÛģÛĮ": 3215,
      "ĠÙ¾Ø³ÙĨØ¯ÛĮØ¯Ûģ": 3216,
      "ĠÚ©Ø±Ø¯ÛĮÚº": 3217,
      "ĠÚ©ØªÙĨÛĴ": 3218,
      "ĠÙĨÙĪÚ©Ø±ÙĪÚº": 3219,
      "ĠØªÙĦØ§ÙĪØª": 3220,
      "ĠØ¹Ø±Ø´": 3221,
      "ĠÙħØ°Ûģ": 3222,
      "ĠØ¨Ø§ÛģÙħÛĮ": 3223,
      "ĠÙħØ®ÙĦÙĪÙĤØ§Øª": 3224,
      "ĠÙĨÛĮÚ©ÙĪÚ©Ø§Ø±ÙĪÚº": 3225,
      "ĠØ·Ø±ÛĮÙĤÛĴ": 3226,
      "ĠÚĨÚ¾Ù¾Ø§ØªÛĴ": 3227,
      "ĠØ³ÙĨÚ¯Ø³Ø§Ø±": 3228,
      "ĠÙĨØ§Ø´Ú©Ø±ÛĮ": 3229,
      "ĠØ¬Ú¾Ù¹ÙĦØ§ÙĨÛĴ": 3230,
      "ĠÙħÙĤØ¯ÙħÛģ": 3231,
      "ĠØ¯Ø§ÙĨØ§Ø¦ÛĮ": 3232,
      "ĠÙĤØ¨Ø¶Ûģ": 3233,
      "Ø¯ÙĪØ³Ø±ÛĴ": 3234,
      "ĠÙħÙĨØµÙģ": 3235,
      "ĠØ§Ø¶Ø§Ùģ": 3236,
      "ĠÙħØ¨ÙĨÛĮ": 3237,
      "ĠÛĮØ³Ø¹ÛĮØ§Ûģ": 3238,
      "ĠØ¨Ø±Ø®ÙĦØ§Ùģ": 3239,
      "ĠØªÙĨØ¯Ø±Ø³Øª": 3240,
      "ĠØªØ¹Ø¸ÛĮÙħ": 3241,
      "Ú©Ø³ÛĮ": 3242,
      "Ú©Ø¨Ø±": 3243,
      "ĠØ§Ø®Ø±": 3244,
      "Ø³ØªÛĮ": 3245,
      "ĠÙħÛĮØ³": 3246,
      "ĠØªØ´": 3247,
      "ĠØªØ¦ÛĮÚº": 3248,
      "ĠØªØ¬Ø§": 3249,
      "Ú¯Ø¦ÛĮ": 3250,
      "ĠØ¬ØªØ§": 3251,
      "Ø¨Ø¯ÛĮ": 3252,
      "Ø¦ÙĦ": 3253,
      "ĠÙĦÙħ": 3254,
      "ĠÚ©Ø±ÛĮ": 3255,
      "ĠÚ¯Ú¾ÛĮØ±": 3256,
      "ÛĮØ§ÙģØª": 3257,
      "ĠÛģÙĪØ³": 3258,
      "ĠÛģÙĪÙĦÛĴ": 3259,
      "ĠØ¢Ùħ": 3260,
      "ĠØ¢ÙħØ¯": 3261,
      "ĠØ®Ø·Ø±": 3262,
      "Ú¾ÛĮÚ¯Ø§": 3263,
      "ĠØ¹Ø§Ùħ": 3264,
      "ĠÚĨÙĦÛĮ": 3265,
      "ĠÚĨÚ©Ú¾Ø§": 3266,
      "ĠÚĨÙĪØ±ÛĮ": 3267,
      "Ø§ÛģØ¯Ûģ": 3268,
      "Ø¯Ø§Ø¨": 3269,
      "ĠÙĤÙĪ": 3270,
      "Ú©ÛģØ§": 3271,
      "ĠØ´Ø¨": 3272,
      "ĠØ´Ø±Ø§": 3273,
      "ÙħØ§ÙĨÛģ": 3274,
      "ĠØ·ÙĪÙģ": 3275,
      "ĠØ¨ÛĮØ¬": 3276,
      "ĠÙĦÙĪÚ¯ÛĴ": 3277,
      "ĠØ²Ú©Ø±": 3278,
      "ĠØ¯ÛĮÙĪØ§Ø±": 3279,
      "ÙħØ§Ø¹": 3280,
      "ĠØ¬Ø§ÙĨÛĮÚº": 3281,
      "ÙĪØ§ÙĤÙģ": 3282,
      "Ø§ÙĨÛĮÛģ": 3283,
      "ĠÙ¾Ø§Ø¤Úº": 3284,
      "Ø¨ÛĮØª": 3285,
      "ĠØ¯Ø±ØŃÙĤÛĮÙĤØª": 3286,
      "ĠØ³ÙĪØªÛĴ": 3287,
      "Ø¢Ø³": 3288,
      "ĠÙĨØ§ÙĪØ§ÙĤÙģ": 3289,
      "ĠØ¯Ø§Øº": 3290,
      "ĠÙ¾ÛĮØ¯Ø§Ø¦Ø´": 3291,
      "ĠÙ¾ÛģÙĨÚĨØ§ÙĨÛĴ": 3292,
      "ĠÚĨÚ¾ÙĪÙ¹ÛĮ": 3293,
      "ĠÙĤØ±Ø¨": 3294,
      "ĠØ¨ÚĳØ§Ø¦ÛĮ": 3295,
      "ĠØ¬Ú¾Ú©Ø§": 3296,
      "ĠØ¶ÛĮØ§ÙģØª": 3297,
      "ĠØ±Ø§Ø³ØªÙĪÚº": 3298,
      "ĠÚĨÙĦØªÛĮ": 3299,
      "ĠÙ¾ÚĳÛĮÚº": 3300,
      "ĠÙ¾Ú©ÚĳØ§": 3301,
      "ĠÙĨÚ©Ø§ÙĦÛĴ": 3302,
      "ĠØ§ÙĨØ¬ÛĮÙĦ": 3303,
      "ĠÙ¾Ú©ÚĳÙĨÛĴ": 3304,
      "ĠÙ¾Ú©ÚĳÙĪØ§ÙĨÛĴ": 3305,
      "ĠØ§ØŃÙĪØ§ÙĦ": 3306,
      "ĠØ³ÛĮÙĦØ§": 3307,
      "ĠÙ¾Ú¾ÙĦÙĪÚº": 3308,
      "ĠÙĨØ¹ÙħØªÛĮÚº": 3309,
      "ĠÙģØ±ÙħØ§Ø¦ÛĮÛĴ": 3310,
      "ĠÙħØ±Ø¯ÛĴ": 3311,
      "ĠØ¯ÙĪØ³ØªÙĪÚº": 3312,
      "ĠØ¹ÙĤÙĦÙħ": 3313,
      "ĠÙħØ´Ø±Ú©ÛĮÙĨ": 3314,
      "ĠÙ¾ØªÚ¾Ø±ÙĪÚº": 3315,
      "ĠÙ¾ÛĮØ´ÙĪØ§": 3316,
      "ĠØ³ØªØ§Ø±ÙĪÚº": 3317,
      "ĠÙħØ¶Ø¨ÙĪØ·ÛĮ": 3318,
      "ĠÙħØ®ØªØ§Ø±": 3319,
      "ĠÙħØ³Ø®Ø±": 3320,
      "ĠØ§ÙĨÚ¯ÛĮØ²": 3321,
      "ĠØ´Ø¹ÙĪØ±": 3322,
      "Ù¾ÛĮÙĦØ§Ø·Ø³": 3323,
      "ĠÚ¯Ø§ÛģÙĪÚº": 3324,
      "ĠØµØŃÛĮÙģ": 3325,
      "ĠÚĨÛģØ±ÙĪÚº": 3326,
      "ĠØ¢ÚĨÚ©ÛĮ": 3327,
      "ĠÚĨÙ¾Ú©ÛĴ": 3328,
      "ĠÚĨØ§ÙĨØ¯ÛĮ": 3329,
      "Ø§Ù¾ÙĨÛĴ": 3330,
      "ĠÙĤØ§Ø¨ÙĪ": 3331,
      "ØµØ±ÛĮÛģ": 3332,
      "ĠÙħØ¹ÙħÙĪØ±": 3333,
      "ĠØ¯Ø§ÙĨØ´": 3334,
      "Ø¯ÛĮÚ©Ú¾ÙĪ": 3335,
      "ĠØ¢Ø¬Ø§Ø¦ÛĮÚº": 3336,
      "ĠØªØ¬Ø§Ø±Øª": 3337,
      "ĠÙĦØ§ÙĦÚĨ": 3338,
      "ĠØ¨ØµÛĮØ±Øª": 3339,
      "ĠØ§Ú©ÛĮÙĦØ§": 3340,
      "ĠÙ¹Ú¾ÛĮÚ©": 3341,
      "ĠÙħØªØ§Ø¹": 3342,
      "ĠØ§Ø®Ø±ÙĪÛĮ": 3343,
      "ĠÙħÛĮØ³Ø±": 3344,
      "ĠØªØ¬Ø§ÙĪØ²": 3345,
      "ÙħÙĨ": 3346,
      "ÙħØ¨Ø§Ø±Ú©": 3347,
      "ĠÛģØ§Ø¦ÛĴ": 3348,
      "ØªÛĮÚº": 3349,
      "ĠÙħÚ¯": 3350,
      "ĠÙħÛģÛĮ": 3351,
      "ĠØ¨Ú©Ø±": 3352,
      "ĠØ¨Ù¾Ø§": 3353,
      "ĠØ³ÙĪØ±Øª": 3354,
      "ĠØªÙĦÛĴ": 3355,
      "ĠÙĨÛĮØª": 3356,
      "Ú¯Ø¦ÛĴ": 3357,
      "ĠØ¬Ø§Ûģ": 3358,
      "Ø¦ÛĮØ§Úº": 3359,
      "ĠÙĪØµ": 3360,
      "ĠÙĪÛĮØ±Ø§ÙĨ": 3361,
      "ĠØ¯Ø¦ÛĮÛĴ": 3362,
      "ĠØ¯ÙĦÛģØ§": 3363,
      "ĠØ§Ø³Ø¨Ø§Ø¨": 3364,
      "ĠÙĦÙĨÚ¯": 3365,
      "ĠÙĦÚĳØ§Ø¦ÛĮ": 3366,
      "ĠÚ©Ø±Ø§ÙĨÛĴ": 3367,
      "ĠÚ©Ø±Ø±Ûģ": 3368,
      "ĠÚ¯ÙĪÙĨ": 3369,
      "ÛĮØ§Ø·": 3370,
      "ĠØ§ÙĨØ¯ÛĮ": 3371,
      "ĠØ¢ÛĮÙĨØ¯Ûģ": 3372,
      "Ø´ÙĤ": 3373,
      "Ø´Ø§Ú¯Ø±": 3374,
      "Ø¬ÙħÛģ": 3375,
      "ĠÛĮØªÛĮ": 3376,
      "ÙĤØ¨Ø§ÙĦ": 3377,
      "ØŃØ¯": 3378,
      "ĠØ¬ÙĪÚĳÛĴ": 3379,
      "ØªØ§ÙĤ": 3380,
      "ĠØ¹Øµ": 3381,
      "ĠÙģØ§": 3382,
      "Ø®Ø§ÙĨÛģ": 3383,
      "ÙĪÙĨÛĮ": 3384,
      "ĠÙĤØ±ÛĮ": 3385,
      "ĠØ§ÙĦØªÙħ": 3386,
      "ÙĦÛĮÛģ": 3387,
      "ĠØ¨ÛĮÛģÙĪ": 3388,
      "ĠØ²ÛĮÙĨØª": 3389,
      "Ø³ÛĮÙħ": 3390,
      "Ø§Ø¨ÙĦ": 3391,
      "ĠØµØ¯ÙĪ": 3392,
      "ĠØ±ÙĪØ§Úº": 3393,
      "ĠÙ¾ÛĮÙħØ§ÙĨÛģ": 3394,
      "ĠØ¨ÛģØ±ÛĴ": 3395,
      "ĠÙħØ¬ÙĦØ³": 3396,
      "ĠÚĪØ§": 3397,
      "Ø¯ÛĮÙħ": 3398,
      "ĠØ±Ø¨ÛĮ": 3399,
      "Ø§ÙĨÛĮÙĪÚº": 3400,
      "ĠØ¨ÙĦØ§ØªØ§": 3401,
      "ĠØ¨ÙĦØ§ÙĨÛĴ": 3402,
      "ĠØ¨Ø±Ø§Ø¨": 3403,
      "ĠØ¯ÛĮÚ©Ú¾Ø¦ÛĴ": 3404,
      "ĠÙħÙĪÙĤÙĪÙģ": 3405,
      "ĠÙħØŃÙħ": 3406,
      "ĠÙħØŃØ³ÙĪØ³": 3407,
      "ĠÙĨØ§ÚĨ": 3408,
      "ĠØ¨Ø¯Ú¯ÙĪ": 3409,
      "ĠÙĤÙĪÙħÛĮÚº": 3410,
      "Ø§ÙĨÛģÛĮÚº": 3411,
      "ĠÚĪØ§ÙĦÛĮ": 3412,
      "ĠÙ¹Ú¾ÙĨÚĪ": 3413,
      "ĠÙĨØ§ÙħØ®Øª": 3414,
      "ĠØ¨Ø®ÙĦ": 3415,
      "ĠÙħØ§ÙĨØªÛĴ": 3416,
      "ĠØ§Ø¹ÙĦ": 3417,
      "ĠÙħÙĦÙĨÛĴ": 3418,
      "ĠØ¨ÙĨØ¯Ú¯ÛĮ": 3419,
      "ĠØ®Ø¨Ø±ÛĮÚº": 3420,
      "ĠÚ©Ú¾Ø§Ú©Ø±": 3421,
      "ĠÙħØ´Øº": 3422,
      "ĠÙħØ´ØªØ§ÙĤ": 3423,
      "ĠÙĨÚ©ÙĦÙĨÛĴ": 3424,
      "ÙĤÙĪÙģÛĮ": 3425,
      "ĠÙĤØ³ÙħÙĪÚº": 3426,
      "ÙģØ§ÙĤ": 3427,
      "ĠØªØ±Ø¬ÙħÛģ": 3428,
      "ĠÙ¹Ú¾ÛģØ±Ø§ØªØ§": 3429,
      "ĠØ¨Ø§ÙĦØ¢Ø®Ø±": 3430,
      "ĠØ´Ø±ÛĮÚ©ÙĪÚº": 3431,
      "ĠÙ¾ÙĦÙ¹Ø§": 3432,
      "ĠÚ©ÙĦÛĮØ³ÛĮØ§ÙĪ": 3433,
      "ĠÙ¾Ú©Ø§Ø±ØªÛĴ": 3434,
      "ĠØ¨Ø§ØºØ¨Ø§ÙĨÙĪÚº": 3435,
      "ĠÙ¾ÚĳÚ¾ØªÛĴ": 3436,
      "ĠÚ©ØªÙĨØ§": 3437,
      "ĠÙĦØ¹Ø²Ø±": 3438,
      "ĠØŃØ±Ø§ÙħÚ©Ø§Ø±ÛĮ": 3439,
      "ĠØ§ÙħÙĪØ±": 3440,
      "ĠØ§ÙĨÚ¯ÙĪØ±": 3441,
      "ĠØ·Ø§Ø¹Øª": 3442,
      "ĠÚĨÛģØ±Ûģ": 3443,
      "ĠÚ©ÙħØ§ÛĮØ§": 3444,
      "ĠÚĨÚ¾Ù¾Ø§Ø¦ÛĴ": 3445,
      "ĠØ§Ø³ØªÙĤØ¨Ø§ÙĦ": 3446,
      "ĠØ±ÛĮØ§Ú©Ø§Ø±": 3447,
      "ÙĪØ¶Ûģ": 3448,
      "ĠØ§Ø´Ø§Ø±Ûģ": 3449,
      "ĠØªÙĤØ³ÛĮÙħ": 3450,
      "ĠÚ¯Ø°Ø§Ø±": 3451,
      "ĠØ®Ø±ÛĮØ¯": 3452,
      "ĠØ·Ø¹ÙĨ": 3453,
      "ĠØ³ÙĦÙĪÚ©": 3454,
      "ĠÚĨÚ¾ÛĮÙĨ": 3455,
      "ĠÙħØ°ÛģØ¨": 3456,
      "ĠØ§Ø¶Ø§ÙģÛģ": 3457,
      "ĠÙħÛģÛĮÙĨÛĴ": 3458,
      "ĠØ§ÙĨØ¯ÛĮØ´Ûģ": 3459,
      "ĠØ§ÙĦØªÙħØ§Ø³": 3460,
      "ĠØ¨ÛĮÛģÙĪØ¯Ûģ": 3461,
      "Ø§Ú¯": 3462,
      "ÛĮÙĪ": 3463,
      "ÛģØ§Úº": 3464,
      "Ú©ÛĮÚº": 3465,
      "ĠÚ©Ø¹": 3466,
      "ĠØ§Ú©Ø±": 3467,
      "ÙĨÛĮÚ©": 3468,
      "ÙĨØ¨ÛĮ": 3469,
      "Ø³Ø®Ø±": 3470,
      "ĠÙħØ§Ø±Ø§": 3471,
      "ĠØ¨Ø·": 3472,
      "ĠØ³ÙħØ§": 3473,
      "ĠØªÛĮØ²ÛĮ": 3474,
      "ĠÙĨØ§Ø¨": 3475,
      "ĠØ¯Ø§Ø±ÛĮ": 3476,
      "ĠÚ©ÛĮÛĴ": 3477,
      "ĠØ§Ø³ÙħØ§Ø¹": 3478,
      "ĠÚ¯Ûģ": 3479,
      "ĠÚ¯Ú¾ÙĪ": 3480,
      "ĠÚ¯Ø±ÛĴ": 3481,
      "ĠØªÙħØ§": 3482,
      "ĠØªÙħØ³Ø®Ø±": 3483,
      "Ø´Ø±Øª": 3484,
      "Ø¬Ø±": 3485,
      "ÚĳÚ¾ÛĴ": 3486,
      "ĠØŃÙĨ": 3487,
      "ĠØŃÙħØ§": 3488,
      "Ø¯Ø§Úº": 3489,
      "ĠÙĤØ¨ÛĮ": 3490,
      "ĠÙĤØµÛģ": 3491,
      "ĠØ´Ø¯Øª": 3492,
      "ĠØ´ÛĮØ§Ø·": 3493,
      "Ø§Ø³ØªÛĮ": 3494,
      "ĠØ·Ø·Ø³": 3495,
      "ĠÙģØ±ÙĪ": 3496,
      "ĠØ¨ÛĮÙĪØ§": 3497,
      "Ø³ÛĮØ¯Ûģ": 3498,
      "ĠÚ¯Ø§ÙĪÚº": 3499,
      "ĠÚ¯Ø§Ø¦ÛĴ": 3500,
      "ĠØ±ÙĪÙħÛĮ": 3501,
      "ĠÙ¾ÛĮØªÛĴ": 3502,
      "ĠÙ¾Ú¾Ø±ØªØ§": 3503,
      "ĠÙ¾Ø§Ø¤": 3504,
      "Ø«ÛĮØ±": 3505,
      "ĠÙħØ±Ú¯ÛĮØ§": 3506,
      "Ø¢ÙĪØ±": 3507,
      "ĠÙ¹ÛĮÚ©": 3508,
      "ĠØ¸ÛģÙĪØ±": 3509,
      "ĠØ³Ø±Ø²ÙħÛĮÙĨ": 3510,
      "ĠØ¨ÙĨØ§ÙĪ": 3511,
      "ĠØ¨ÙĨØ§Ø¦ÛĮ": 3512,
      "ĠØ¨ÙĨØ§Ø¦ÛĮÚº": 3513,
      "ĠØ¨ÙĨØ§Ø¤": 3514,
      "Ø¸Ûģ": 3515,
      "ĠØŃÚ©ÙħÙĪÚº": 3516,
      "Ø§Ø¦Ø¨": 3517,
      "ĠØ´Ø±Ø¹": 3518,
      "ĠØ§ØªØ±ÛĴ": 3519,
      "ĠØ¨Ø§Ø¯ÙĦÙĪÚº": 3520,
      "ĠØ¨ÙĨØ§ØªØ§": 3521,
      "ĠÙħÙĦÚ©ÛĮ": 3522,
      "ĠØ´Ú©ÙĦ": 3523,
      "ĠØ§Ù¹Ú¾Ø§ØªÛĴ": 3524,
      "ĠØ§ÙĨØ¯ÙĪØ²": 3525,
      "ĠØ¨Ú¾Ø±ÛĴ": 3526,
      "ĠØ±Ø§Ø³ØªØ¨Ø§Ø²ÙĪÚº": 3527,
      "ĠÛĮØ±Ø¯ÙĨ": 3528,
      "ĠÙ¾ÛģÙĨÚĨØ§ÛĮØ§": 3529,
      "ĠÙ¾ÛģÙĨÚĨØ§Ø¦ÛĴ": 3530,
      "ĠÙħØ®ÙģÛĮ": 3531,
      "ĠØ¨Ø§Ø¯Ø´Ø§ÛģØª": 3532,
      "ĠØ¯Ø§Ø±ÙĪ": 3533,
      "ĠØ¯ÛĮÙĨØ§Ø±": 3534,
      "ĠØ¨ÙĪÙĦØªØ§": 3535,
      "ĠÙĤÛĮØµØ±ÛĮÛģ": 3536,
      "ĠÙħÙĨØªØ®Ø¨": 3537,
      "ĠØ¯Ø´ÙħÙĨÛĮ": 3538,
      "ĠÚ¯ÙĪØ§ÛģÙĪÚº": 3539,
      "ĠØ¯ÛģØ´Øª": 3540,
      "ĠØ¨Ø²Ø±Ú¯ÛĮ": 3541,
      "ĠÛģÙĪÙĨÚ¯ÛĮ": 3542,
      "ĠØªÙħØ«ÛĮÙĦÙĪÚº": 3543,
      "ĠØ´ÛģÙĪØª": 3544,
      "ĠØ§ÙĨØ¯Ø§Ø²Ûģ": 3545,
      "ĠÙĨÙģØ³Ø§ÙĨÛĮ": 3546,
      "ØŃØ§ÙĦØ§ÙĨÚ©Ûģ": 3547,
      "ĠÛģÙĪØ´ÛĮØ§Ø±": 3548,
      "ĠÛĮÙĪÙĨØ§ÙĨÛĮÙĪÚº": 3549,
      "ĠÙħØ²Ø¯ÙĪØ±ÛĮ": 3550,
      "ĠÙ¾Ú¾ÙĪÙ¹": 3551,
      "ĠÙħØ¹Ø§ÙĪØ¶Ûģ": 3552,
      "ĠØ§Ø°ÛĮØª": 3553,
      "ĠØ¢ÛģØ³ØªÛģ": 3554,
      "ĠØ§ÙĨØªÛģØ§": 3555,
      "ĠÙĤÙĦØ¹Ûģ": 3556,
      "ĠÙĨØ§Ø±Ø§Ø³ØªÛĮ": 3557,
      "ĠØ¢Ø¨Ø§Ø¡": 3558,
      "ĠØ¨Ú¾Ø±ÙĪØ³Ø§": 3559,
      "ĠÚĨÙ¹Ø§ÙĨ": 3560,
      "ĠØ±ÛģÙĨÙħØ§Ø¦ÛĮ": 3561,
      "ĠÛģØ¬Ø±Øª": 3562,
      "ĠØ§Ø³ØŃØ§ÙĤ": 3563,
      "ĠÚĪØ§Ú©ÙĪ": 3564,
      "ĠÙħØŃÙħØ¯ÛĮ": 3565,
      "ĠØ§Ø³ÙħØ§Ø¹ÛĮÙĦ": 3566,
      "ĠØ´ÛĮØ§Ø·ÛĮÙĨ": 3567,
      "Ø§Ø¬": 3568,
      "ĠÚ©Ø§Ø±ÙĪÚº": 3569,
      "ĠØ§Ú¯Ø§": 3570,
      "ÙĨØ³Ø§": 3571,
      "ÙħØ¬Ú¾ÛĴ": 3572,
      "ĠÛģÙĨØ³": 3573,
      "Ø³Ø±": 3574,
      "ĠÙħØ®ÙĦ": 3575,
      "ĠÙħØ±Ø§Ø¯": 3576,
      "ĠÙħØ§Ø¦ÙĦ": 3577,
      "ĠØ¨Ø§Ø±ÛĮ": 3578,
      "ĠØ³ÙĦØ§": 3579,
      "ĠØ³Ø±Ø§": 3580,
      "ĠØªÙģ": 3581,
      "ĠØªÛĮÙĦ": 3582,
      "ĠØªÛĮØ§Ø±ÛĮ": 3583,
      "ĠÙĨØ¦ÛĴ": 3584,
      "Ø¯ÛĮØ§": 3585,
      "Ø¯ÙĦÛĮ": 3586,
      "Ø¦Ø²": 3587,
      "ĠØ¯Ø§Ùħ": 3588,
      "ĠØ¯Ø±Ø§Ø²": 3589,
      "ĠÙĦØ§ÙĨØ§": 3590,
      "ĠÙĦÙĪÙĨÚĪ": 3591,
      "ĠÙĦÙ¹Ú©Ø§": 3592,
      "ĠÚ¯Ø§Ø±": 3593,
      "ÛĮØ§Ø²": 3594,
      "Ù¾ÙĨ": 3595,
      "ÚĨÙĦ": 3596,
      "Ø¹Ø§": 3597,
      "ĠØ¢ÙĦ": 3598,
      "Ø´ÛĮÙĨ": 3599,
      "Ø¬ÛĴ": 3600,
      "ÙģØ¹": 3601,
      "ÙģÙĦØª": 3602,
      "ĠØªÙĪÚĳÛĴ": 3603,
      "ĠØ¹ÙĨØ§": 3604,
      "ĠÚĨÙħ": 3605,
      "ĠÙģØµÙĦ": 3606,
      "ĠÙĤØ§": 3607,
      "ĠÙĤÙĦØ¨": 3608,
      "Ø§Ø³ÛĴ": 3609,
      "ĠÙĦÙĪØŃ": 3610,
      "ĠØ·ÙĦØ§ÙĤ": 3611,
      "ĠØ±ÛģØ§Ø¦Ø´": 3612,
      "ĠØ¨ÛĮÙĪÛģ": 3613,
      "ĠØ¨Ø§Ø®Ø¨Ø±": 3614,
      "ĠØµØ±ÛĮØŃ": 3615,
      "ĠØ±ÙĪØ§ÛĮØª": 3616,
      "Ø§Ø±ÛĮÙĪÚº": 3617,
      "ØªÛĮÙĪÚº": 3618,
      "ÚĪÙĦ": 3619,
      "ĠØ¨ÛģÛģ": 3620,
      "ĠÙ¾Ú¾Ø±ÙĪ": 3621,
      "ĠÚ©ÚĨÚ¾Ú¾": 3622,
      "ĠØºÙĨÛĮ": 3623,
      "ĠØºØ±ÙĪØ±": 3624,
      "ĠØºÙģÙĦØª": 3625,
      "ĠØ¨ÛģØªØ±ÛĮÙĨ": 3626,
      "Ø°ÛĮØ¨": 3627,
      "ÙĤÛĮÙĪÚº": 3628,
      "ĠØªØ§Ø«ÛĮØ±": 3629,
      "ĠØ³ÙĪÛĮØ±ÛĴ": 3630,
      "ĠÙħØ±ÛĴ": 3631,
      "ĠÙħÙĪÛĮØ´": 3632,
      "Ø®ØµÙĪØµ": 3633,
      "ĠØ¨ÛĮÙ¹ÛĮØ§Úº": 3634,
      "ĠÙ¾ÛĮØ¯Ø§ÛĮØ´": 3635,
      "ĠØ¬ÛĮØªÛĴ": 3636,
      "ĠÙĤØ±Ø§Ø¨Øª": 3637,
      "Ú©Ø§Ø´": 3638,
      "ĠØ¬Ú¾ÙĪÙĨ": 3639,
      "ĠØªØ¹Ø¨ÛĮØ±": 3640,
      "ĠÚĪØ±Ø§ÙĨÛĴ": 3641,
      "ĠØ¨Ø®Ø´ØªØ§": 3642,
      "ĠÙħØ§ÙĨÙĨÛĴ": 3643,
      "ĠÙħØ§ÙĨØªØ§": 3644,
      "ÙĦÙĪØ¬": 3645,
      "ĠØ¢ÛĮØ§Øª": 3646,
      "ĠØ§Ù¹Ú¾Ø§ÙĨØ§": 3647,
      "ĠØ§ÙĨØ¯Ú¾ÙĪÚº": 3648,
      "ĠÙģÛĮØ³ØªØ³": 3649,
      "ĠØ¬Ø§Ø¤Úº": 3650,
      "ĠØ±Ø§ØªÙĪÚº": 3651,
      "ĠØªØ±Ø¨ÛĮØª": 3652,
      "ĠÙĦÚ¯ØªÛĴ": 3653,
      "ĠÙĦÚ¯ØªØ§": 3654,
      "ĠÚĨÙĦØ§Ú¯ÛĮØ§": 3655,
      "ĠÙ¹Ú¾ÛģØ±ÙĪ": 3656,
      "ĠÙ¾Ú©ÚĳÚ©Ø±": 3657,
      "ĠØ§Ú©Ù¹Ú¾Ø§": 3658,
      "ĠÙħØªÚ©Ø¨Ø±": 3659,
      "ĠØ¨Ø§ÙĨÚ¯": 3660,
      "ĠØ³Ø§ÚĪÙĦ": 3661,
      "ĠÚ©Ú¾ÙĪØ¦ÛĴ": 3662,
      "ĠØ§ÙħØªÛĮØ§Ø²": 3663,
      "ĠØ¨ÚĳÚ¾ØªÛĴ": 3664,
      "ĠØ´ÛĮØ·Ø§ÙĨÙĪÚº": 3665,
      "ĠÙ¹Ú¾ÛģØ±Ø§Ø¦ÛĴ": 3666,
      "ĠØ§ÙĨØ¯Ø±ÛĮØ§Ø³": 3667,
      "Ø§Ø¨Ø±Ø§ÛģÛĮÙħ": 3668,
      "ĠØ§ÙĨØªÙĤØ§Ùħ": 3669,
      "ĠÙ¾ÛĮØ§Ø±Ø§": 3670,
      "ĠØ¨Ø§Ø²ÛĮ": 3671,
      "ĠØ¨Ø§Ø²Ø§Ø±ÙĪÚº": 3672,
      "ĠØ¢Ø²ÙħØ§ÛĮØ§": 3673,
      "ĠÚ¯Ø²Ø±ÛĴ": 3674,
      "ĠÙ¾Ú©Ø§Ø±ÙĨÛĴ": 3675,
      "Ø§ÛĮØ³ÛĴ": 3676,
      "ĠØ³ØªØ§Ø±ÛĴ": 3677,
      "ĠØ¯Ø±Ø®ØªÙĪÚº": 3678,
      "Ù¹Ú¾ÙĪÚº": 3679,
      "ĠÙ¾ÙĦÙ¹ÙĨØ§": 3680,
      "ĠØ¢Ù¾ÛģÙĨÚĨÛĮ": 3681,
      "ĠØ¹Ø±Ø¨ÛĮ": 3682,
      "ĠØ¹ÙĦØ§ÙĪÛģ": 3683,
      "ĠØ²ÙĪØ±Ø¢ÙĪØ±": 3684,
      "ĠÚ©Ø§Ù¹ÙĨÛĴ": 3685,
      "ĠØºÙĦØ·": 3686,
      "ĠØªØ§Ø±ÛĮÚ©ÛĮÙĪÚº": 3687,
      "ĠÙĤØ±Ø¨Ø§ÙĨÛĮÙĪÚº": 3688,
      "ĠØ¨Ø±Ú¯Ø²ÛĮØ¯": 3689,
      "ĠÙħØ¹Ø¬Ø²Ûģ": 3690,
      "ĠÙ¾Ø±ÙĪØ±Ø´": 3691,
      "ĠÙ¹Ú©ÚĳÙĪÚº": 3692,
      "ĠØ¯ÛĮÙĪØ§ÙĨÛģ": 3693,
      "ĠØŃØ±Ú©Øª": 3694,
      "ĠØ§ÚĳØ§ÛĮØ§": 3695,
      "ĠÚ¯Ø±ÛĮØ²": 3696,
      "ĠÙħØ³ØªØ¹Ø¯": 3697,
      "ĠØ¹ÙĦÛĮÚ¾Ùħ": 3698,
      "ĠØ¹ÙĦÛĮÚ¾ÙħØ§": 3699,
      "ĠÚĨÙĪÙ¾Ø§Ø¦ÛĴ": 3700,
      "ĠØµØŃØ¨Øª": 3701,
      "ĠØ³Ú©ÙĪÙĨØª": 3702,
      "ĠØ¨Ú¯Ø§Úĳ": 3703,
      "ĠØªÚ©Ø±Ø§Ø±": 3704,
      "ĠØ²ÙĨØ¬ÛĮØ±ÙĪÚº": 3705,
      "ĠØ´Ø±Ø§Ú©Øª": 3706,
      "ĠØ·ÙĪÙģØ§ÙĨ": 3707,
      "ĠØ³ÛĮÙĦØ§Ø³": 3708,
      "ĠÙħØ´ØºÙĪÙĦ": 3709,
      "ĠÙĨØ§Ø¨ÙĪØ¯": 3710,
      "Ø§ÙĪØª": 3711,
      "Ø±Ø§Ûģ": 3712,
      "ĠÚ©Ø§ÙĦ": 3713,
      "ĠÚ©Úĳ": 3714,
      "ĠØ§ÙĪÙĨØ¯": 3715,
      "ÙĦØ²": 3716,
      "ĠØ¨Ø³Øª": 3717,
      "ĠØ¨Ù¹Ú¾Ø§": 3718,
      "ĠÙĨÙĨ": 3719,
      "Ú¯Ø°": 3720,
      "ĠØ¬Ø§Ø±Ûģ": 3721,
      "ĠÙ¾ÚĨ": 3722,
      "ĠÙ¾ÛĮØ§Ø±": 3723,
      "ĠÙĪØ¨Ø§ÙĦ": 3724,
      "ĠØ¯Øº": 3725,
      "ĠÙĦÙģ": 3726,
      "ĠÙĦØ°": 3727,
      "ĠÚ©Ø±ÙĦÛĮÚº": 3728,
      "ĠÚ¯ÙĦ": 3729,
      "ĠÚ¯Ø³ØªØ§": 3730,
      "Ù¾ÛģØ±": 3731,
      "ĠØ¢Ø´Ú©": 3732,
      "Ø¬Ø§ÙĨ": 3733,
      "ĠØ®Ø§Ø±": 3734,
      "ĠØ®Ø§ÙħÙĪØ´": 3735,
      "ÙģÙĦ": 3736,
      "ÙģØ±ÛĮ": 3737,
      "Ø²ÙĨ": 3738,
      "ØŃÙħ": 3739,
      "ĠØ¹ÙĦ": 3740,
      "ĠØ¹Ø´Ø±Øª": 3741,
      "ÚĳÚ©Ø§": 3742,
      "ĠÙģØ§ÙĨÛĮ": 3743,
      "ĠØ´ÙĪØ±": 3744,
      "ĠÙĪØ§ÙĦØ¯": 3745,
      "ÙħØ§ÙĨÛĴ": 3746,
      "ĠØ·Ø¨Ø¹": 3747,
      "ØµÙĪØ±Øª": 3748,
      "ĠØ¬Ø§ÛĮØ§": 3749,
      "ĠØ²Ø±": 3750,
      "ĠØ²Ø¨Ø¯ÛĮ": 3751,
      "ĠØ¯ÛĮÛģ": 3752,
      "ĠØ¯ÛĮÙĨÛĮ": 3753,
      "ĠØ¬Ø§ÙĨÙĪ": 3754,
      "ĠØ¬Ø§ÙĨØ´ÛĮÙĨ": 3755,
      "ĠØ±ÙĪÙ¾": 3756,
      "ĠØ±ÙĪÚ©Ø§": 3757,
      "ĠØ±ÙĪÙ¾ÛĴ": 3758,
      "ĠÙ¾ÛĮÙĪÙĨØ¯": 3759,
      "ĠØ¨ÛģÚ©Ø§": 3760,
      "ĠÙ¾Ú¾Ø±ÛĴ": 3761,
      "ĠØ¬ÙĨÚ©Ø§": 3762,
      "Ø¨Ø±ÙĪ": 3763,
      "ĠØºØ§Ø¦Ø¨": 3764,
      "ĠØ¨ÛģØªÙĪÚº": 3765,
      "ĠØ¹ÙĦÛĮÛģÙħØ§": 3766,
      "ĠÙ¾ÛģÙĨÚĨÚ©Ø±": 3767,
      "Ø§Ø¦Ø¹": 3768,
      "ĠØŃØ§ÙĦØ§Øª": 3769,
      "ĠÙĨØ§ÙħÛĮ": 3770,
      "ĠÙĨØ´Ûģ": 3771,
      "ĠØ¨ÚĨÙĪ": 3772,
      "ĠØ¶Ø§Ø¦Ø¹": 3773,
      "ØµÛĮÙĦ": 3774,
      "ĠÙħØ§ÙĨÚ¯ÙĪ": 3775,
      "ĠÚ¯Ø±Ùħ": 3776,
      "ĠÙħÙĦØªØ§": 3777,
      "ĠÙħÙĦÚ©Ø±": 3778,
      "ĠØ¯Ø¹ÙĪÛĮ": 3779,
      "ĠÚ¯Ú¾ÙĨ": 3780,
      "ĠÙ¾Ú©ÚĳÛĴ": 3781,
      "ĠØ¨Ú¾Ù¹": 3782,
      "ĠÙĨÚ©Ø§ÙĦÛĮÚº": 3783,
      "ĠØ¢Ø²ÙħØ§ÙĨÛĴ": 3784,
      "ĠØ§Ø¬Ø±Øª": 3785,
      "ĠØ§Ø¬Ø¯Ø§Ø¯": 3786,
      "ĠØ´ÛĮØ®ÛĮ": 3787,
      "ĠØ¨ÚĳÚ¾ÙĨÛĴ": 3788,
      "ĠÙĨØ§ÙģØ±ÙħØ§ÙĨÙĪÚº": 3789,
      "ĠØ¢Ø¬Ø§ÙĨÛĴ": 3790,
      "ĠØŃØ¶Ø±Øª": 3791,
      "ĠØ¨Ø§Ø·ÙĨ": 3792,
      "ĠÙħØ³ÙĦØ·": 3793,
      "ĠÙ¾ÛĮØ§Ø³Ø§": 3794,
      "ĠÙ¾ÛĮØ§Ø±ÛĴ": 3795,
      "ĠØ¨ÚĨØ§Ø¦ÛĴ": 3796,
      "ĠÚĪÚ¾Ø§ÙĨÙ¾": 3797,
      "ĠØ´ÙĪÙĤ": 3798,
      "ĠØ±ÙĪÚ©ÙĨÛĴ": 3799,
      "ĠØ¬ØªÙĨØ§": 3800,
      "ĠØ¨Ú¾ÙĪÚ©Ø§": 3801,
      "ĠÚ¯Ø±Ø¯Ø´": 3802,
      "ĠÙĦÚ©Ú¾ÙĨÛĴ": 3803,
      "ĠÙĦÚ©Ú¾ØªØ§": 3804,
      "ĠÚĨÙĪÚ©ÛĮ": 3805,
      "ĠØ±Ø§ØŃØª": 3806,
      "ĠÙģØ±Ø²ÙĨØ¯ÙĪÚº": 3807,
      "ĠÙħØºÙĦÙĪØ¨": 3808,
      "ĠÙ¾ÙĪÚĨÚ¾ØªØ§": 3809,
      "ĠØµØ¯ÙĤÛģ": 3810,
      "ĠØ§ÙĨØªØ¸Ø§Ùħ": 3811,
      "ĠÙħÛĮÙĪÛĴ": 3812,
      "ĠÙħØ§ÙĨÚ¯ØªØ§": 3813,
      "ĠÚĨØ±ÚĨØ§": 3814,
      "ĠØ®Ø§ÙĦÛĮ": 3815,
      "ĠØ®Ø§ÙĦÙĤ": 3816,
      "ĠØ¯ÙħØ´ÙĤ": 3817,
      "ĠØªÙĨØ¨ÛĮÛģ": 3818,
      "ØŃØ§ÙĦÛĮÚ©Ûģ": 3819,
      "ÙħÛĮØ±Ø§": 3820,
      "ĠØ¹Ø§Ø¬Ø²ÛĮ": 3821,
      "ĠØ§Ø¯Ú¾Ø±": 3822,
      "ĠÙħÙģÙĦÙĪØ¬": 3823,
      "ĠÚ¯Ú¾Ù¹ÙĨÛĴ": 3824,
      "ĠÙĨØ§Ø¯Ø§ÙĨ": 3825,
      "ĠÙħÚĨÚ¾ÙĦÛĮÙĪÚº": 3826,
      "ĠØ¨Ø§Ø´ÙĨØ¯ÙĪÚº": 3827,
      "ĠØ§Ø°ÙĨ": 3828,
      "ĠÚ©ÛģÙĦØ§Ø¦ÛĴ": 3829,
      "ĠØ§ÚĳØ§ØªÛĴ": 3830,
      "ĠØ§ÙĨØ¯Ú¾ÛĮØ±ÛĴ": 3831,
      "ĠØ¨ÚĨÚ¾ÚĳÛĴ": 3832,
      "ĠÚĨÙĪÙ¾Ø§ÛĮÙĪÚº": 3833,
      "ĠÙ¾Ú¾ÙĪÙĨÚ©Ø§": 3834,
      "ĠØ§ÙĨØ³Ø§ÙĨÛĮØª": 3835,
      "ĠÙ¹ÙĪÚ©Ø±": 3836,
      "ĠØ¬Ø§Ú¯ØªÛĴ": 3837,
      "ĠÚ¯Ú¾Ø§Ø³": 3838,
      "ĠØ¢Ù¾Ú©ÚĳØ§": 3839,
      "ĠÙħÙĤØµØ¯": 3840,
      "ĠÙĤÙĪÙħÛĮ": 3841,
      "ĠÙħÚ¯Ø¯ÙĦÛĮ": 3842,
      "ĠÙĦÙģØ¸": 3843,
      "ĠÙħÚ¯Ø¯ÙĦÛĮÙĨÛĮ": 3844,
      "ÛĮÙĤÛĮ": 3845,
      "ÙĨÛĮØ§Ûģ": 3846,
      "ÙħÛĮØ±ÛĴ": 3847,
      "ØªØ±": 3848,
      "ĠÙħÚĨ": 3849,
      "ĠÙħØ¯ÛĮ": 3850,
      "ĠÙħÚ©Ùħ": 3851,
      "ĠÙħÛĮÙħ": 3852,
      "ĠØ³ÙĪÙĨ": 3853,
      "ĠØ³ÙħØª": 3854,
      "ĠØªÙĦ": 3855,
      "ĠØªÙ¾": 3856,
      "ĠÙĨØ§ÙĦ": 3857,
      "ĠÙĨÙģØ±Øª": 3858,
      "ĠÙĨÙģØ§ÙĤ": 3859,
      "Ú¯Ú¾": 3860,
      "ĠØ¬Ø¯": 3861,
      "ĠØ¬Ø±Ùħ": 3862,
      "ĠØ¬Ú¾Ø§Úĳ": 3863,
      "Ø¨Ø³": 3864,
      "Ø¨ÙĪØª": 3865,
      "ĠÙĪØ³ÙĪØ³": 3866,
      "ĠØ¯Ø§ÙĨØª": 3867,
      "ĠØ§Ø³Ú©Ø±": 3868,
      "Ø§ÙĨÙĪÙĨ": 3869,
      "ĠÙĦÙ¾": 3870,
      "ĠÙĦÙ¾ÛĮ": 3871,
      "ĠÚ©Ø±ÙĦÛĮØ§": 3872,
      "ĠÚ¯ÙĦÛĴ": 3873,
      "ĠÚ¯ÛĮÛģ": 3874,
      "ĠØ±Ø¹": 3875,
      "ĠØ±Ø¦ÛĮ": 3876,
      "ĠØ±Øº": 3877,
      "ĠØ¢Ùģ": 3878,
      "Ø§ÙĦÙĪ": 3879,
      "Ø¬Ø³ÛĴ": 3880,
      "ĠÛĮÚ©Ø§": 3881,
      "ĠÛĮÚ©ØªØ§": 3882,
      "ÙĤØ³": 3883,
      "ĠØ®ÙĦ": 3884,
      "ĠØ®Øµ": 3885,
      "ÙģÛģ": 3886,
      "ØŃÚ©Ùħ": 3887,
      "ĠØ¬ÙĪØ¦ÛĮ": 3888,
      "ĠÙ¾Ø±Ø§Ú¯": 3889,
      "ĠÚĨØ§Ø¯Ø±": 3890,
      "ĠÙģØ¯ÛĮÛģ": 3891,
      "ĠØŃÚ©ÛĮ": 3892,
      "ĠØŃÙĦÙħ": 3893,
      "ĠÙĤØ§ÙĨÙĪÙĨ": 3894,
      "ĠØ´ÛĴ": 3895,
      "ĠØ´Ú©Ø§Ø±": 3896,
      "ĠØ´Ú©Ø§": 3897,
      "ĠØ´Ø¨Ûģ": 3898,
      "ÙĨØ§Ø³": 3899,
      "ØµÛĴ": 3900,
      "ĠÙģØ±ÙĪØª": 3901,
      "ĠØ²ÛĮ": 3902,
      "ĠØ²Ø§Ø±ÛĮ": 3903,
      "Ø¶ÙĦ": 3904,
      "ÙħÛĮÙĦ": 3905,
      "ĠØµØ§Ø¯Ø±": 3906,
      "ĠØ¯ÙĪÚ¯ÙĨØ§": 3907,
      "ĠØ¯ÙĪÙ¾ÛģØ±": 3908,
      "ĠØ±ÙĪØ¨Ø±ÙĪ": 3909,
      "Ø´Ú©ÙĦ": 3910,
      "ÙĪØ§Ø¬": 3911,
      "Ø±Ø§Ø¬": 3912,
      "ĠØªÚ©Ø°ÛĮØ¨": 3913,
      "ĠÙħØ¹Ø°": 3914,
      "ĠÙħØ¹ÛĮØª": 3915,
      "ĠØªØ§Ø²Ûģ": 3916,
      "ĠØ¯Ø±Ø¢ÙĨ": 3917,
      "ĠÚ©Ú¾ÚĳÛĮ": 3918,
      "ĠØ³ÙĪÚ©Ú¾": 3919,
      "ĠÚĨØ§ÛģØªÛĮ": 3920,
      "Ø«Øª": 3921,
      "ĠÙĦØ§ÙĪÛĮ": 3922,
      "ĠÙħØ±ÙĪ": 3923,
      "ĠØ±Ú©Ú¾ÙĪÚº": 3924,
      "ĠØ¨Ø±Ù¾Ø§": 3925,
      "ĠÙ¹ÙĦ": 3926,
      "ĠØ³ÙĨØ§ØªØ§": 3927,
      "ĠØ¯ÛĮÚ©Ú¾Ú¾": 3928,
      "ĠÙħØŃÙĦØ§Øª": 3929,
      "ĠÙĨØ§Ù¾": 3930,
      "ĠØ¨Ø¯Ú©Ø§Ø±ÛĮ": 3931,
      "ĠØ´Ø®ØµÙĪÚº": 3932,
      "ĠØŃÙĤÙĪÙĤ": 3933,
      "Ø¨ØªÛģ": 3934,
      "ÛĮÛģÙĪØ¯ÛĮ": 3935,
      "ĠØ±Ø³ÙĪØ§Ø¦ÛĮ": 3936,
      "ĠØ³Ú©Ø§": 3937,
      "ĠÙ¾ÛģÙĨÚĨØªØ§": 3938,
      "ĠÚĪØ§ÙĦØªÛĴ": 3939,
      "ĠÚ¯ÙĨØªÛĮ": 3940,
      "ĠÛģÙĪØ§Ø¤Úº": 3941,
      "ĠÙĤØ±Ø¹Ûģ": 3942,
      "ĠÙĨØ§ÙħÙĪÚº": 3943,
      "ĠØ§ØªÙĨÛĴ": 3944,
      "ĠØ§ØªØ§Ø±ÛĴ": 3945,
      "ĠØ¬Ú¾Ù¾": 3946,
      "ĠÙħØ§ÙĨØ§": 3947,
      "ĠÙħØ§ÙĨÚ¯ÛĴ": 3948,
      "ÙĦÙĪØ³": 3949,
      "ĠØ¨ÙĨÛĮÚº": 3950,
      "Ú¯Ø²Ø§Ø±": 3951,
      "ĠÚ©Ø§ÙģØ±ÙĪ": 3952,
      "ĠÚĨÙĦÙĨØ§": 3953,
      "ĠÙ¾ÚĳØªØ§": 3954,
      "ĠØ§Ù¹Ú¾ÛĮÚº": 3955,
      "Ø¯Ø³ØªÛĮ": 3956,
      "ĠØ¢Ú¯Ø¦ÛĴ": 3957,
      "ĠÙ¾Ú¾ÙĨØ³": 3958,
      "ĠØ¨ÙĪÙĨÛĴ": 3959,
      "ĠØ¨ÙĪÙĦØ§": 3960,
      "ĠÙĨÚ©ÙĦÛĮÚº": 3961,
      "ĠÙĨÚ©ÙĦØªÛĴ": 3962,
      "ĠÙħÙĨØ§Ùģ": 3963,
      "ĠÙĨÚ©Ø§ÙĦØªÛĴ": 3964,
      "ĠÚ©ÙĨÚ¯": 3965,
      "ĠÙħØ¹Ø¨ÙĪØ¯Ø§ÙĨ": 3966,
      "ĠÚĨÙĦØ§Ø¦ÛĴ": 3967,
      "ĠØ§Ú©Ù¹Ú¾ÛĴ": 3968,
      "ĠØ³Ø§ÙĪ": 3969,
      "ĠÙ¹Ú¾ÛģØ±ÛĮ": 3970,
      "ĠÙĨÛĮÙĨØ¯": 3971,
      "ĠØªØ¨Ø¯ÛĮ": 3972,
      "ĠØ§ÙģØ±Ø§Ø¯": 3973,
      "ĠØ¨Ø§Ø·ÙĦÛģ": 3974,
      "ĠØ¯Ú©Ú¾ÙĪÚº": 3975,
      "ĠÙģØ§Ø¦Ø¯ÛĴ": 3976,
      "ĠØ¨ÙĪÙĦØªÛĴ": 3977,
      "ĠØ¬ÙĨØªÛĮÚº": 3978,
      "ĠÚ©Ø´ØªÛĮÙĪÚº": 3979,
      "ĠÚ¯Ø²Ø§Ø±ÙĪÚº": 3980,
      "ĠØ¹ÙĨÛĮØ§Ûģ": 3981,
      "ĠÙ¾ÚĳÚ¾ÙĨÛĴ": 3982,
      "Ø§ÛĮØ³Ø§": 3983,
      "ĠÚĪÚ¾ÙĪÙĨ": 3984,
      "ĠØ¬Ú¾Ú¯ÚĳÛĴ": 3985,
      "ĠÙħØµÛĮØ¨ØªÙĪÚº": 3986,
      "ĠÙĦÙĪÙ¹ÙĨØ§": 3987,
      "ĠÙ¾ÙĪÚĨÚ¾ØªÛĴ": 3988,
      "ĠÙħÛģÛĮÙĨ": 3989,
      "ĠØªÛĮØ³Ø±ÛĮ": 3990,
      "ĠÙĤØ¯ÙħÙĪÚº": 3991,
      "ĠÙħØ§Ø¯Ûģ": 3992,
      "ĠØµØ§ØŃØ¨Ø§ÙĨ": 3993,
      "ĠÚĪØ±Ø§Ø¦ÛĴ": 3994,
      "ĠÙħØ±ØªÚ¾Ø§": 3995,
      "ĠÙħÚĨÚ¾ÙĦÛĮØ§Úº": 3996,
      "ĠÙ¾ÚĨÚ¾ÙĦÛĴ": 3997,
      "ĠØ¯ÙģØ¹Ûģ": 3998,
      "ĠØ®Ø²Ø§ÙĨÛĴ": 3999,
      "ĠØ¯ÛĮÙĪØ§ÙĨ": 4000,
      "ĠØ³ÛĮÙĨÛģ": 4001,
      "ĠØªÛģÙħØª": 4002,
      "ĠÙħØ§ØªÙħ": 4003,
      "ĠØ§Ø¨ØªØ¯Ø§Ø¦ÛĮ": 4004,
      "Ø·ÙģÛģ": 4005,
      "ØªÙħÛģØ§Ø±ÛĴ": 4006,
      "ØªÙħÛģØ§Ø±Ø§": 4007,
      "ĠØ¨Ø±ØªØ±": 4008,
      "ĠØ¢Ø¬Ø§Ø¤": 4009,
      "Ø§ØµØ¯": 4010,
      "ĠÙĨØ±ÙħÛĮ": 4011,
      "ĠÙħØ®ØªÙĪÙĨÙĪÚº": 4012,
      "ĠØ³ÛĮÚ©Ú¾": 4013,
      "ĠÙ¾Ø±Ø¯ÛĮØ³ÛĮ": 4014,
      "ĠØ³ÙģØ§Ø±Ø´": 4015,
      "ĠØ¬Ú¾Ø§ÚĳÛĮÙĪÚº": 4016,
      "ĠØ§Ø¨Ú¾Ø§Ø±": 4017,
      "ĠÛģÙĪØ³Ú©ÛĴ": 4018,
      "Ø¢Ø³ÙħØ§ÙĨ": 4019,
      "ĠÙĪØµÛĮØª": 4020,
      "ĠØ¹ØµØ§": 4021,
      "ĠØ¨Ø±Ø§Ø¨Ø§": 4022,
      "ĠØ¨Ø¯Ú¯ÙĪØ¦ÛĮ": 4023,
      "ÛĮÙĪØªÛĮ": 4024,
      "ĠÚ©Ø¹Ø¨Ûģ": 4025,
      "ĠØ¨Ø·ÙĪØ±": 4026,
      "ĠØ³ÙĦØ§ÙħØª": 4027,
      "ĠÙ¾ÚĨØ§Ø³": 4028,
      "ĠØ®Ø§Ø±Ø¬": 4029,
      "ÛĮÙĤÛĮÙĨØ§": 4030,
      "ĠÙħÚ©ÙħÙĦ": 4031,
      "ĠØ§Ø³Ú©Ø±ÛĮÙĪØªÛĮ": 4032,
      "ĠÚ¯ÛĮÛģÙĪÚº": 4033,
      "ĠÛĮÚ©Ø§ÛĮÚ©": 4034,
      "ĠØ´Ú©Ø§ÛĮØª": 4035,
      "ĠØ¯Ø±Ø¢ÙĨØŃØ§ÙĦÛĮÚ©Ûģ": 4036,
      "ÙĪØ§ÙĨ": 4037,
      "Ú©ÙĨ": 4038,
      "Ú©Ø§Ø¨": 4039,
      "ĠÚ©Ø´Øª": 4040,
      "ÙĨÙĪØŃ": 4041,
      "ÙħØŃ": 4042,
      "ÙħØ³ÛĮ": 4043,
      "ÙħØªÛĮ": 4044,
      "ĠÛģÙģØªÛģ": 4045,
      "ĠÛģØªÚ¾": 4046,
      "Ø³ÙĪÙĨ": 4047,
      "ĠÙħÚĳ": 4048,
      "ĠÙħÙ¹": 4049,
      "ĠÙħØ®ØµÙĪØµ": 4050,
      "ĠØ¨Ø§ÙĨÛĮ": 4051,
      "ĠØ¨Ø¬Ø§Ø¦ÛĴ": 4052,
      "ĠØ¨ÙĪØ³Ûģ": 4053,
      "ĠØªÙģØ±": 4054,
      "ĠØªÙĤØ±": 4055,
      "Ú¯Ø§ÙĨ": 4056,
      "ĠØ¬ÙĨØ§": 4057,
      "ĠØ¬Ø±Ø§": 4058,
      "Ø¨Ø±ÛĮ": 4059,
      "ĠÙ¾Ø³Øª": 4060,
      "ĠÙ¾ÙĦØ§ÛĮØ§": 4061,
      "ĠÙĪØ³Ø§": 4062,
      "Ø§ÙĨØ¯Ø§ÙĨ": 4063,
      "ĠÙĦØ§Ùħ": 4064,
      "ĠÚ©Ø±ÚĨ": 4065,
      "ĠÚ©Ø±ÙĪÙĨÚ¯Ø§": 4066,
      "ĠÚ¯ÙĦÛĮ": 4067,
      "ÛĮØ§Ø¦ÛĮ": 4068,
      "ĠØ±ÙĪÙĨØ§": 4069,
      "ĠÛģÙĪØ¯": 4070,
      "ĠØ¢Ù¹Ú¾": 4071,
      "Ø´Ø§ÙĨÛĮ": 4072,
      "ĠÛĮÚ©ÛĮ": 4073,
      "ÙĤÛĴ": 4074,
      "ĠØ®Ø§ÙĨØ¯Ø§ÙĨ": 4075,
      "ÙģØ´Ø§ÙĨÛĮ": 4076,
      "Ú¾ÛĮØ±Ø§": 4077,
      "Ø²Ø´": 4078,
      "Ø²Ø¯Ûģ": 4079,
      "ØŃØ¯ÙĪÚº": 4080,
      "ĠØªÙĪÚĳÛĮ": 4081,
      "ĠÛģÙħØ±Ø§Ûģ": 4082,
      "ØªØ§ÙĪ": 4083,
      "ĠÚĨÛĮ": 4084,
      "ĠÚĨÙĨØ§": 4085,
      "ĠØŃØ´Ø±": 4086,
      "ĠÙĤØ¯ÛĮÙħ": 4087,
      "ĠØ´ÙģÙĤØª": 4088,
      "ĠØ§ÙĦØª": 4089,
      "ĠØ§ÙĦÛĮØ´": 4090,
      "ĠØ§ÙĦØŃÙĤÛĮÙĤØª": 4091,
      "ÙĨØ§Ùħ": 4092,
      "Ù¹ÙĪÚº": 4093,
      "Ù¹ÙĪØ§": 4094,
      "Ø§Ø³Ø±": 4095,
      "ĠÙĪØ§ÙĦØ¯ÛĮÙĨ": 4096,
      "ÙĦÛĮØ¯ÛĮ": 4097,
      "ĠÙģØ±ÛĮ": 4098,
      "ÙĨÛĮØ³": 4099,
      "ĠØ¬Ø§ÙĨØªÛĮ": 4100,
      "ĠØ¬Ø§ÙĨÙģØ´Ø§ÙĨÛĮ": 4101,
      "ĠØ®ÙĪØ¨ÛĮ": 4102,
      "Ø±ÛĮÙħ": 4103,
      "ĠØ¯ÙĪÚĳÛĴ": 4104,
      "ĠÙ¾ÛĮØªØ§": 4105,
      "ĠÙ¾Ú¾Ø±ÙĨÛĴ": 4106,
      "ĠØ¬ÙĨØªÛĮ": 4107,
      "ĠØºÙĦÛģ": 4108,
      "ĠÛĮØ§ÙģØ§": 4109,
      "ÙģØ±Ø¶": 4110,
      "Ø§ÙĨÛĮØª": 4111,
      "ĠÙħØ¹Ø²": 4112,
      "ĠØªØ§Ø¬": 4113,
      "ĠØ³ÙĪØ¯": 4114,
      "ÛģØ±Ú¯Ø²": 4115,
      "ĠÙħØ±ØªÛĴ": 4116,
      "ĠÙħØ±Ú¯Ø¦ÛĴ": 4117,
      "ØºÙĪ": 4118,
      "ĠÙĨØ§ØµØ±": 4119,
      "ĠØ³Ø±ØŃØ¯ÙĪÚº": 4120,
      "ĠØ³Ø±Ø§Ø³Ø±": 4121,
      "Ø¸Ùħ": 4122,
      "ĠØ¯ÙĦØ§ÙĨÛĴ": 4123,
      "ĠØ®ÙĪØ´Ø¨ÙĪ": 4124,
      "ĠÙħÙĨØ¸Ø±": 4125,
      "ĠÙ¾ÛģÙĨÚĨÛĮÚº": 4126,
      "ĠÚĪØ§ÙĦÙĪÚº": 4127,
      "ĠÚĪØ§ÙĦØªØ§": 4128,
      "ĠÚĨÚ¾ÙĪØ§": 4129,
      "ĠØ´Ø±ÛĮØ±": 4130,
      "ĠØ§ØªØ±ÛĮ": 4131,
      "ĠØªØ¹Ø§ÙĦ": 4132,
      "ĠÚĪØ±ÙĨÛĴ": 4133,
      "ĠØ¶Ø±Ø±": 4134,
      "ĠÙħØ§ÙĨÚ¯Ø§": 4135,
      "ĠØ¬ÙĦÙĪÛģ": 4136,
      "ĠØ¨ÙĨÛĮØ§": 4137,
      "ĠÚ¯Ø±ÙĨÛĴ": 4138,
      "ĠÛģØ§ØªÚ¾Ú¾": 4139,
      "ĠØ¢Ú¯Ø¦ÛĮ": 4140,
      "ĠÚĨÚ¾ÙĪÚĳÛĮ": 4141,
      "ĠÙĪØ¹Ø¯ÙĪÚº": 4142,
      "ĠÙĪØ¹Ø¯ÛĴ": 4143,
      "ĠÙħØ´Ø§ÛģØ¯Ûģ": 4144,
      "ĠØ³ÙĨØ§ÛĮØ§": 4145,
      "ĠØ³ÙĨØ§Ø¦ÛĮÚº": 4146,
      "ĠÚĨÚ¾Úĳ": 4147,
      "ĠÚĨÚ¾Ù¾ÛĮ": 4148,
      "Ù¾Ø±Ø³": 4149,
      "ĠÚ©Ø¨ÙĪØª": 4150,
      "ĠÙ¹Ú¾ÛģØ±ÛĮÚº": 4151,
      "ĠÙ¹Ú¾ÛģØ±Ø§ÙĨÛĴ": 4152,
      "ĠÙħØ·ÙĦÙĤ": 4153,
      "ĠØ¨Ú¾ÛĮÚĳÛĮÚº": 4154,
      "ĠØŃØ³Ø±Øª": 4155,
      "ĠÙħØ§ÙĦÚ©ÙĪÚº": 4156,
      "ĠØ³Ø²Ø§ÙĪØ§Ø±": 4157,
      "ĠÙ¾ÛĮØ±ÙĪ": 4158,
      "ĠØ´Ú©Ø±Ú¯Ø°": 4159,
      "ĠÚ©Ú¾ÛĮØªÙĪÚº": 4160,
      "ĠØ§ÙģØ±Ø§": 4161,
      "ĠØ¨Ø§Ø·ÙĨÛĮ": 4162,
      "ĠÙħØ§Ø±ÙĪ": 4163,
      "ĠÙħØ§Ø±ØªØ§": 4164,
      "ĠØ¨Ø§Ø²ÙĪ": 4165,
      "ĠØ¨Ø±Ø§Ø¦ÛĮØ§Úº": 4166,
      "ĠØ¨Ø§ÙĨØ¯Ú¾ÛĴ": 4167,
      "ĠÙģØ±ÛĮØ³ÛĮÙĪ": 4168,
      "ĠØŃØ¯ÙĪØ¯": 4169,
      "ĠØ³ØªÙģ": 4170,
      "ĠØ³ØªØ§ØªØ§": 4171,
      "ĠØ¯Ú¾ÙĪÙ¾": 4172,
      "ĠØ¨Ø±Ø³ÙĪÚº": 4173,
      "ĠØ¨Ú¾ÙĪÚ©": 4174,
      "ĠÚ©Ø§ÙĨÙ¾": 4175,
      "ĠØ±Ø§Ø¦ÛĴ": 4176,
      "ĠÙħØºØ±ÙĪØ±": 4177,
      "ĠÙ¾ÙĪÚĨÚ¾ÙĨÛĴ": 4178,
      "ĠØ¨Ø§ÙĨØ¯Ú¾ØªÛĴ": 4179,
      "ĠÙħØ§ÙĨÚ¯ÙĨÛĴ": 4180,
      "ĠÙĨÙĪØ§Ø²ØªØ§": 4181,
      "ĠÛģÙĪØ¬Ø§Ø¤": 4182,
      "ĠØ·Ø§ÙĤØªÙĪØ±": 4183,
      "ĠØ¹Ø¨Ø±Ø§ÙĨÛĮ": 4184,
      "ĠØ§ÙĪÙĨÚĨÛĴ": 4185,
      "ĠÙĦÚ©Ú¾ÛĴ": 4186,
      "ĠØ³Ú©Ú¾Ø§Ø¦ÛĴ": 4187,
      "ĠØªØ®ØªÙĪÚº": 4188,
      "ĠØ¨Ø¯Ø±ÙĪØŃÛĮÚº": 4189,
      "ĠÚĪÚ¾ÙĪÙĨÚĪÙĨÛĴ": 4190,
      "ĠØ§Ø´Ø±Ùģ": 4191,
      "ĠØŃØ±ÙħØª": 4192,
      "ĠÙĤØ±Ø¨Ø§ÙĨÛĮØ§Úº": 4193,
      "ĠØ®ÛĮØ§ÙĨØª": 4194,
      "ĠØ¨ÛĮÙħØ§Ø±ÛĮÙĪÚº": 4195,
      "ĠØ¬ÙĦØ§Ø¦ÛĴ": 4196,
      "ĠØ¬Ú¾Ù¹ÙĦØ§ØªÛĴ": 4197,
      "ĠØ§ÙĪÙĦÛĮØ§Ø¡": 4198,
      "ĠÙħØ²Ø¯ÙĪØ±": 4199,
      "ĠÙ¾Ú¾ÙĪÙĦ": 4200,
      "ĠÙģÙĪØ¬ÙĪÚº": 4201,
      "ĠÛģÙĪØ¬Ø§ØªØ§": 4202,
      "ĠØ®Ø·Ø§Ø¦ÛĮÚº": 4203,
      "ĠØ®Ø´Ú©ÛĮ": 4204,
      "ĠØ·Ø¨ÙĤØ§Øª": 4205,
      "Ø®Ø¨Ø±Ø¯Ø§Ø±": 4206,
      "ĠâĢľ": 4207,
      "ĠâĢĿ": 4208,
      "ĠØ§Ø±ØªÚ©Ø§Ø¨": 4209,
      "ĠÚĨØ´ÙħÙĪÚº": 4210,
      "ĠÛģÚĪÛĮØ§Úº": 4211,
      "ĠØ®Ø³Ø§Ø±Ûģ": 4212,
      "ĠØªÙĨÛģØ§Ø¦ÛĮ": 4213,
      "ĠØ§ÙģØ³Ø³": 4214,
      "ĠÚĨØ±ÙĪØ§ÛģØ§": 4215,
      "ĠØªØŃÙĤÛĮÙĤ": 4216,
      "ĠÙ¾Ø±ÛĮØ´Ø§ÙĨ": 4217,
      "ĠØªØ´Ø±ÛĮÙģ": 4218,
      "ĠØ¹ÙĤÙĦÙħÙĨØ¯": 4219,
      "ĠÙĤØ±ÛĮØ¨ÛĮ": 4220,
      "ĠØŃÙĨÙĨÛĮØ§Ûģ": 4221,
      "ĠÙħÙĦÚ©ÛĮØª": 4222,
      "ĠØªÙģØµÛĮÙĦ": 4223,
      "ĠÙĦÙĪÙĨÚĪÛĮ": 4224,
      "ĠØºÙĨÛĮÙħØª": 4225,
      "ĠØ¨Ø±Ú¯Ø²ÛĮØ¯ÙĪÚº": 4226,
      "ĠÙħØ¯ÛĮÙĨÛģ": 4227,
      "ĠØ±Ø¦ÛĮØ³ÙĪÚº": 4228,
      "ĠØ¢ÙģØªØ§Ø¨": 4229,
      "ĠÙ¾Ø±Ø§Ú¯ÙĨØ¯Ûģ": 4230,
      "ÛĮÛģÙĪØ¯ÛĮÙĪÚº": 4231,
      "ĠÚ©Ø´ØªÛĮØ§Úº": 4232,
      "ĠÛģØªÚ¾ÛĮØ§Ø±": 4233,
      "ĠÙĨØ§ØµØ±Ûĥ": 4234,
      "ÛĮÙĪØŃÙĨØ§": 4235,
      "ÛĮÙĪØ³Ùģ": 4236,
      "ÙĪÙĤØª": 4237,
      "ÛģÛĴ": 4238,
      "ÛģÛĮÛģ": 4239,
      "ÛģØ§Ø±Øª": 4240,
      "Ú©Ø¨": 4241,
      "Ø±Ø§Øª": 4242,
      "Ø±Ø¨ÛĮ": 4243,
      "ĠÚ©Ø§Ø±ÛĮ": 4244,
      "ĠÚ©Ø¬ÛĮ": 4245,
      "ĠØ§ÚĨÚ¾": 4246,
      "ĠØ§Ø¸Ûģ": 4247,
      "ÙĨØ³ÛĮ": 4248,
      "ØªÚ¾ÙĪ": 4249,
      "ĠÙħÙħ": 4250,
      "ĠÙħØ±Ø§": 4251,
      "ĠÙħÛĮØ²": 4252,
      "ĠÙħØ¯Ø§Ø±": 4253,
      "ĠÙħÛĮØ§Úº": 4254,
      "ĠÙħÙģØª": 4255,
      "ĠÙħÚ©Ø§Ø´": 4256,
      "ĠØ¨Ø²": 4257,
      "ĠØ³ÙĨØ¯": 4258,
      "ĠØªØ¬ÙĪ": 4259,
      "ĠÙĨØµØ±": 4260,
      "ĠÙĨØ·ÙģÛģ": 4261,
      "ĠÙ¾Ú¾Ø§": 4262,
      "ĠÙĪÙģØ§Øª": 4263,
      "ĠÙĪÙĤÙĪÙģÛĮ": 4264,
      "ĠØ¯Ø¨": 4265,
      "ĠØ¯Ú¾Ø±": 4266,
      "ĠØ¯ÙħØ§": 4267,
      "ĠÚ©ÛĮÙģØ§": 4268,
      "ĠØ§Ø³Ø±Ø§Ø¦ÛĮ": 4269,
      "ĠÙĦØ§Ø³": 4270,
      "ĠÚ©Ø±Ø¯ÙĪÚº": 4271,
      "ĠÚ¯Ùħ": 4272,
      "ĠÚ¯ÙĪØ¯": 4273,
      "Ø¹Ú©Ø³": 4274,
      "ĠÛģÙĪÙĦÛĮ": 4275,
      "ĠØ¢ÙĪØ±": 4276,
      "ĠØ¢Ú©Ú¾": 4277,
      "ĠØ¢Ø±Ø§": 4278,
      "Ø§ÙĦÙģ": 4279,
      "Ø§ÙĦØ¢": 4280,
      "ĠÛĮÙĪ": 4281,
      "ĠÛĮÚ©Ø³": 4282,
      "ĠØ®Ùģ": 4283,
      "ĠØ®ÙģØ§": 4284,
      "ĠØ®ÙĪØ±Ø§": 4285,
      "ĠØ®ÙĦÙĤ": 4286,
      "ÙģØ§Ø¦": 4287,
      "ØŃÙĪÙħ": 4288,
      "ĠØªÙĪÙĦ": 4289,
      "ĠØªÙĪÙħØ§": 4290,
      "ĠÙ¾Ø±ÙĨØ¯ÛĴ": 4291,
      "ĠØ¹ÙĪ": 4292,
      "ĠØ¹Ø¶": 4293,
      "ÛĮÚ©Ø±": 4294,
      "ÚĳÚ¾Ø§": 4295,
      "ĠÙģØ·": 4296,
      "ĠØ§Ù¾ÙĦÙĪØ³": 4297,
      "ĠØŃÙĪ": 4298,
      "ĠÙĤØ·Ø±": 4299,
      "ĠÙĤØ§ØµØ¯": 4300,
      "ĠÛĮÛģÛĮÚº": 4301,
      "ĠØ´ÛĮØ±": 4302,
      "ĠØ§ÙĦÙ¹": 4303,
      "ĠØ·Ø¨ÛĮ": 4304,
      "ĠØ·ÛģØ§Ø±Øª": 4305,
      "ĠÙģØ±Ø§": 4306,
      "ĠØ¨ÛĮÙĦ": 4307,
      "ĠØ²Ø§Ø±": 4308,
      "ĠØ²Ø®": 4309,
      "ĠØ²Ø¨Ø§ÙĨÛĮ": 4310,
      "Ø§Ø¨Ûģ": 4311,
      "Ø¶Ø±ÙĪØ±": 4312,
      "ĠØ³Ø¨Ø²": 4313,
      "ĠØªÚ¾Ø§ÙħÛĴ": 4314,
      "ĠØ±ÙĪØ¦ÛĴ": 4315,
      "ĠØ±ÙĪØªÛĴ": 4316,
      "ĠØ¬Ø¨Ø±Ø§Ø¦ÛĮÙĦ": 4317,
      "ØªÛĮÛģ": 4318,
      "ĠØ¨ÛģØ±": 4319,
      "ĠØ¬ÙĨÚ©ÛĴ": 4320,
      "ĠÚĪÚ¾Ø§": 4321,
      "ĠØºØ§Ø±": 4322,
      "ĠØ¨ÛģØªÛĮØ±ÙĪÚº": 4323,
      "Ø°Ø§": 4324,
      "ÙĤÛĮÙħ": 4325,
      "ĠÙħØ¹Ø¸Ùħ": 4326,
      "ĠÙĦØ§ÚĨ": 4327,
      "ĠÙĦØ§Ù¹Ú¾ÛĮ": 4328,
      "ĠØ¨Ø±ÙĤØ±Ø§Ø±": 4329,
      "ĠØ¨Ø±Ø¹Ú©Ø³": 4330,
      "ĠØ³ÙĨÙĨØ§": 4331,
      "ĠØ¹Ø°Ø±": 4332,
      "ĠØ³Ø±Ú¯": 4333,
      "ĠÙħÙĤØ±Ø¨": 4334,
      "ĠÙĨÚ©ÙĦÛĮ": 4335,
      "ĠØ°ÙĪØ§ÙĦ": 4336,
      "ĠØ¯ÙĦÛĮØ±": 4337,
      "Ø¯Ø§Ø±ÙĪÚº": 4338,
      "ÙĪÛĮÙĦ": 4339,
      "ĠØ¬ÛģØ§ÙĦØª": 4340,
      "ĠØ®ÙĪØ¨ØµÙĪØ±Øª": 4341,
      "ĠÙĦÛĮÛĴ": 4342,
      "ĠÙħØ§ÙĨÚ¯ÛĮ": 4343,
      "ĠÛĮÙĤÛĮÙĨÛĮ": 4344,
      "ĠÚĨÙĦÚ©Ø±": 4345,
      "ĠÙħÙĦØªÛĮ": 4346,
      "ĠÙĤØ¨ÙĦÛģ": 4347,
      "ĠØ§ÙĪÚĳÚ¾": 4348,
      "ĠÙ¾ÚĳÙĪ": 4349,
      "ØªÙħØ§Ùħ": 4350,
      "ĠØ¨Ú¾ÛĮØ¬ÙĪÚº": 4351,
      "ĠØ¨Ú¾ÛĮØ¬ØªÛĴ": 4352,
      "ĠÙ¾Ú©Ø§Ø±ÛĴ": 4353,
      "ĠØ¨Ú¾ÚĳÚ©": 4354,
      "ĠØ®Ø§Ú©": 4355,
      "ĠØ¯ÙĪØ²Ø®ÛĮ": 4356,
      "ĠØ³ÙħØ¬Ú¾ÙĨÛĴ": 4357,
      "ĠÚĨÚ¾Øª": 4358,
      "ĠØ¢ÙĨØ³ÙĪ": 4359,
      "ĠØ¯Ø±ÙħÛĮØ§ÙĨÛĮ": 4360,
      "ĠÚĨÙĦØ§ÛĮØ§": 4361,
      "ĠØ¯Ú©Ú¾Ø§Ø¦ÛĮÚº": 4362,
      "ĠÙħØªÙĤÛĮ": 4363,
      "ĠØ¨Ø§ÙĨØ¬Ú¾": 4364,
      "Ø±ÛĮØ¹Ûģ": 4365,
      "ĠØŃØ³Ø¨": 4366,
      "ĠØ¨ÚĳÚ¾ØªØ§": 4367,
      "ĠÙĪØ§ÙĤØ¹Ûĥ": 4368,
      "ĠØ®ÛĮØ§ÙĦØ§Øª": 4369,
      "ĠÚ¯ÙħØ±Ø§ÛģÙĪÚº": 4370,
      "ĠØ¯Ú©Ú¾Ø§ÙĨÛĴ": 4371,
      "ĠÙĤÛĮÙħØªÛĮ": 4372,
      "Ø¬ÛĮØ³Ø§": 4373,
      "ĠÙħØ´Ø±ÙĤ": 4374,
      "ĠØ³ØªØ§Ø±Ûģ": 4375,
      "Ù¹Ú¾ÛĮØ§Úº": 4376,
      "Ø¨Ø§Ø¯ÛĮ": 4377,
      "ĠØ¢Ù¾ÛģÙĨÚĨÛĮÚº": 4378,
      "ĠØ§ØªØ±ØªÛĴ": 4379,
      "ĠØ²ÙħØ§ÙĨÛĴ": 4380,
      "ĠØ²ÙħØ§ÙĨÙĪÚº": 4381,
      "ĠØ¨Ø±Ø§Ø¦ÛĮÙĪÚº": 4382,
      "ĠÙħØºØ±Ø¨": 4383,
      "ĠØ§Ø±Ø¯": 4384,
      "ĠØ´Ø¹Ø§Ø±": 4385,
      "ĠÛĮÙĪÙĨØ§Ûģ": 4386,
      "ĠÛĮÙĪÙĨÛģÛĮ": 4387,
      "ĠØ®Ø§Ø¯ÙħÙĪÚº": 4388,
      "ĠÚĪØ±Ø§Ø¦ÛĮÚº": 4389,
      "Ø¨Ø¹Ø¶": 4390,
      "ĠÚ©Ú¾ÙĦØ§Ø¦ÛĴ": 4391,
      "ĠÙħØ«Ø§ÙĦÛĮÚº": 4392,
      "ĠÙĨÚ¯ÛģØ¨Ø§ÙĨÛĮ": 4393,
      "ĠÙĪØ±Ø²ÛĮ": 4394,
      "ĠØ¯ÙĦØ§Ø¦ÙĦ": 4395,
      "ĠØ§Ø²ÙĪØ§Ø¬": 4396,
      "ĠØ²Ø¨Ø±Ø¯Ø³ØªÛĮ": 4397,
      "ĠÚ©Ø§ÙħÛĮØ§Ø¨": 4398,
      "ĠØ¬Ú¾Ú¯ÚĳÙĨÛĴ": 4399,
      "ĠØ¬Ú¾Ú¯ÚĳØªÛĴ": 4400,
      "ĠÙħÙģÛĮØ¯": 4401,
      "ĠÙģØ³Ø¹": 4402,
      "ĠØ¸Ø§ÛģØ±Ø§": 4403,
      "Ø¯ÙĨÛĮØ§": 4404,
      "ĠÙĤØ·Ø¹ÛĮ": 4405,
      "ĠØ§ÙĨØ¯Ú¾ÛĮØ±Ø§": 4406,
      "ĠØ§Ø®ÛĮÛģ": 4407,
      "ĠØ·Ø¹ÙĨÛģ": 4408,
      "ĠØ³Ø§ÙħØ±ÛĮÛģ": 4409,
      "ĠÙ¾Ú©ÚĳÙĪØ§ÛĮØ§": 4410,
      "ĠÙ¾Ú¾ÙĪÙĨÚ©": 4411,
      "ĠØ¨Ú¾Ù¹Ú©ØªÛĴ": 4412,
      "ĠØ§ÙĨØªÛģØ§Ø¦ÛĮ": 4413,
      "ĠØ®Ø±Ø§Ø¨ÛĮ": 4414,
      "ĠØ³Ø§Ø²Ø´": 4415,
      "ĠØ¨ÛĮÙĪÛĮØ§Úº": 4416,
      "ĠÚĨØ§ÛģÛĮÛĴ": 4417,
      "ĠÙħÛģÙħØ§ÙĨÙĪÚº": 4418,
      "ĠØ³Ú©Ú¾Ø§ØªØ§": 4419,
      "ĠØªÙĨÛģØ§": 4420,
      "ĠÙħØ§Ø¬Ø±Ø§": 4421,
      "ĠÚ©ÙĦÙħØ§Øª": 4422,
      "ĠÙħØ¹Ø§ÙħÙĦÛĴ": 4423,
      "ĠÙĦÙħØ¨ÛĴ": 4424,
      "ĠØ®Ø·Ø±ÙĪÚº": 4425,
      "ĠØ²Ú©Ø±ÛĮØ§Ûģ": 4426,
      "ĠØµØŃÛĮÙģÙĪÚº": 4427,
      "ĠÚ©Ø±Ø±ÛģÛĴ": 4428,
      "ĠÚ¯ÙĪÙĨÚ¯ÛĴ": 4429,
      "Ø´Ø§Ú¯Ø±Ø¯": 4430,
      "ĠÛĮØªÛĮÙħÙĪÚº": 4431,
      "ĠÙģØ§ØµÙĦÛģ": 4432,
      "ĠØµØ¯ÙĪÙĤÛĮÙĪÚº": 4433,
      "ĠØ§Ú©Ø±Ùħ": 4434,
      "ĠØ³ÙħØ§ÙĪÛĮ": 4435,
      "ĠØªÙħØ§Ø´Ø§": 4436,
      "ĠÙħØ®ÙĦØµÛĮ": 4437,
      "ĠØ¯Ø§ÙħÙĨ": 4438,
      "ĠØ¹ÙĨØ§ÛĮØª": 4439,
      "ĠØ§ÙĪÙĨØ¯Ú¾ÛĴ": 4440,
      "ĠØ¨Ø³ØªÛĮØ§Úº": 4441,
      "ĠØ¢Ø´Ú©Ø§Ø±": 4442,
      "ĠÙĨØ§ÙĦØ´": 4443,
      "ĠØ±ØºØ¨Øª": 4444,
      "ĠÙħÙĨØ§ÙģÙĤÛĮÙĨ": 4445,
      "ĠØªØ¨Ø¯ÛĮÙĦÛĮ": 4446,
      "ĠÚĪÚ¾ÙĪÙĨÚĳ": 4447,
      "ÙħØ³ÛĮØŃ": 4448,
      "ĠØ§ÙĦÛĮØ´Ø¨Ø¹": 4449,
      "ĠÚ©Ø¨ÙĪØªØ±": 4450,
      "ĠØ´Ú©Ø±Ú¯Ø°Ø§Ø±ÛĮ": 4451,
      "ĠØ§Ø¸ÛģØ§Ø±": 4452,
      "ĠØªØ¬ÙĪÛĮØ²": 4453,
      "ĠØ§Ø³Ø±Ø§Ø¦ÛĮÙĦÛĮ": 4454,
      "Ø§ÙĦØ¢Ø¨Ø§Ø¯": 4455,
      "ĠÛĮÚ©Ø³Ø§Úº": 4456,
      "ĠØ®ÙĪØ±Ø§Ú©": 4457,
      "ÙģØ§Ø¦Ø¯Ûģ": 4458,
      "ĠØ¹Ø¶ÙĪ": 4459,
      "ĠÙĤØ·Ø±Ûģ": 4460,
      "Ġ\"": 4461,
      "Ġ.": 4462,
      "ÙĪÙĦÛĮ": 4463,
      "Ú©ÙĪØ±": 4464,
      "Ú©ÚĨÚ¾": 4465,
      "ĠÚ©ÚĳÚ©": 4466,
      "ĠØ§Ú©Ú¾": 4467,
      "ĠØ§Ú©Ú¾Ø§": 4468,
      "ĠØ§ØŃØª": 4469,
      "ÙĨØŃÙĪÙħ": 4470,
      "ÙħØ³": 4471,
      "ÙħØ±ÛĮÙħ": 4472,
      "ĠÛģÙĪØ±Ûģ": 4473,
      "ÙĦÚ©Ø³": 4474,
      "ĠÙħØ¯ÛĮÙĨ": 4475,
      "ĠØ¨Ú¯": 4476,
      "ĠØ¨Ø§Ø¨Ø±": 4477,
      "ĠØ¨Ø¬Ø²": 4478,
      "ĠØ¨ÙĤØ§": 4479,
      "ĠØ³ÙĨÛĴ": 4480,
      "ĠØ³ÙĪÙĨØ§": 4481,
      "ÙĪØ±ÛĮÚº": 4482,
      "ĠØªÚ©ÛĮ": 4483,
      "ĠØªØ±ÛĮÙĨ": 4484,
      "ĠØ¬Ø§Ø³": 4485,
      "ĠØ¬Ø¦ÛĮÚº": 4486,
      "Ø¨Ø·": 4487,
      "Ø¨Ø®Øª": 4488,
      "ĠÙ¾Ø¦ÛĴ": 4489,
      "ĠÙ¾Ø°": 4490,
      "ĠÙ¾Ú¯Ú¾": 4491,
      "ĠÙ¾ÛĮÚ©Ø±": 4492,
      "Ø¦Ø¨": 4493,
      "Ø¦ÙĨØ¯Ûģ": 4494,
      "ĠÙĪØ¶": 4495,
      "ĠÙĪÚĪ": 4496,
      "ĠÙĪØ§Ø¯": 4497,
      "ĠÙĪØµÙĪÙĦ": 4498,
      "ĠÚ©ÛĮÙģ": 4499,
      "ĠØ§Ø³Ú©": 4500,
      "ĠÙĦÛģØ±": 4501,
      "ĠÙĦØŃÙħ": 4502,
      "ĠÚ©Ø±ÙĦÙĪ": 4503,
      "ĠÚ©Ø±ÙĨØª": 4504,
      "ĠÚ©Ø±Ø¯ÙĪ": 4505,
      "ĠÚ¯ÙĦØ§": 4506,
      "ĠÚ¯ÛĮØ±": 4507,
      "ĠÚ¯ÙĨØ¯": 4508,
      "ĠÚ¯ÛĮØª": 4509,
      "ĠØ±ÙĪÙĨ": 4510,
      "ĠØ±Ø§Ø¦ÛĮ": 4511,
      "ĠØ±ÙģØ¹": 4512,
      "ĠÚ©ÙĪÛģ": 4513,
      "ĠÚ©ÙĪÙĨÛĴ": 4514,
      "ĠÚ©ÙĪÚĳÚ¾ÛĮ": 4515,
      "ÚĨÙĪÙĨÚ©Ûģ": 4516,
      "Ø¹Ø¯Ûģ": 4517,
      "Ø¹ÙĪØ±Øª": 4518,
      "ĠÛģÙĪÙĦ": 4519,
      "ĠÛģÙĪØ¯Ûģ": 4520,
      "ĠÛģÙĪÙĦÛĮØ§": 4521,
      "ĠØªÙħÚ©ÙĪ": 4522,
      "ĠØ¢Úĳ": 4523,
      "ĠØ¢Ø³ÙĪ": 4524,
      "ĠØ¢Ø±Ûģ": 4525,
      "ĠØ¢Ø¦ÙĨØ¯Ûģ": 4526,
      "Ø´Ø§Ûģ": 4527,
      "Ø´Ø¨Ûģ": 4528,
      "Ø§ØªØ§Øª": 4529,
      "ÙĤØ§ÙĦ": 4530,
      "ÙĤØµ": 4531,
      "ĠØ®Ø§Øª": 4532,
      "ĠØ®Ø§Ø¦": 4533,
      "ĠØªÙĪÙĦÛĮØ¯ÛĮ": 4534,
      "ĠØ¬ÙĪÚĳ": 4535,
      "ĠÛģÙħØ®": 4536,
      "ĠÙ¾Ø±ÙĪØ§": 4537,
      "ĠØ¹ÛĮ": 4538,
      "ĠØ¹Ø§Ø±": 4539,
      "ĠØ¹ÛĮÙĨ": 4540,
      "ĠÚĨÙĨÚ¯": 4541,
      "ĠÙģÙĨØ§": 4542,
      "Ø®Ø³": 4543,
      "Ø®ÙĪØ´": 4544,
      "ĠØŃØ³ÛĮ": 4545,
      "ĠØŃÙĪØ±ÛĮÚº": 4546,
      "ÙĪÙĨÚ¯ÛĮ": 4547,
      "ĠÙĤÛģØ±": 4548,
      "ĠØ§ÙĦÛĮ": 4549,
      "ĠØ§ÙĦÙħ": 4550,
      "ĠØ§ÙĦØ¨ØªÛģ": 4551,
      "ĠØ·ÛĴ": 4552,
      "ĠØ·ÙħØ§ÙĨ": 4553,
      "ĠØ±ÛģÙĪÙĨÚ¯Ø§": 4554,
      "ÙĨÛĮÙĦÛĮØ³": 4555,
      "ĠØ²ÙĨÛĮ": 4556,
      "ĠØ²ÛĮØ¨": 4557,
      "ĠØ§ÛĮØ³ÙĪÚº": 4558,
      "ĠØ¯ÛĮÙĨÙĪÚº": 4559,
      "Ø³ÙĪØ¨": 4560,
      "ĠØ¯ÙĪÚĳØ§": 4561,
      "ÙĪØ§ÙĤØ¹": 4562,
      "ĠÙ¾ÛĮØ³": 4563,
      "ĠÙ¾ÛĮØ´ÛĮ": 4564,
      "ĠØ¨ÛģÚ©": 4565,
      "ĠØ¬ÙĨØ³": 4566,
      "ĠØºÙĪÙĦ": 4567,
      "Ø³Ø§Ø¦ÛĮ": 4568,
      "ĠØ¹ÙĦÛĮÛģØ§": 4569,
      "ĠØ³ÙĪØªÛĮ": 4570,
      "ĠÙĦØ§Ù¹Ú¾ÛĮØ§Úº": 4571,
      "ĠÙħØ±ÙĨØ§": 4572,
      "ĠÙħØ±ÙĤØ³": 4573,
      "ĠØ¨Ø±Ú¯": 4574,
      "ĠØ¨Ø±Ø¢": 4575,
      "ĠØ¨Ø±Ø¨Ø§Ø¯ÛĮ": 4576,
      "ØºÛĮØ¨": 4577,
      "ĠÙħÙĪØ¬": 4578,
      "ĠØ¨ÙĨØ§ÛĮ": 4579,
      "Ø³ØªÚ¯ÛĮ": 4580,
      "ĠÙħØ³ÛĮØ¹": 4581,
      "ĠØŃÙĤØ§ÙĨÛĮØª": 4582,
      "ĠÙĨÚ©ÙĦÙĪ": 4583,
      "ĠØ²ÙĨØ¯ÙĪÚº": 4584,
      "Ø§ÙĨÛģÛĮ": 4585,
      "ĠÚĪØ§ÙĦÙĨØ§": 4586,
      "ĠÙ¹Ú¾Ù¹Ú¾ÙĪÚº": 4587,
      "ĠÚ¯ÙĪØ¦ÛĮ": 4588,
      "ĠØ±Ø§ÛģÛĮÚº": 4589,
      "ĠØ±ÛģØ§Ø¦ÛĮ": 4590,
      "ĠØ¬Ú¾ÚĳÚ©Ø§": 4591,
      "ĠØªØ¹ÙĦÙĤ": 4592,
      "ĠØªØ¹Ø§ÙĦÛĮ": 4593,
      "ĠÙĦÛĮØ¬Ø§": 4594,
      "ĠÙĦÛĮØ¬Ø¦ÛĴ": 4595,
      "ĠÙ¾ÙĪÚĨ": 4596,
      "Ø¬ÙĪØ¬": 4597,
      "ĠØ¨ÙĨÙĪÚº": 4598,
      "ĠØ±Ú©ÙĪØ¹": 4599,
      "ĠÙħÙĦØª": 4600,
      "ĠØ¬ÙĪØ§Ø¨Ø§": 4601,
      "ĠÙ¾ÚĳØªÛĴ": 4602,
      "ĠÙ¾ÚĳØªÛĮ": 4603,
      "ĠØ§Ù¹Ú¾ØªÛĴ": 4604,
      "ĠØ§Ù¹Ú¾Ø§ØªØ§": 4605,
      "ĠØ¨ÙĨØ¯Ú¾Ø§": 4606,
      "ĠÚ¯Ú¾ÙĨÛĴ": 4607,
      "ĠÚ¯Ú¾ÙĪÙĨ": 4608,
      "ĠÙħØ´Ø§Ø¨Ûģ": 4609,
      "ĠØ¨ÙĪØªØ§": 4610,
      "ĠØ¨ÙĪÙĦÛĮ": 4611,
      "Ù¾Ø§Ú©": 4612,
      "ĠÚ©ÙģØ±ÙĨØŃÙĪÙħ": 4613,
      "ĠØ¯Ø¹Ø§ÙĪ": 4614,
      "ĠØ¯Ø¹Ø§Ø¦ÛĮÚº": 4615,
      "ĠÙĨÚ©ÙĦØªØ§": 4616,
      "ĠÚ©ÙĪÙĨØ³Ø§": 4617,
      "ĠØªÚ¾Ø³ÙĦ": 4618,
      "ĠØ³ÙħØ¬Ú¾ÛĮÚº": 4619,
      "ĠØ³ÙħØ¬Ú¾ÙĨØ§": 4620,
      "ĠÙ¾Ú¾ÛĮØ±ÛĴ": 4621,
      "ĠÙĦÚ¯ØªÛĮ": 4622,
      "ĠÚĨÙĦØ§Ú©Ø±": 4623,
      "ĠÙ¹Ú¾ÛģØ±ØªØ§": 4624,
      "ĠØ¢Ø²Ùħ": 4625,
      "ĠØ§Ú©ÙĦÙĪ": 4626,
      "ĠØªØ¬Ú¾Ú¾": 4627,
      "ĠØ¨Ø§ÙĦÙĪÚº": 4628,
      "ĠØ§Ø¬ÙĨØ¨ÛĮ": 4629,
      "ĠÚ©Ú¾ÙĪÙĦØ§": 4630,
      "ĠÚ©Ú¾ÙĪÙĦÛĴ": 4631,
      "ĠÙħØ·ÙĦØ¨": 4632,
      "ĠØºÛĮØ±Øª": 4633,
      "ĠØ¯ÙĪØ±Ø§ÙĨ": 4634,
      "ĠØ«Ø¨ÙĪØª": 4635,
      "ĠÙĨÙĪØ¨Øª": 4636,
      "ĠØ®ÙĪÙģØ²Ø¯Ûģ": 4637,
      "ĠØ¹Ø¯Øª": 4638,
      "ĠÙ¹Ú¾ÛģØ±Ø§Ø¦ÛĮÚº": 4639,
      "ĠØ³Ø§ØªÙĪÚº": 4640,
      "Ø¨ÙĦÙĨØ¯": 4641,
      "ĠÙħØ³ÙĦØ³ÙĦ": 4642,
      "ĠØ²Ø¨Ø§ÙĨÙĪÚº": 4643,
      "ĠÙ¾ÛĮØ§ÙĦÛĴ": 4644,
      "ĠÙ¾ÛĮØ§Ø¯ÙĪÚº": 4645,
      "ĠÙħØ§Ø±ÙĨÛĴ": 4646,
      "ĠØ¢Ø²ÙħØ§Ø¦ÛĴ": 4647,
      "ĠÚ¯Ø±ÙĪÛģÙĪÚº": 4648,
      "ĠÙ¾Ú©Ø§Ø±ÙĪ": 4649,
      "ĠØ¯ÛģÙĨØ§": 4650,
      "ĠÙ¾ÛĮØ´Ûģ": 4651,
      "ĠØ±Ú©Ú¾ÛĮÚ¯Ø§": 4652,
      "ĠØ´ÙĪÚ©Øª": 4653,
      "ĠØ³ØªØ±": 4654,
      "ĠÙĨØ¨Ø¦": 4655,
      "ĠÙĨØ¨Ø§ØªØ§Øª": 4656,
      "ĠØ¬Ø¯Ø§Ø¦ÛĮ": 4657,
      "ĠÙĦÚ©Ú¾ØªÛĴ": 4658,
      "ĠÚĨÙĪØºÛģ": 4659,
      "ĠÚ©Ú¾ÙĪÙĦØªÛĴ": 4660,
      "ĠØ§ÙĨÚ¯ÙĦÛĮ": 4661,
      "ĠÙĨØ§Ù¾Ø§Ú©ÛĮ": 4662,
      "ĠØ§ÙĨØµØ§ÙģÛĮ": 4663,
      "ĠØ´ÙĪÛģØ±ÙĪÚº": 4664,
      "ĠÙħÙĤØ§ÙħÙĪÚº": 4665,
      "ĠØ³ÙĪØ±ÛĮÛģ": 4666,
      "ĠÙĤØµØ¯": 4667,
      "ĠÚ©ÙħØ§Ø¦ÛĮ": 4668,
      "ĠÚ©ÛģÙĦØ§ØªÛĮ": 4669,
      "ĠÙħÙĤØ§Ø¨ÙĦ": 4670,
      "ĠÚ©Ø§Ø¦ÙģØ§": 4671,
      "ĠÙħØ±ØªÚ©Ø¨": 4672,
      "ĠØ¬Ú¾Ù¹ÙĦØ§Ø¦ÛĮÚº": 4673,
      "ĠÛģÙĪØ³Ú©ØªÛĴ": 4674,
      "Ø§Ù¾ÙĨÛĮ": 4675,
      "ĠÙĦÚ©Ú¾ÙĪ": 4676,
      "ĠÙ¾ÚĨÚ¾ÙĦØ§": 4677,
      "ĠØ§ÙĨØ¯Ø§Ø²ÛĴ": 4678,
      "ĠÙĨÛĮÚ©ÙĪÚ©Ø§Ø±": 4679,
      "ĠØ·Ø±ÛĮÙĤÙĪÚº": 4680,
      "ĠØ§Ø¨Ø¯Ø§ÙĦØ¢Ø¨Ø§Ø¯": 4681,
      "ĠÙħØŃØªØ§Ø¬ÙĪÚº": 4682,
      "ĠÚ©ÙĦÚ©ÛĮÛģ": 4683,
      "ĠÙĤØ±Ø¶Ø¯Ø§Ø±": 4684,
      "ĠØ±ÙĨØ¬": 4685,
      "ĠØ¬Ø§Ø¯ÙĪÚ¯Ø±ÙĪÚº": 4686,
      "ĠÙĨØ§Ø¯Ø§ÙĨÛĮ": 4687,
      "ĠÙĤØµÙĪØ±ÙĪØ§Ø±": 4688,
      "ĠØ¨Ø±ØªÙĨ": 4689,
      "ĠØ·Ø¨ÙĤÛģ": 4690,
      "ĠÛģÙĪÚĨÚ©ÛĮ": 4691,
      "ĠÛģÙĪÚĨÚ©Ø§": 4692,
      "ĠÚĨØ´ÙħÛĴ": 4693,
      "ÙĤØ§ÙħØª": 4694,
      "ĠØ¨ÛĮÙĪÙĤÙĪÙģ": 4695,
      "ĠØ³Ø±Ú¯Ø±Ùħ": 4696,
      "ĠÚĨÚ¾ÙĪÙ¹ÙĪÚº": 4697,
      "ĠØ®Ø³Ø§Ø±ÛĴ": 4698,
      "ĠÚ¯Ø°Ø±Ø§ÙĨ": 4699,
      "ĠØ®ÙĦØ§ØµÛĮ": 4700,
      "ĠÚ©ÙĦÙħÛģ": 4701,
      "ĠÙħØ²Ø§Ø¬": 4702,
      "ĠÙĨØŃÙĪÙħ": 4703,
      "ĠÚ¯Ø¯Ú¾ÛĮ": 4704,
      "ĠÚ¯Ø¯Ú¾ÛĴ": 4705,
      "ÙĦÙĪÚ¯ÙĪÚº": 4706,
      "ĠÙĨØªÛĮØ¬Ûģ": 4707,
      "ĠÚ©ÙĨÙĪØ§Ø±ÛĮ": 4708,
      "ĠÚĨÚ©Ú¾Ø§Ø¦ÛĮÚº": 4709,
      "ĠØ¬Ú¾Ú©Ø§Ø¦ÛĴ": 4710,
      "ĠÙĦÙĨÚ¯ÚĳÛĴ": 4711,
      "ĠÙĨØ§ÚĨÛĮØ²": 4712,
      "ĠÙĨØ§ÙħØ®ØªÙĪÙĨÛĮ": 4713,
      "ĠÙĤØ¨ÛĮÙĦÛģ": 4714,
      "ĠÙģØ±ÙĪØ®Øª": 4715,
      "ĠØ¯Ø§Ø±ÙĪØº": 4716,
      "ĠØ³Ø±Ø§Ù¾Ø§": 4717,
      "ĠÙħÙĪÛĮØ´ÛĮ": 4718,
      "ĠÚ©ÚĳÙĪÛĴ": 4719,
      "ĠØ¬Ø§Ø±ÛģØ§": 4720,
      "ÙģØ±ÛĮØ³ÛĮÙĪÚº": 4721,
      "ĠØ±ÙĪÙ¾ÛĮÛģ": 4722,
      "ĠÚ¯Ú¾ÙĨÙ¹ÛĴ": 4723,
      "ĠÙĦÙ¾ÛĮÙ¹": 4724,
      "ĠÙħØ¹Ø²Ø²": 4725,
      "ĠÙĨØµØ±Ø§ÙĨÛĮ": 4726,
      "ĠØ¯ÙħØ§Øº": 4727,
      "ĠØ¢Ø±Ø§Ø¦Ø´": 4728,
      "ĠØ·Ø¨ÛĮØ¹Øª": 4729,
      "ĠØ³Ø±Ú¯ÙĪØ´": 4730,
      "ĠØ¨Ø§Ø¨Ø±Ú©Øª": 4731,
      "ĠÙ¾Ø°ÛĮØ±": 4732,
      "ĠÙĪØ¶Ø¹": 4733,
      "ĠÙĪØ§Ø¯Ø¦": 4734,
      "ĠÛģÙħØ®Ø¯ÙħØª": 4735,
      "ĠØŃØ³ÛĮÙĨ": 4736,
      "ĠØªÚ¾Ø³ÙĦÙĨÛĮÚ©": 4737,
      "Ø§Ø®": 4738,
      "ÙĪÛĮÚº": 4739,
      "ÙĪÙĦÛģ": 4740,
      "ÛģØ§": 4741,
      "ĠØ§Ø±Ø¶": 4742,
      "ÙħØ¦": 4743,
      "ÙħÙĨØ§": 4744,
      "ÙħÛĮØ§Ø¦ÛĮ": 4745,
      "ĠÛģÙĨØ³ÛĮ": 4746,
      "ØªÛĮØ±": 4747,
      "ÙĦØ¹": 4748,
      "Ú¾ÙĨ": 4749,
      "ĠÙħØ¸": 4750,
      "ĠÙħÛĮÙĨ": 4751,
      "ĠÙħÙĨØ¯Ø±": 4752,
      "ĠÙħØ§Ø¯Ø±": 4753,
      "ĠÙħÛĮÙĨÛģ": 4754,
      "ĠØ¨ÛĮÚ©": 4755,
      "ĠØ¨Ù¹": 4756,
      "ĠØ¨Ø¬Ú¾": 4757,
      "ĠØ¨Ø§Ø¨ÙĦ": 4758,
      "ĠØ³ÛĮØ§": 4759,
      "ĠØ³Ø§Ø¦": 4760,
      "ĠØ³ÛģÛĮ": 4761,
      "ĠØªØ§ÙĨ": 4762,
      "ĠØªØ³ÙĦ": 4763,
      "ĠÙĨÙħ": 4764,
      "ĠÙĨÚĨ": 4765,
      "ĠÙĨØ¬": 4766,
      "ĠÙĨÙĪØ§ØŃ": 4767,
      "Ú¯ÙĨ": 4768,
      "Ú¯ÙĦ": 4769,
      "Ø¯ÙĪÙħ": 4770,
      "ĠØ¬Ú©": 4771,
      "ĠÙ¾Ø§ØªÛĮ": 4772,
      "ĠØ¯Ú¾ÛĮ": 4773,
      "ĠØ¯ÛģÛĮ": 4774,
      "ĠÚ©ÛĮÚĳØ§": 4775,
      "ĠÚ©ÛĮÙħÛĮØ§Ø¦ÛĮ": 4776,
      "Ø§ÙĨÚ©ÛĴ": 4777,
      "ĠÙĦØ±": 4778,
      "ĠÙĦÙĤ": 4779,
      "ĠÚ©Ø±Ú©Ûģ": 4780,
      "ĠÚ©Ø±ÙĨÛĮÙĦÛĮØ³": 4781,
      "ĠÚ©ÛģØ§ÙĨØª": 4782,
      "ĠÚ¯Úĳ": 4783,
      "ĠÚ¯Ø§Ø±ÛĴ": 4784,
      "ÛĮØ§Ø¬": 4785,
      "ĠØ§ÙĨØ§Ø¬": 4786,
      "ĠØ±ÙĤ": 4787,
      "ĠØ±ÛĮØ´": 4788,
      "ĠØ±Ø³Ø§Ø¦ÛĮ": 4789,
      "ĠÚ©ÙĪØ¯": 4790,
      "ĠÚ©ÙĪØªØ§": 4791,
      "Ø§Ø±ÙĪÙĨ": 4792,
      "Ø¹ÙĦ": 4793,
      "ĠÛģÙĪÙĪ": 4794,
      "ĠØ¢ÙģØª": 4795,
      "Ø¬Ø§Ø¯": 4796,
      "ĠÛĮØ±ÛĮØŃ": 4797,
      "ÙĤØ¨ÙĪÙĦ": 4798,
      "ĠØ®ÙĦÙĪ": 4799,
      "ĠØ®Ø±Ø§Ø¬": 4800,
      "ÙģØ§ÙĨÛĮ": 4801,
      "ØŃÛĮØ¯": 4802,
      "ĠØªÙĪÙĤØ¹": 4803,
      "ĠØªÙĪØŃÛĮØ¯": 4804,
      "ĠÙ¾Ø±Ú©Ú¾": 4805,
      "ĠØ¹Ø²Ø±": 4806,
      "ÛĮÚ©ÛĴ": 4807,
      "ĠÚĨØ§": 4808,
      "Ø¦ÛĮÚ¯ÛĮ": 4809,
      "ĠÙģØ§Ø±": 4810,
      "ĠÙģÛģÙħ": 4811,
      "Ø®ÙĪÚº": 4812,
      "ĠØ¨Ú¾ÛĮÚ©": 4813,
      "ĠØ§Ù¾ÙĨÙĪÚº": 4814,
      "ĠØŃÙħÙĦÛģ": 4815,
      "ĠÙĤØª": 4816,
      "ĠÙĤØ§Øª": 4817,
      "ĠÙĤÙħÛĮ": 4818,
      "ĠÙĤÙĪÛĮ": 4819,
      "ĠØ´Ø§ÛĮ": 4820,
      "ĠØ§ÙĦÙ¹ÛĮ": 4821,
      "Ù¹ÙĨÛĴ": 4822,
      "Ù¹Ú¾ÙĪ": 4823,
      "Ø§Ø³ÙĦØ¦ÛĴ": 4824,
      "Ú¯Ø±ÛĮ": 4825,
      "ĠØ·ÙĪÛĮÙĦ": 4826,
      "ØµÙĦÛĴ": 4827,
      "ĠØ±ÛģØ¦ÛĴ": 4828,
      "ĠÙģØ±Ø§ÙħÙĪØ´": 4829,
      "ĠØ¨ÛĮØ´": 4830,
      "ÙĨÛĮÙĪÚº": 4831,
      "ĠØ¬Ø§Ùħ": 4832,
      "ĠØ¬Ø§Ø¨Ø±": 4833,
      "ĠØ¬Ø§Ø¦Ø²": 4834,
      "ĠØ²ÙĪ": 4835,
      "ĠØ²ÛĮØ±": 4836,
      "ĠØ²ÙĪØ¬": 4837,
      "ĠØ²Ø±ÛĮØ¹Ûģ": 4838,
      "Ø§Ø¨ÛĮ": 4839,
      "Ø§Ø¨Ø§Ø²": 4840,
      "Ø§ÙħØª": 4841,
      "Ø§ÙħÛĮØ¯": 4842,
      "ĠÛģÛĮØ¨Øª": 4843,
      "Ø¶Ø±ÛĮ": 4844,
      "ÙħÛĮÙĨØ§": 4845,
      "ÙħØ§Ø¯": 4846,
      "Ø±ÛĮÛģ": 4847,
      "Ø±ÛĮØª": 4848,
      "ĠØµØ§Ø¨Ø±": 4849,
      "ĠØ±ÙĪÙħÛģ": 4850,
      "ĠØ¬Ø¨Ø±Ø§": 4851,
      "ĠØ¨ÛģØ´Øª": 4852,
      "ĠØ¨ÛģØ±Ûģ": 4853,
      "ĠØ¨ÛģØ´ØªÙĪÚº": 4854,
      "ĠÙ¾Ú¾Ø±Ø§": 4855,
      "ĠØ¬ÙĨÙĪÚº": 4856,
      "ĠØ·Ø±ÙģØ¯Ø§Ø±ÛĮ": 4857,
      "ĠÚĪØ¨ÙĪ": 4858,
      "ĠÚĪÚ¾ÛĮØ±": 4859,
      "Ø¯ÛĮÙĪÚº": 4860,
      "ĠØ¨ÛģØªØ±ÛĮ": 4861,
      "ĠÚ©Ø±ÙĪÚ¯ÛĴ": 4862,
      "Ø°Ûģ": 4863,
      "Ø°Ø¨": 4864,
      "ĠÙħØ¹ÛĮÙĨ": 4865,
      "ĠØ¨ÙĦÙĪØ§": 4866,
      "ĠÚ¯ÛĮØ§Ø±Ûģ": 4867,
      "Ø«ÛĮØª": 4868,
      "ĠÙħØ±ØªØ§": 4869,
      "ĠØ±Ú©Ú¾Ú¾": 4870,
      "ĠØ¨Ø±Ø¯": 4871,
      "ĠØ¨Ø±ØŃÙĤ": 4872,
      "ĠÙ¹ÛĮ": 4873,
      "ĠÙ¹Ø§ÙĦ": 4874,
      "ĠÙħÙĪØªÛĮ": 4875,
      "ĠÙħÙĪØ³Ùħ": 4876,
      "ĠÙħÙĪØ¬ÙĪ": 4877,
      "ĠÙĨØ§Ú¯ÙĪ": 4878,
      "ĠØ¢Ø³Ø§ÙĨÛĮ": 4879,
      "ĠØ¢Ø³Ú©ØªÛĴ": 4880,
      "ĠØ¨Ø¯Ú©Ø§Ø±ÙĪÚº": 4881,
      "ĠØ¨Ø¯Ø¨Ø®Øª": 4882,
      "ĠØ§Ù¹Ú¾ÛĮÚ¯Ø§": 4883,
      "ĠØ³Ø±Ø³Ø¨": 4884,
      "ĠÙħÙĤØ±Ø¨ÛĮ": 4885,
      "ĠØ¨ÛĴÙĪ": 4886,
      "ĠØ¨ÛĴÙģØ§Ø¦Ø¯Ûģ": 4887,
      "ĠØ°Ûģ": 4888,
      "ĠØ®ÙĪØ´ÙĨ": 4889,
      "ĠØ®ÙĪØ´ÛĮØ§Úº": 4890,
      "ĠØ¨Ú¾Ø§Ú¯ÛĴ": 4891,
      "ĠÙ¾ÛģÙĨÚĨØ§ØªØ§": 4892,
      "ĠÙ¾ÛģÙĨÚĨØ§ØªÛĴ": 4893,
      "Ø§Ø¦Ø¯": 4894,
      "Ø§Ú¯Ø±ÚĨÛģ": 4895,
      "ĠÚĨÚ¾ÙĪØ¦ÛĴ": 4896,
      "ĠØŃØ§ÙĦÛĮ": 4897,
      "ĠÙĨØ§ÙħÙħÚ©ÙĨ": 4898,
      "ĠÙĨØ§ÙħÙĤØ¨ÙĪÙĦ": 4899,
      "ĠÙĪØ§ØŃØ¯": 4900,
      "Ú©Ø§ÙģØ±": 4901,
      "ĠØ´Ø±Ø§Ø±Øª": 4902,
      "ĠÙĨØ´ÛĮÙĨ": 4903,
      "ĠØ¬Ú¾ÚĳÚ©": 4904,
      "ĠØªØ¹ÙħÛĮØ±": 4905,
      "ĠØ¨ÚĨÚ¾Ø§": 4906,
      "ĠØ¨ÚĨÙ¾ÙĨ": 4907,
      "ĠØ¶Ø¨Ø·": 4908,
      "ĠÙħØ§ÙĨÙĪ": 4909,
      "ĠÙħØ§ÙĨÛĮÚº": 4910,
      "ÙĦÙĪØ·": 4911,
      "ĠØ¯ÙĨÛĮØ§ÙĪÛĮ": 4912,
      "ĠÚĨÙĦØ§ØªÛĴ": 4913,
      "ĠÙħÙĦØªÛĴ": 4914,
      "ĠÙħÙĦÚ©Ûģ": 4915,
      "ĠÙħÙĦÙĨØ§": 4916,
      "ĠÙĤØ¨ÙĪ": 4917,
      "ÙĪØŃØ§Øª": 4918,
      "ĠØ¯Ø¹ÙĪ": 4919,
      "ĠØ§Ù¹Ú¾Ú¾": 4920,
      "ĠØ®Ø¨Ø±Ø¯ÛĮ": 4921,
      "ĠÙģØ¶Ø§": 4922,
      "ĠØ¨Ø§Ø¹Ø²Øª": 4923,
      "ĠÚ¯Ú¾Ø³": 4924,
      "ĠÚ¯Ú¾Ø§Øª": 4925,
      "ĠÚ¯Ú¾Ø³ÛĮ": 4926,
      "ĠØ¨Ú¾ÙĪÙĨ": 4927,
      "ĠØ¨ÙĪØ³ÛĮØ¯Ûģ": 4928,
      "Ø²Ø§Ø¡": 4929,
      "ĠÙģÛĮÙĦÚ©Ø³": 4930,
      "ĠÙģÛĮØµÙĦÛĴ": 4931,
      "ĠÙģØ±ÙħØ§ÙĨØ§": 4932,
      "ÙĨÛģÛĮÚº": 4933,
      "ĠØ¨ÙĦØ§Ø´Ø¨Ûģ": 4934,
      "Ø¬ÛģØ§Úº": 4935,
      "ĠÙĤØ§Ø¦ÙĦ": 4936,
      "ĠØ¨Ú¾Ø±ÙĨÛĴ": 4937,
      "ĠÚĨÚ¾ÙĦ": 4938,
      "ĠØ±ÙĪØ²ÛĴ": 4939,
      "ĠØªØ±ÙĪ": 4940,
      "ĠØ¨Ø§ÙĦÙģØ±Ø¶": 4941,
      "ĠØ³Ø§Ø®ØªÛģ": 4942,
      "ĠÙħØ·ÙħØ¦": 4943,
      "ĠÙħØ·ÙĦØ¹": 4944,
      "ĠØºÛĮØ±ÙĪÚº": 4945,
      "ĠØ¨Ø§Ø¯Ø´Ø§ÛģÙĪÚº": 4946,
      "ĠÙĦÚĳØªÛĴ": 4947,
      "ĠØ§ÙģØ¶ÙĦ": 4948,
      "ĠÙħØ±Ø¯ÙĨÛĮ": 4949,
      "ĠØ¬Ø³ÙħÙĪÚº": 4950,
      "ĠÙħÙĪÙħÙĨÛĮÙĨ": 4951,
      "ĠØ§Ø¹ØªØ¯": 4952,
      "ĠØ§Ø¹ØªÙħØ§Ø¯": 4953,
      "ĠÙħØ¶ÙħÙĪÙĨ": 4954,
      "ĠÚĨÚĳÚ¾ÛĴ": 4955,
      "ĠÙħØ´Ø±Ú©ÙĪ": 4956,
      "ĠØ¯ÛģÙĨÛĴ": 4957,
      "ĠØ³ØªØ§ÙĨÛĴ": 4958,
      "ĠÙĤÛĮØ¯Ø®Ø§ÙĨÛģ": 4959,
      "ĠØ±ÙĪÚ©ÙĨØ§": 4960,
      "ĠØ¯Ú¾ÙĪØ¦ÛĴ": 4961,
      "ĠØ¨Ú¾ÙĪÙĦÛĴ": 4962,
      "ĠØ¨Ú¾ÙĪÚ©ÛĴ": 4963,
      "ĠØ¨ÛĮÙ¹Ú¾ÛĮÚº": 4964,
      "ĠØ¨ÛĮÙ¹Ú¾ØªÛĴ": 4965,
      "ĠÚ©ÙħØ²ÙĪØ±ÙĪÚº": 4966,
      "ĠØ´Ø§Ø¹": 4967,
      "ĠØ´Ø§Ø¯Ø§Ø¨": 4968,
      "ĠÚĨÙĪÚ©": 4969,
      "ĠØ¬ÙĨÚ¯ÙĦ": 4970,
      "ĠØ¬ÙĨÚ¯ÙĦÛĮ": 4971,
      "ĠØ§ØªØ±ÙĨÛĴ": 4972,
      "ĠÙ¾ÛģÚĨØ§ÙĨØªÛĴ": 4973,
      "ĠÙĤÙĪØªÙĪÚº": 4974,
      "ĠØ¨Ø¯ÙĦÙĨÛĴ": 4975,
      "ĠÙ¾ÙĪÚĨÚ¾ÛĮÚº": 4976,
      "ĠØ§Ú¯ÙĦÙĪÚº": 4977,
      "ĠÙħÚ©Ø§Ø±ÛĮ": 4978,
      "ĠØ§Ø·Ø±Ø§Ùģ": 4979,
      "ĠØªØ®ÙħÛĮÙĨØ§": 4980,
      "ĠØµØ¯ÙĤØ§Øª": 4981,
      "ĠÙģÙĤÛĮÛģÙĪ": 4982,
      "ĠØ´Ø¹ÙĦÛģ": 4983,
      "ĠÙħÛģÛĮØ§": 4984,
      "ĠØ§ØªØ§Ø±ØªØ§": 4985,
      "ĠÙģØªÙĪØŃØ§Øª": 4986,
      "ĠØºØ¶Ø¨ÙĨØ§Ú©": 4987,
      "ĠØªÙĪÚĳØªÛĴ": 4988,
      "ĠÚ©ÙħØ§Ø¦ÛĴ": 4989,
      "ĠØ¹Ø²ÛĮØ²ÙĪ": 4990,
      "ĠÙħØ¹Ø¬Ø²ÙĪÚº": 4991,
      "ĠØ§ÙĪÙĨÚĨØ§": 4992,
      "ĠÙ¾ÚĨÚ¾ÙĦÙĪÚº": 4993,
      "ĠØ¯ÙģØ¹": 4994,
      "ĠÙģÙĦÙ¾ÛĮ": 4995,
      "ĠØ¯Ú¾ÙĨØ³Ø§": 4996,
      "ĠØ±ÛĮØ§Ú©Ø§Ø±ÛĮ": 4997,
      "ĠÙħØ´Ú©ÙĪÚº": 4998,
      "ĠÚĪÚ¾ÙĪÙĨÚĪØªÛĴ": 4999,
      "ĠØ§Ø¯Ø¨": 5000,
      "ĠØŃØ¬Ø§Ø¨": 5001,
      "ØªÙħÛģÛĮÚº": 5002,
      "ĠÙĨØ§Ø¯Ø§ÙĨÙĪÚº": 5003,
      "ĠÛģÙĦÚ©Ø§": 5004,
      "ĠÙħÙĤØ¯ÙĪØ±": 5005,
      "ĠØ¯Ø§ÙĨØ³Øª": 5006,
      "ĠØ²ÙĨØ§Ú©Ø§Ø±": 5007,
      "ĠÙ¾ÛĮØºØ§ÙħØ§Øª": 5008,
      "ĠØ³ØªØ§Ø¦ÛĴ": 5009,
      "ĠÙħØ¹Ø§Ø´": 5010,
      "ĠÚ©Ø±Ø³Ú©ÛĴ": 5011,
      "ĠÛģÙĪØ¬Ø§ÙĨÛĴ": 5012,
      "ĠØ³ÙĪÚĨØªÛĴ": 5013,
      "ĠÙ¾Ú©ÚĳÙĪØ§Ø¦ÛĴ": 5014,
      "ĠÙĤÛĮØ¯ÛĮÙĪÚº": 5015,
      "ĠØ¨Ø¬ÙĦÛĮ": 5016,
      "ĠØ±ÙĨÚ¯Øª": 5017,
      "ĠØªØ§Ú©ÛĮØ¯ÛĮ": 5018,
      "ÙĤØ§Ø¡": 5019,
      "ĠÙĨØµØ§Ø±": 5020,
      "ĠØ§ÛĮÙħØ§ÙĨØ¯Ø§Ø±ÙĪÚº": 5021,
      "ĠÙħØ¤Ø§Ø®": 5022,
      "ĠÙ¾Ø§ÙĦØ§": 5023,
      "ĠÚĨØ§ÛģÛĮØ¦ÛĴ": 5024,
      "ĠØ³Ø±Ú¯Ø±ÙħÛĮ": 5025,
      "ĠÛģÚĪÛĮÙĪÚº": 5026,
      "ĠØ³Ú©Ú¾Ø§ÙĨÛĴ": 5027,
      "ĠÚ©Ø±ÙĦÛĮØªÛĴ": 5028,
      "ĠÙħÚ©Ø§ÙĨØ§Øª": 5029,
      "ĠÙħØ§Ø¬Ø±ÛĴ": 5030,
      "ĠÚĨØ±ÙĪØ§ÛģÛĴ": 5031,
      "ĠØ§ÙĪÙĨÙ¹ÙĨÛĮ": 5032,
      "ĠØŃÛĮØ«ÛĮØª": 5033,
      "ĠØªØ±Ø§Ø´": 5034,
      "ĠØªØŃÙĤÛĮÙĤØ§Øª": 5035,
      "ĠÙĨØ¯Ø§ÙħØª": 5036,
      "ĠÙħØ¹Ø§ÙħÙĦØ§Øª": 5037,
      "ĠÚ©Ú¾Ù¹Ú©Ú¾": 5038,
      "ĠÚ©ÙĨÙĪÛĮÚº": 5039,
      "ĠØ¨Ú©Ø±ÛĮÙĪÚº": 5040,
      "ĠÙ¾ÙĦÙ¹Ø§Ø¦ÛĴ": 5041,
      "ĠØ¬Ú¾ÙĪÙĨÚ©": 5042,
      "ÙĦØ²Ø¨ÙĪÙĦ": 5043,
      "ĠÙĨÙĨÚ¯Ø§": 5044,
      "ĠÙ¾ÛĮØ§Ø±ÙĪ": 5045,
      "ÙģÙĦÙ¾Ø³": 5046,
      "ĠØ·Ø¨Ø¹ÛĮ": 5047,
      "ĠØ¯ÛĮÛģØ§Øª": 5048,
      "ĠØ¨Ú¾Ù¹Ú©ÛĴ": 5049,
      "ĠÙĪØ³ÙĪØ³Ûģ": 5050,
      "ĠÙģØ±ÙĪØªÙĨÛĮ": 5051,
      "ĠÙħØ¹Ø°Ø±Øª": 5052,
      "ĠØ¬Ú¾Ù¾Ù¹": 5053,
      "ĠÚ¯ÙĦÛĮÙĦÛĮ": 5054,
      "ĠØ§ÙģØ±Ø§Ø·": 5055,
      "ĠØ³ØªÙģÙĨØ³": 5056,
      "ĠØ§ÚĨÚ¾ÙĦ": 5057,
      "ĠÙħÚ©Ø§Ø´ÙģÛģ": 5058,
      "ĠØ®ÙģÛĮÛģ": 5059,
      "ĠØ¨Ú¾ÚĳÚ©ØªÛĮ": 5060,
      "ĠØ§Ú©Ú¾Ø§Úĳ": 5061,
      "ĠØ§ØŃØªÛĮØ§Ø¬": 5062,
      "ĠÛģÙĪØ±ÛģØ§": 5063,
      "ĠØªÚ©ÛĮÛĴ": 5064,
      "ĠÚ©ÛĮÙģÛĮØª": 5065,
      "ĠØ®Ø§Ø¦Ùģ": 5066,
      "ĠÚĨÙĨÚ¯Ú¾Ø§Úĳ": 5067,
      "ĠØ¨Ø±Ú¯Ø´ØªÛģ": 5068,
      "ĠØ¯Ø§Ø±ÙĪØºÛĴ": 5069,
      "ĠÙĨØ¬Ø§Ø³Øª": 5070,
      "ĠÛĮØ±ÛĮØŃÙĪ": 5071,
      "ĠÙĤÙħÛĮØ¶": 5072,
      "ĠØ²ÙĪØ¬ÛĮØª": 5073,
      "ĠÙħÙĪØ¬ÙĪØ¯Ûģ": 5074,
      "ĠØ³Ø±Ø³Ø¨Ø²": 5075,
      "ĠÙħÙĤØ±Ø¨ÛĮÙĨ": 5076,
      "ĠÙħØ·ÙħØ¦ÙĨ": 5077,
      "ĠÙħØ¤Ø§Ø®Ø°Ûģ": 5078,
      "Ġ[": 5079,
      "Ø§ÚĨÚ¾Ø§": 5080,
      "ÛĮØªÛĮ": 5081,
      "ÛĮØ´Øª": 5082,
      "ÙĪÚ©Ø±": 5083,
      "ÙĪØ«": 5084,
      "ÙĪØ³Øª": 5085,
      "ÙĪØµÛĮ": 5086,
      "Ú©Ú¾ÛĮ": 5087,
      "Ú©Ø§Ûģ": 5088,
      "Ú©ÙĪÙĨ": 5089,
      "Ú©ØªÛĮ": 5090,
      "Ú©ÙĦØ§Ùħ": 5091,
      "ĠÚ©Ù¾Ø±Ø³": 5092,
      "ĠØ§Ûģ": 5093,
      "ĠØ§Ú©Ø§Ø±": 5094,
      "ĠØ§ÙģØª": 5095,
      "ÙĨÚ¯Ø±": 5096,
      "ÙĨÚ©ÛĴ": 5097,
      "ÙħÙĨÚĪ": 5098,
      "ØªØ¨Ûģ": 5099,
      "Ø³ÙĦÙĪ": 5100,
      "Ú¾Ø³": 5101,
      "Ú¾Ú©Ø§": 5102,
      "ĠÙħØ§Ûģ": 5103,
      "ĠÙħØªÛĮ": 5104,
      "ĠÙħØ§ÙĨÛĮ": 5105,
      "ĠÙħØ§ØŃ": 5106,
      "ĠÙħÙĨØ¯ÙĪÚº": 5107,
      "ĠÙħØ¨Ø¹": 5108,
      "ĠØ¨ÛĮØ±": 5109,
      "ĠØ¨Ø³ÛĮ": 5110,
      "ĠØ¨ÙĤÛĮÛģ": 5111,
      "ĠØ³Ø§Ø±": 5112,
      "ĠØ³Ø§Ø³": 5113,
      "ĠØ³Ú©ÛĮ": 5114,
      "ĠØ³Ø³Øª": 5115,
      "ĠØ³Ø¬ÙĪØ¯": 5116,
      "ĠØ³Ø§Ø±Ûģ": 5117,
      "ĠØ³ÙĪØ±Ø§": 5118,
      "ĠØ³Ø¯ÙĪÙħ": 5119,
      "ÙĪØ±ÛĴ": 5120,
      "ĠØªÙĨØ¯": 5121,
      "ĠÙĨØ§Øª": 5122,
      "ĠÙĨØ§Ø±Ø§": 5123,
      "ĠÙĨÙħÚ©": 5124,
      "ĠÙĨÚ¯ÙĦ": 5125,
      "ĠØ¬Ø±Ø§Øª": 5126,
      "Ø¨ÚĳØ§": 5127,
      "ĠÙ¾ØªÛĴ": 5128,
      "ĠÙ¾ÙĪÙĨ": 5129,
      "ĠÙ¾Ø®Øª": 5130,
      "ĠÙ¾Ø§Ø±Ûģ": 5131,
      "Ø¦Ø¯": 5132,
      "ĠÙĪÛĮØ³ÛĮ": 5133,
      "ĠÚ©ÛĮÚĳÛĴ": 5134,
      "Ø§ÙĨÚ¯": 5135,
      "Ø§ÙĨØªÛĴ": 5136,
      "ĠÙĦØ§Ø¯": 5137,
      "ĠÙĦØº": 5138,
      "ĠÙĦØ³Øª": 5139,
      "ĠÙĦÙĨÚ¯Ø±": 5140,
      "ĠÚ¯Ø§Ùħ": 5141,
      "ĠÚ¯ÙĪÙĨÚ¯Ø§": 5142,
      "ĠÚ¯Ø§ÙĦÛĮ": 5143,
      "ĠØ§ÙĨÙĪØ±": 5144,
      "ĠØ§ÙĨÚĨÛĴ": 5145,
      "ĠØ±Ø³Ùħ": 5146,
      "ĠØ±ÙģØªÛģ": 5147,
      "ĠØ±Ø³ÛĮØ¯Ûģ": 5148,
      "ĠØ±ØªØ¨Ûģ": 5149,
      "Ù¾ÙĦØ³": 5150,
      "ÚĨØ§ÙĦ": 5151,
      "Ø¹Ùħ": 5152,
      "Ø¹ÙĨØ§": 5153,
      "Ø¹ÛĮØ¨": 5154,
      "Ø¹ÙĦÛĮÛģ": 5155,
      "ĠØªÙħÙĨØ§": 5156,
      "ĠØ¢ÙħÛĮ": 5157,
      "ĠÙĪÛģÙħ": 5158,
      "ĠÛĮØŃÛĮ": 5159,
      "Ø§ØªÙĨÛĴ": 5160,
      "ÙĤÙĪÚº": 5161,
      "ĠØ®Ø´": 5162,
      "ĠÚ©Ø§Ù¹ÛĴ": 5163,
      "Ú¾ÛĮØ±ÛĴ": 5164,
      "Ø²Ø§Ø±ÛĮ": 5165,
      "ØŃØ±": 5166,
      "ĠØªÙĪÚĳØ§": 5167,
      "ĠØªÙĪÛģÛĮ": 5168,
      "ĠØ¬ÙĪØª": 5169,
      "ĠØ¬ÙĪØªÛĮ": 5170,
      "ĠØ¬ÙĪØ§ÙĨÛĮ": 5171,
      "ĠØ¬ÙĪÚĳØ§": 5172,
      "ĠÙ¾Ø±Ø§ÙĨÛĴ": 5173,
      "ĠØ¹ÛĮØ§ÙĦ": 5174,
      "Ú¾Ø§Ø¦ÛĮ": 5175,
      "ĠÚĨÙĨÛĴ": 5176,
      "ĠÚĨØ§Ù¾": 5177,
      "ĠÚĨÚĨØ§": 5178,
      "Ø§ÛģØ§Ùħ": 5179,
      "ĠÙģÙĪØ§": 5180,
      "Ø®Ø§": 5181,
      "ĠØ§Ù¾ÛĮÙĦ": 5182,
      "ĠØŃØª": 5183,
      "ĠØŃØ§Ùħ": 5184,
      "ĠØŃÙĦÛĮÙħ": 5185,
      "ĠØŃØ±Ùħ": 5186,
      "ĠØŃÙĪØ¶": 5187,
      "ĠØŃÙĦÙģ": 5188,
      "ĠØŃÙħÙĦ": 5189,
      "ĠØŃØµÛĴ": 5190,
      "ÙĪÙĨÛģ": 5191,
      "ÙĪÙĨÙĪÚº": 5192,
      "ĠÙĤØ§Ùģ": 5193,
      "ĠØ´Ú¯Ø§": 5194,
      "ĠØ§ÙĦÙģØª": 5195,
      "ĠØ§ÙĦÙ¹ÛĴ": 5196,
      "ĠØ§ÙĦØºØ±Ø¶": 5197,
      "ĠÙĪØ§ÙĦØ¯Ûģ": 5198,
      "Ú¯Ø±Ø¯Ø§Úº": 5199,
      "ĠÙĦÙĪÙ¹ÛĴ": 5200,
      "ĠÙĦÙĪÛģÛĴ": 5201,
      "ÙĦÛĮØ®Ø§": 5202,
      "ĠØ·Ø§ÙĦ": 5203,
      "ĠØ·ÙĦÙĪ": 5204,
      "ĠØ·ÙĪÙĤ": 5205,
      "ĠØ¨ÛĮÙĨ": 5206,
      "ĠØ¨ÛĮØ¹": 5207,
      "ĠØ¨ÛĮØ²Ø§Ø±ÛĮ": 5208,
      "ÙĨÛĮÙħ": 5209,
      "ĠØ¬Ø§ÙĪÙĨÚ¯Ø§": 5210,
      "Ø·Øª": 5211,
      "ĠØ§ÛĮÙĨØ¯": 5212,
      "ĠØ§ÛĮÙĪØ¨": 5213,
      "Ø³ÙĪÙĦ": 5214,
      "ÙĨØ¯Ú¯Ø§ÙĨ": 5215,
      "ĠØ³Ø¨ÙĤØª": 5216,
      "ÙħØ§Úº": 5217,
      "ÙħØ§Ø¦ÛĴ": 5218,
      "ĠØ¬Ø§ÙĨÚĨ": 5219,
      "ĠØ®ÙĪØ§ÙĨ": 5220,
      "ĠØ®ÙĪØ¬Ûģ": 5221,
      "ĠØµÙģ": 5222,
      "ĠØµØ¯Ø§": 5223,
      "ĠÙ¾ÛģØ±ÛĴ": 5224,
      "ĠØ±ÙĪØªÛĮ": 5225,
      "ĠØ±ÙĪÙħØ§ÙĦ": 5226,
      "ĠØ±ÙĪÚ¯Ø±Ø¯Ø§Úº": 5227,
      "ØªÛĮØ³": 5228,
      "ĠØ¨ÛģØªÛĴ": 5229,
      "ĠØ¨ÛģØªÛĮ": 5230,
      "ĠØ¨ÛģÚ©ÛĴ": 5231,
      "Ø±Ø§Ø¡": 5232,
      "ĠØ§Ú¯Ø±Ù¾Ø§": 5233,
      "ĠÙ¾Ú¾Ø±ÛĮÚº": 5234,
      "ĠÙ¾Ú¾Ø±ÙĨØ§": 5235,
      "ĠÙħØ¬ÛĮØ¯": 5236,
      "ĠÙ¾Ø§Ø³Ú©ÛĮÚº": 5237,
      "ĠØ§ÛĮÙħØ§ÙĨÛĮ": 5238,
      "ĠØ§ÛĮÙħØ§ÙĨÙĪÚº": 5239,
      "ĠÚĪØ§ÙĨ": 5240,
      "ĠØºØ¨Ø§Ø±": 5241,
      "ĠÙħØ¹ÛĮØ´Øª": 5242,
      "ĠØ¨ÙĦØ§ØªÛĴ": 5243,
      "ĠØªØ§Ù¾": 5244,
      "ĠØ¯Ø±Ø¬": 5245,
      "ĠÚ©Ú¾Ø§Ø±ÛĮ": 5246,
      "ĠÚ©Ú¾ÙĦØ§ÛĮØ§": 5247,
      "ĠÚ©Ú¾Ø§ÙĦÛĮÚº": 5248,
      "ĠØ³ÙĪØ¦ÛĮ": 5249,
      "ĠØ³ÙĪØ¯Ø§": 5250,
      "Ø«Ø§Ø±": 5251,
      "ĠÙĦØ§Ø¦ÛĮ": 5252,
      "ĠÙĦØ§ØŃÙĤ": 5253,
      "ĠØ§Ø¨Ø§": 5254,
      "Ø¢Ø¯": 5255,
      "Ø¢Ù¾Ø³": 5256,
      "ĠØ¨Ø±Ø§Ûģ": 5257,
      "ĠØ¨Ø±Ø¯Ø§Ø±": 5258,
      "ĠÙ¹Ú©Ø±": 5259,
      "ĠÙ¹Ø§Ù¾": 5260,
      "ĠØ¨Ø¹ÛĮØ¯": 5261,
      "ĠØ¨Ø¹ÙĦØ²Ø¨ÙĪÙĦ": 5262,
      "ĠØ³ÙĨØª": 5263,
      "ĠØ³ÙĨØ¨Ú¾": 5264,
      "ØºÛĮØ±": 5265,
      "ĠØ¯ÛĮÚ©Ú¾ÙĪÚº": 5266,
      "ĠØ¯ÛĮÚ©Ú¾ÙĨØ§": 5267,
      "ĠØ¯ÛĮÚ©Ú¾ØªÛĮ": 5268,
      "ĠÙħÙĪÙĦØ§": 5269,
      "ĠÙħØŃØ§Ùģ": 5270,
      "ĠÙĨØ§Ø¬Ø§": 5271,
      "ĠÙĨØ§ÙĤØµ": 5272,
      "ĠØ¢Ø³Ú©ØªØ§": 5273,
      "ĠØ¨Ø¯ÚĨÙĦ": 5274,
      "ĠØ¨Ø¯ØªØ±": 5275,
      "ĠØ¨Ø¯ÙĨØ§Ùħ": 5276,
      "ĠØ¨Ø¯Ø³ÙĦÙĪ": 5277,
      "ĠØ³Ø±Ø¨ÙĦÙĨØ¯": 5278,
      "ÙĪØ¯ÛĮØ§Ø³": 5279,
      "ĠÙħØ³ÛĮØŃÛĮ": 5280,
      "ĠÙĪÙĤØªÙĪÚº": 5281,
      "ĠØ®ÙĪØ´ÛĴ": 5282,
      "ĠØ®ÙĪØ´ØŃØ§ÙĦ": 5283,
      "ĠØ¨Ú¾Ø§Ú¯ÙĪ": 5284,
      "ĠÙħÙĨÚ¯": 5285,
      "ĠÙħÙĨØ§ØªÛĴ": 5286,
      "ÛĮØ¯Ú¯ÛĮ": 5287,
      "ĠÙ¾ÛĮØ¯Ø§ÙĪØ§Ø±": 5288,
      "ĠÙ¾ÛģÙĨÚĨØ§ÙĨØ§": 5289,
      "ĠÚ¯ÙĨØ¬Ø§": 5290,
      "ĠÙ¹Ú¾Ù¹Ú¾Ø§": 5291,
      "ĠØ§ØªÚ¾ÛĮ": 5292,
      "ĠØªØ¹ÙħÛĮÙĦ": 5293,
      "ĠØ¨ÚĨÛĮÚº": 5294,
      "ĠØ¨ÚĨØ§ÙĨØ§": 5295,
      "ĠÙĦÛĮØªÛĮ": 5296,
      "ĠÚ©ØªØ§Ø¨ÛĮÚº": 5297,
      "ĠÙ¾ÙĪØ´": 5298,
      "Ø§ÙĨØ§ØºÛģ": 5299,
      "Ø¬ÙĪØ§ÙĨ": 5300,
      "ĠÙĨÛĮÚ©ÛĮÙĪÚº": 5301,
      "ĠØ¬ÙĦØªÛĴ": 5302,
      "ĠØ¬ÙĦØ§ØªØ§": 5303,
      "ĠÙħØ¯Ø¹ÛĮ": 5304,
      "ĠÙ¾ÙĪØ±Ø¨": 5305,
      "ĠØ¨ÙĨØªÛĴ": 5306,
      "ĠØ¨ÙĨÙĨØ§": 5307,
      "ĠÚ¯Ø±ÙħÛĮ": 5308,
      "ĠØ§Ø¹ÙĦÛĮ": 5309,
      "ĠØ¨Ø§Ø±ÛĮÚ©": 5310,
      "Ø¨Ø§Ø¯Ø´Ø§Ûģ": 5311,
      "ĠÙħÙĦØ¹ÙĪÙĨ": 5312,
      "ĠÛģÙĪÚ¯Ø¦ÛĮÚº": 5313,
      "ĠÙ¾ÚĳÚ¾ÛĮ": 5314,
      "ĠØ§Ù¹Ú¾ØªØ§": 5315,
      "ĠØ§ÙĨØ¯ÛĮÚ©": 5316,
      "ĠØ¨ÙĨØ¯ÙĪ": 5317,
      "ĠØ¨Ú¾ÛĮØ¬ÛĮÚº": 5318,
      "ĠÙ¾Ú¾ÙĨØ³Ø§": 5319,
      "ĠØ³Ø§ÙħÙĨØ§": 5320,
      "ĠÙħØ´Ø¹": 5321,
      "ĠØ¨ÙĪÚĳÚ¾ÛĮ": 5322,
      "ĠÙģÛĮØµÙĦ": 5323,
      "ĠØ¯Ø¹Ø§Ø¦ÛĴ": 5324,
      "ĠØ¨ÙĦØ§Ø¦ÛĮÚº": 5325,
      "ĠØ´ÛģØ±Øª": 5326,
      "ĠØªÚ¾Ùħ": 5327,
      "ĠÙĨÚ©Ø§ÙĦÙĨÛĴ": 5328,
      "ĠØ¬Ú¯ÛģÙĪÚº": 5329,
      "ĠÙħÙĦØ§ØŃ": 5330,
      "ĠØªØ±Ú©": 5331,
      "ĠØªØ±ØºÛĮØ¨": 5332,
      "ĠÙĪØ§Ø³Ø·Ûģ": 5333,
      "ĠÙĦÚ¯ÙĪ": 5334,
      "ĠØ¯Ú©Ú¾Ø§ÙĪÛĴ": 5335,
      "ĠØ¬Ú¾ÙĪÙĦÛĮ": 5336,
      "ĠØ§Ú©ÙĪÙĦÛģ": 5337,
      "ĠØ§Ú©ÙĨÛĮÙħ": 5338,
      "ĠÙħØªÙģÙĤ": 5339,
      "ĠØ³Ø§Ø¦ÛĴ": 5340,
      "ĠØ³Ø§Ù¹Ú¾": 5341,
      "ĠÚ©ÙħØ§ØªÛĴ": 5342,
      "ĠØºÛĮØ±ÙģØ§ÙĨÛĮ": 5343,
      "ĠØ¯ÙĪØ±ÛĮ": 5344,
      "ĠÙĨÛĮÙĪ": 5345,
      "ĠØ®ÙĪÙģÙĨØ§Ú©": 5346,
      "ĠØ¨Ø³Ø±": 5347,
      "ĠØ§ÙħÛĮØ¯ÛĮÚº": 5348,
      "ĠØ§ÙħÛĮØ¯ÙĪØ§Ø±": 5349,
      "ĠÙĦÚĳÚ¾Ú©Ø§": 5350,
      "ĠØ¨ØºØ¶": 5351,
      "ĠØ¨ØºØ§ÙĪØª": 5352,
      "ĠÙ¾ÙĦØ§ÙĨÛĴ": 5353,
      "ĠÙħØ±Ø¯ÙĪØ¯": 5354,
      "ĠØµÙĪØ±ØªÙĪÚº": 5355,
      "ĠØ¨ÙĪÙĦÛĮÚº": 5356,
      "ÛģÙħØ§Ø±Ø§": 5357,
      "ĠÙħÙĨØªØ´Ø±": 5358,
      "ĠÙħØ§Ø±ØªÛĴ": 5359,
      "ĠØªØ³Ú©ÛĮÙĨ": 5360,
      "Ú¯ÙĪÛĮØ§": 5361,
      "ĠÚ¯Ø²Ø±Ø§": 5362,
      "ĠØ³Ø±Ú©ÙĨÚĪ": 5363,
      "ĠÙ¾Ú©Ø§Ø±ØªØ§": 5364,
      "ĠØ¨ÙĦÙĨØ¯ÛĮ": 5365,
      "ĠØ¨Ø§ØºÙĪÚº": 5366,
      "ÙĤØ±ÛĮØ¨Ø§": 5367,
      "ĠÚĪÚ¾ÙĦ": 5368,
      "ĠØŃØ±Ø§ÙħÚ©Ø§Ø±": 5369,
      "ĠØ¯Ú¾ÙĪÚ©Ø§": 5370,
      "ĠØ¨ØªØ§ÛĮØ§": 5371,
      "ĠÚ©Ø±Ø³Ú©ØªÛĮ": 5372,
      "ĠØ¯Ø±ÛĮØ§Ø¤Úº": 5373,
      "ĠÙħØµÛĮØ¨ØªÛĮÚº": 5374,
      "ĠØ¯Ø±ÙĪØ§Ø²ÙĪÚº": 5375,
      "ĠÚĨÙĪØ¯Ûģ": 5376,
      "ĠÚ©Ú¾ÙĪÙĦÛĮÚº": 5377,
      "ĠÚ©Ú¾ÙĪÙĦØªØ§": 5378,
      "ĠÙ¾ÛģÚĨØ§ÙĨØªØ§": 5379,
      "ĠØ§Ø¯Ø§Ø¦ÛĮÚ¯ÛĮ": 5380,
      "ÙĤØ±ÙĨÛĮÙĨ": 5381,
      "ĠØ§Ø±ÙĪØ§ØŃ": 5382,
      "ĠÙħØ°Ú©ÙĪØ±": 5383,
      "ĠÚ©Ù¾ÚĳØ§": 5384,
      "ĠØ¹ÙĦØ§ÙħØª": 5385,
      "ĠÙħÛģÙħØ§ÙĨÛĮ": 5386,
      "ĠØ§ØªØ§Ø±ØªÛĴ": 5387,
      "ĠØ¨ØªØ§ØªØ§": 5388,
      "ĠÙĤØµÙĪØ±ÙĪÚº": 5389,
      "ĠØ¨Ø±Ú©ØªÛĮÚº": 5390,
      "ĠÙħØ§Ø¦ÛĮÚº": 5391,
      "ÙĤØ·Ø¹": 5392,
      "ĠÛģÛĮØ±ÙĪØ¯ÛĮØ§Ø³": 5393,
      "ĠØ±Ø³ÛĮØ§Úº": 5394,
      "ĠÚĨØ±Ø§ÙĨÛĴ": 5395,
      "ĠÚĪØ±Ø§ÛĮØ§": 5396,
      "ĠÚ¯Ø±Ø§Úº": 5397,
      "ĠØ¢ÚĨÚ©ÛĴ": 5398,
      "ĠØ¬Ú¾Ù¹ÙĦØ§Ø¦ÛĴ": 5399,
      "ĠØ§ÙĪÙĨÚĨÛĮ": 5400,
      "ĠØ§Ø³ØªÛģ": 5401,
      "ĠØ§Ø³ØªØ¹": 5402,
      "ĠÛģÙĪØ³Ú©ØªÛĮ": 5403,
      "ĠØ´ÛģÛĮØ¯": 5404,
      "ĠØ´ÛģØªÛĮØ±": 5405,
      "ĠÙĨÚ¯Ø§ÛģÙĪÚº": 5406,
      "ĠÙĨØ°Ø±ÛĮÚº": 5407,
      "ĠÙĦØ´Ú©Ø±ÙĪÚº": 5408,
      "ĠØ¯ÙĪÚĳØªÛĴ": 5409,
      "ĠÚĪÚ¾ÙĪÙĨÚĪØªÛĮ": 5410,
      "ĠØ¯ÛĮÚ©Ú¾ÛĮÚ¯Ø§": 5411,
      "ĠÙħØ¹ÙħÙĪØ±ÛĮ": 5412,
      "ĠÙħØ¹ÙħÙĪÙĦÛĮ": 5413,
      "ĠÙħÙĨÚ©Ø±ÛĮÙĨ": 5414,
      "ÛĮØ¹ÙĤÙĪØ¨": 5415,
      "ĠØµØ§ÙĦØŃÛĮÙĨ": 5416,
      "ĠÚĨÚĳÚ¾Ø§Ø¦ÛĮ": 5417,
      "ĠØ¬Ú¾Ú¯ÚĳØ§ÙĦÙĪ": 5418,
      "ĠÙĨØ§Ø´Ú©Ø±Ú¯Ø²Ø§Ø±": 5419,
      "ĠÛģÙĪØ´ÛĮØ§Ø±ÛĮ": 5420,
      "ĠÚĨÚ©Ú¾ÛĮÚº": 5421,
      "ĠÚĨÚ©Ú¾ÙĨÛĴ": 5422,
      "ĠÙħØ²Ø¯ÙĪØ±ÙĪÚº": 5423,
      "ĠØªÙĤÙĪÛĮ": 5424,
      "ĠØ³ØªØ§ÛĮØ§": 5425,
      "ĠØ¨Ø§Ø´ÙĨØ¯ÛĴ": 5426,
      "ĠØ³Ø®Ø§ÙĪØª": 5427,
      "ĠÚ©Ø±Ø³Ú©Ø§": 5428,
      "ĠÚĨÚ¾Ø§Ú¯Ø¦ÛĮ": 5429,
      "ĠÙĤØ·Ø§Ø±": 5430,
      "ĠÙĤØ·Ø¹Ø§": 5431,
      "ĠØ¨ÛģØ§ÛĮØ§": 5432,
      "ĠÙ¾Ú¾ÛĮÙĦØ§ÙĨÛĴ": 5433,
      "ĠØªÙĦÙĪØ§Ø±ÛĮÚº": 5434,
      "ĠØ¨ÚĨÚ¾ÚĳØ§": 5435,
      "ĠÙĦØ§ÙĦÚĨÛĮ": 5436,
      "ĠØ³ÙĪÚĨÙĨÛĴ": 5437,
      "ĠØ¨Ø¬Ú¾Ø§": 5438,
      "ĠØ¨ØµÙĪØ±Øª": 5439,
      "ĠÚ©Ø±Ø¯ÛĮØªÛĴ": 5440,
      "Ø¯Ø±Ø§ÙĨÛģ": 5441,
      "ĠÙĨØ±Ø³ÙĨ": 5442,
      "ĠÙħØ®ØªÙĪÙĨÛĮ": 5443,
      "ĠÙĨØµØ±Øª": 5444,
      "ĠÛģØ§ÙħØ§ÙĨ": 5445,
      "ĠÙħØ¤Ø®Ø±": 5446,
      "ĠØ³Ø±Ú¯Ø±Ø¯Ø§Úº": 5447,
      "ĠØ²ÙĨØ¬ÛĮØ±": 5448,
      "ĠØ®ÙĦØ§Ø¦ÛĮ": 5449,
      "ĠØ§Ø«Ø±Ø§Øª": 5450,
      "ĠÙħØ²Ø§Ø¬ÛĮ": 5451,
      "ĠÙĨØŃÙĪØ³Øª": 5452,
      "ĠÙ¾ÛģÙĨØ§ÛĮØ§": 5453,
      "ĠÙ¾ÛģÙĨØ§Ø¦ÛĴ": 5454,
      "ĠØ¨Ø±Ø³Ø§ÛĮØ§": 5455,
      "ĠØ³ÙģØ§Ø±Ø´ÛĮ": 5456,
      "ĠÚĪÙĪØ¨ÙĨÛĴ": 5457,
      "ĠØªØ´Ø¨ÛĮÛģ": 5458,
      "ĠÚ©Ø±ÛĮØªÛĴ": 5459,
      "ĠØ²Ú©Ø±ÛĮØ§": 5460,
      "ĠØ¹ÙĤÙĦÙħÙĨØ¯ÙĪÚº": 5461,
      "ĠØ¬Ø§ÛģÙĦ": 5462,
      "ĠÚ©Ø±Ø±ÛģØ§": 5463,
      "Ø´Ø§Ú¯Ø±Ø¯ÙĪÚº": 5464,
      "ĠÛĮØªÛĮÙħ": 5465,
      "ĠÚ¯ÛģØ±ÛĮ": 5466,
      "ĠØŃÙħØ§ÛĮØªÛĮ": 5467,
      "ĠØ¨ÛĮÙĪØ§ÙĪ": 5468,
      "ĠØ¯Ø§Ø±ÙĪØºÛģ": 5469,
      "ĠØ¯ØºØ§": 5470,
      "ĠØ¯ØºØ§Ø¨Ø§Ø²": 5471,
      "ĠÚ¯ÙĦØªÛĮÛģ": 5472,
      "ĠØ¹ÙĦØ§ÙĨÛĮÛģ": 5473,
      "ĠÙ¹ÙĪÚ©Ø±ÛĴ": 5474,
      "ĠÙ¹ÙĪÚ©Ø±ÛĮØ§Úº": 5475,
      "ĠØ¬Ø¯Ú¾Ø±": 5476,
      "ĠØ±Ø¹Ø§ÛĮØª": 5477,
      "ĠØ®ÙĦÙĤØª": 5478,
      "ĠØ®ØµÙĪØµÛĮ": 5479,
      "ĠØŃÚ©ÛĮÙħ": 5480,
      "ĠÚ©ÙĨÚ¯Ø§ÙĦ": 5481,
      "ĠÙ¹Ú¾ÛģØ±ÛĮÚ¯Ø§": 5482,
      "Ø¢Ø³ÙħØ§ÙĨÙĪÚº": 5483,
      "ÙħØŃØ¨Øª": 5484,
      "ĠØªÙĤØ±ÛĮØ±": 5485,
      "ĠØ¬ÙĨØ§Ø¨": 5486,
      "ĠÙĪØ³Ø§Ø¦ÙĦ": 5487,
      "ĠÚĨÚ¾ÚĳØ§ÙĨÛĴ": 5488,
      "ĠÙħÙħÙĦÙĪ": 5489,
      "ĠÙ¾Ú¾Ø§Ù¹Ú©": 5490,
      "ĠØ¹ÙĪØ§Ùħ": 5491,
      "ĠÙģØ·ÛĮØ±": 5492,
      "ĠØ§Ú©Ú¾Úĳ": 5493,
      "ĠÙĦÛģØ±ÙĪÚº": 5494,
      "ĠÚ©Ø±ÙĨØªÚ¾Ø³": 5495,
      "ĠÛģÙĪÙĦÙĨØ§Ú©": 5496,
      "ĠØ¢Ø³ÙĪØ¯Ûģ": 5497,
      "ĠØ®Ø§ØªÙħÛģ": 5498,
      "ĠÙ¾ÙĪÚĨÚ¾ÙĪ": 5499,
      "ĠØ³ÛĮØ§ØŃØª": 5500,
      "ĠØªØ³ÙĦØ·": 5501,
      "ĠÚ¯ÚĳÚ¯": 5502,
      "ĠØ±ÙĤÙħ": 5503,
      "ĠÚ©ÙĪØªØ§ÛģÛĮ": 5504,
      "ĠÙĤØªØ§ÙĦ": 5505,
      "ĠØ²ÙĪØ¬Ûģ": 5506,
      "ĠØ¨Ø±Ø¯Ø¨Ø§Ø±": 5507,
      "ĠØ®ÙĪØ´ÙĨÙĪØ¯ÛĮ": 5508,
      "ĠÙĤØ¨ÙĪÙĦÛĮØª": 5509,
      "ĠØ¨Ú¾ÙĪÙĨÚĨØ§ÙĦ": 5510,
      "ĠØ§Ø¹ØªØ¯Ø§ÙĦ": 5511,
      "ĠÚ©Ú¾Ù¹Ú©Ú¾Ù¹Ø§": 5512,
      "ĠØ§Ú©Ø§Ø±Øª": 5513,
      "ĠÙħØ§ØŃÙĪÙĦ": 5514,
      "ĠÙħØ¨Ø¹ÙĪØ«": 5515,
      "ĠÙĨØ§Ø±Ø§Ø¶": 5516,
      "ĠÙ¾Ø®ØªÚ¯ÛĮ": 5517,
      "ĠÚ¯Ø§ÙħØ²ÙĨ": 5518,
      "ĠÙģÙĪØ§Ø¦Ø¯": 5519,
      "ĠØ´Ú¯Ø§Ùģ": 5520,
      "ĠØ·ÙĦÙĪØ¹": 5521,
      "ĠØ§ÛĮÙĨØ¯Ú¾ÙĨ": 5522,
      "ĠÙ¹Ø§Ù¾ÙĪ": 5523,
      "ĠÙħØŃØ§ÙģØ¸": 5524,
      "ĠÙĨØ§Ø¬Ø§Ø¦Ø²": 5525,
      "ĠØ¨Ø¯Ø³ÙĦÙĪÚ©ÛĮ": 5526,
      "ĠÚĳ": 5527,
      "Ø§Ø¯ÛĮ": 5528,
      "ÙĪÚĳ": 5529,
      "ÙĪÚ¯ÛĴ": 5530,
      "ÙĪÚ©Ø§Ø±": 5531,
      "ÙĪØ¨Ø§Ø±": 5532,
      "ÛģÙħÛĮÚº": 5533,
      "ÛģÙģØªÛģ": 5534,
      "Ø±Ø³": 5535,
      "Ø±ÙĪØŃ": 5536,
      "Ø±Ø³ÙĪÙĦ": 5537,
      "ĠÚ©Ø§Øª": 5538,
      "ĠÚ©Ù¹": 5539,
      "ĠÚ©ÙĦÛĮ": 5540,
      "ĠÚ©Ø³ÛĴ": 5541,
      "ĠØ§ÙĦØ§": 5542,
      "ĠØ§Ø²ÙĦ": 5543,
      "ĠØ§ÙĤØ§ÙħØª": 5544,
      "ÙħØ§Ø³": 5545,
      "ÙħÙĨØ¯": 5546,
      "ÙħÚ©Ø§": 5547,
      "ÙħÙĨÙĪÚº": 5548,
      "ÙħÛĮØ±ÛĮ": 5549,
      "ĠÛģØ§ÙĨÚ©ÛĴ": 5550,
      "ØªÛģ": 5551,
      "Ø³ÙĦÛĮ": 5552,
      "ĠÙħÚ©ÛĴ": 5553,
      "ĠÙħØ´Øª": 5554,
      "ĠÙħØ§ÛģØ±": 5555,
      "ĠÙħØ¨Ø§": 5556,
      "ĠØ¨Ùħ": 5557,
      "ĠØ¨Ø¯Ø§": 5558,
      "ĠØ¨Ø²Ø¯": 5559,
      "ĠØ¨Ú©ØªØ§": 5560,
      "ĠØ³Ø·": 5561,
      "ĠØ³ÙĦÙħ": 5562,
      "ĠØ³ÛĮØ§Ø±": 5563,
      "ĠØ³Ø§Ø¨ÙĤ": 5564,
      "ĠØ³ÙħØ§Ø¹Øª": 5565,
      "ĠØ³ÚĳÙĨÛĴ": 5566,
      "ĠØ³Ø³ØªÛĮ": 5567,
      "ĠØªÚĳ": 5568,
      "ĠØªÚ¾Ø±": 5569,
      "ĠØªÙĤØ±ÛĮØ¨Ø§": 5570,
      "ĠÙĨØ²": 5571,
      "ĠÙĨØ§Ø³": 5572,
      "ĠÙĨÙĤÙĪ": 5573,
      "ĠÙĨÙĨØ§ÙĨ": 5574,
      "ĠÙĨØ³Ø¨": 5575,
      "Ú¯ÙĪÚº": 5576,
      "ĠØ¬Ø§Ø±": 5577,
      "ĠØ¬Ø§Øª": 5578,
      "Ø¨Ø¯": 5579,
      "Ø¨Ø§Øª": 5580,
      "ĠÙ¾Ø¦ÛĮÚº": 5581,
      "ĠØ§ÙĪØ±Ø§ÙĨ": 5582,
      "ĠÙĪÙģ": 5583,
      "ĠÙĪØº": 5584,
      "ĠÚ©ÛĮÙĨÛģ": 5585,
      "ĠØ³ÛĴÚ©ÛģØ§": 5586,
      "ĠØ§Ø³Ø±": 5587,
      "Ø§ÙĨØ³": 5588,
      "ĠÙĦØ§Øª": 5589,
      "ĠÙĦÙ¹Ú©": 5590,
      "ĠÚ©Ø±Ø§Ûģ": 5591,
      "ĠÚ©ÛģØ§ÙĨÛĮÙĪÚº": 5592,
      "ĠÚ¯ÙĨÛĴ": 5593,
      "ĠÚ¯ÚĳÚ¾ÛĴ": 5594,
      "ĠØ±Ø¶": 5595,
      "ĠØ±ÛĮØ²": 5596,
      "ĠÚ©ÙĪÚĨ": 5597,
      "ĠÚ©ÙĪÙ¹Ú¾ÛĴ": 5598,
      "Ù¾ØªØ§": 5599,
      "Ù¾ÚĳÛĮ": 5600,
      "ĠÛģÙĪÛĴ": 5601,
      "ĠØªÙħÛĮØ²": 5602,
      "ĠØ¢Ø³Ø§": 5603,
      "ĠØ¢Ø¤Úº": 5604,
      "ĠØ¢Ø¯Ø§Ø¨": 5605,
      "Ø´ÛĴ": 5606,
      "Ø§ÙĦÛģ": 5607,
      "Ø¬ÙĨÛģ": 5608,
      "ĠÛĮØ³ÛĮ": 5609,
      "ĠÛĮÙĪØ³ÛĮ": 5610,
      "ĠÛĮÙħÙĨ": 5611,
      "ĠØ®Ø§ÙĨÙĪÚº": 5612,
      "ĠØ®Ø¶Ø±": 5613,
      "ĠØ®Ø³ØªÛģ": 5614,
      "ĠÚ©Ø§Ù¹Ø§": 5615,
      "ÙģØ±Ø§Ø²": 5616,
      "Ø²ÛĮØ±": 5617,
      "ĠØ¬ÙĪØ¦ÛĴ": 5618,
      "ĠÛģÙħÙĪØ§Ø±": 5619,
      "ĠÛģÙħØ´Ú©ÙĦ": 5620,
      "ĠÙ¾Ø±ÙĦÛĴ": 5621,
      "ĠÙ¾Ø±Ø¯Ø§Ø²": 5622,
      "ĠØ¹ÙĤÛĮ": 5623,
      "ÚĳÛĮØ§Úº": 5624,
      "ĠÚĨÙĪØª": 5625,
      "ĠÚĨÚ©ÙĪ": 5626,
      "Ø¦ÛĮÙĦ": 5627,
      "Ø§ÛģÛĴ": 5628,
      "ĠÙģÙĪ": 5629,
      "ĠÙģØ¹ÙĦ": 5630,
      "ĠØ¨Ú¾ÛĮØ¯ÙĪÚº": 5631,
      "ĠØŃØ¯ÛĮ": 5632,
      "ĠØŃÙĦÙĤ": 5633,
      "ĠÙĤØ§Ø±ÙĪÙĨ": 5634,
      "Ú©ÛģÙĨÛĴ": 5635,
      "ĠØ´Ø¯Ûģ": 5636,
      "ĠØ§ÙĦÙĪÛģÛĮ": 5637,
      "ĠØ§ÙĦÙĪØ§ÙĤØ¹": 5638,
      "ÙĦÛĮÙħÛĮ": 5639,
      "ĠØ·Ø§Ø±ÛĮ": 5640,
      "ĠØ·ÛģÙĪØ±": 5641,
      "Ú¾Ø±ÛĮ": 5642,
      "ØµØª": 5643,
      "ĠÙģØ±ØµØª": 5644,
      "ĠØ¨ÛĮØ²Ø§Ø±": 5645,
      "ĠØ¬Ø§ÙħÛģ": 5646,
      "ĠØ²ÙĨ": 5647,
      "ĠØ²ÙĨÚ¯": 5648,
      "ĠØ²Ø¨ÙĪØ±": 5649,
      "ĠØ²Ø§Ø¦ÙĦ": 5650,
      "ĠØ²ÙĦØ²": 5651,
      "ĠØ²ÙĦÛĮØ®Ø§": 5652,
      "ĠØ¯ÛĮÙĪÛĮ": 5653,
      "ĠØ®Ø¯Ø§ÛĮ": 5654,
      "Ø§Ø¨ÙĨ": 5655,
      "Ø¶Ûģ": 5656,
      "ÙħÛĮØª": 5657,
      "ĠØ¨Ø§Ø§ÛĮÙħØ§ÙĨ": 5658,
      "ĠØ¬Ø§ÙĨÛĮ": 5659,
      "ĠØ¬Ø§ÙĨÙĨØ§": 5660,
      "ĠØ¬Ø§ÙĨØ¯Ø§Ø±": 5661,
      "ĠØ§ÛĮÚ©Ø§": 5662,
      "Ø±ÛĮÙĦ": 5663,
      "Ø±ÛĮØ³": 5664,
      "Ø±ÛĮØŃØ§": 5665,
      "ĠØµØ§Ø¯": 5666,
      "ĠØµÙģØ§Øª": 5667,
      "ĠØ±ÙĪÛĮ": 5668,
      "ØªÛĮÙĨ": 5669,
      "ØªÛĮØ¨": 5670,
      "ĠÙ¾ÛĮÙ¾": 5671,
      "ĠÙ¾ÛĮØ³ÛĴ": 5672,
      "ĠÙ¾ÛĮØ¯ÙĦ": 5673,
      "ĠØ¨ÛģØ§Ø±": 5674,
      "ĠØ¨ÛģØ±ÙĪÚº": 5675,
      "Ø±Ø§Ø¦ÛĴ": 5676,
      "ĠØ¨ÚĳÚ¾ÙĪ": 5677,
      "ĠØ¬ÙĨÙħ": 5678,
      "ĠØ·Ø±ÙģØ¯Ø§Ø±": 5679,
      "ĠÙħØ¬Ø³Ùħ": 5680,
      "ĠÙħØ¬ÙħØ¹": 5681,
      "ĠÚĪØ±ÛĴ": 5682,
      "Ø¯ÛĮØ¬Ø¦ÛĴ": 5683,
      "ĠØºØ³ÙĦ": 5684,
      "ĠØºÙĦØ§Ùģ": 5685,
      "ĠØºØµÛĴ": 5686,
      "ĠØºØ°Ø§": 5687,
      "ĠÛĮØ§Ø±": 5688,
      "ĠÛĮØ§Ø³ÙĪÙĨ": 5689,
      "ĠØ±Ø¨Ø§ÙĨÛĮ": 5690,
      "Ø¨ÛĮÙĪÚº": 5691,
      "ĠÙħØ¹Øµ": 5692,
      "ĠÙħØ¹ÙĦÙħ": 5693,
      "ĠÙħØ¹ÙĦÙĤ": 5694,
      "ĠÙħØ¹ÛĮÙĨÛģ": 5695,
      "ĠÙħØ¹Ø§ÛģØ¯Ûģ": 5696,
      "ĠØ¨ÙĦØ§ÙĨØ§ØºÛģ": 5697,
      "ĠØªØ§Ø¦ÛĮ": 5698,
      "ĠØ¯Ø±Ø¨": 5699,
      "ĠØ¯Ø±Ú©Ø§Ø±": 5700,
      "ĠØ¯Ø±Ø¨Ø§Ø±": 5701,
      "ĠØ¯Ø±ÛģÙħ": 5702,
      "Ø§Ø¯Øª": 5703,
      "Ø§Ø¯ÙĪÚº": 5704,
      "ĠØ³ÙĪØ¦ÛĴ": 5705,
      "ĠØ³ÙĪÚ©Ú¾Ø§": 5706,
      "ĠØ³ÙĪØ§Ø±ÙĪÚº": 5707,
      "ĠØ³ÙĪØ§Ø±ÛĮÙĪÚº": 5708,
      "ĠÚĨØ§ÛģÙĪÚº": 5709,
      "ÛģØ±ÛĴ": 5710,
      "ĠÙħØ±ÛĮÚº": 5711,
      "ĠØ±Ú©Ú¾Ø¦ÛĴ": 5712,
      "Ø¢Ø¬": 5713,
      "ĠØ¨Ø±Ûģ": 5714,
      "ĠØ¨Ø±ØªØ§ÙĪ": 5715,
      "ĠØ¨Ø¹Ø«Øª": 5716,
      "ĠØ³ÙĨÙĪØ§Ø±": 5717,
      "ĠÙħÙĪÚĳ": 5718,
      "ĠÙĨØ§Ø²": 5719,
      "ĠÙĨØ§Ø¦Ø¨": 5720,
      "ĠØ¨Ø¯Ùħ": 5721,
      "ĠØ³Ø±Ú©Ûģ": 5722,
      "ĠØ³Ø±Øº": 5723,
      "ĠØ³Ø±ÙģØ±Ø§Ø²": 5724,
      "ĠØ¨ÛĮÙ¹Ú¾ÛĮ": 5725,
      "Ø³ØªØ±": 5726,
      "ĠØ¢Ø¯Ú¾ÛĮ": 5727,
      "ÙĪØ¯Ú¯ÛĮ": 5728,
      "ĠØŃÙĤØ¯Ø§Ø±": 5729,
      "ĠØ°Ø§Ø¦": 5730,
      "ĠØ¯ÙĦØ§ØªØ§": 5731,
      "ĠÙ¾Ø³ÙĦÛĮ": 5732,
      "ĠØ®ÙĪØ´Ø¨ÙĪØ¯": 5733,
      "ĠØŃÚ©ÙħØ±": 5734,
      "ĠÙħÙĨÚĪ": 5735,
      "ĠÙħÙĨÙĤØ·Ø¹": 5736,
      "Ø§Ø¦ÙĤ": 5737,
      "Ø§Ú¯Ø±Ù¾Ø§": 5738,
      "ĠÚĪØ§ÙĦÛĮØ§": 5739,
      "ĠØŃØ§ÙĦØªÙĪÚº": 5740,
      "ĠÙĪØ§Ø¯ÛĮ": 5741,
      "ĠØ´Ø±Ùģ": 5742,
      "ĠØ´Ø±ÙħØ§Ø¦ÛĴ": 5743,
      "ĠØ§ØªØ¨Ø§": 5744,
      "ĠØ±Ø§ÛģÙĪÚº": 5745,
      "ĠØªØ¹Ø§ÙĤ": 5746,
      "ĠØªØ¹Ø¯Ø§Ø¯": 5747,
      "ĠÚĪØ±Ø§ØªØ§": 5748,
      "ĠÚĪØ±Ø§ÙĨØ§": 5749,
      "ĠØ¨ÚĨØªÛĴ": 5750,
      "ĠØ¹ÙħÙĦØ§": 5751,
      "ĠØ¬ÙĦØ§ÙĨÛĴ": 5752,
      "ĠÙĤØ¯ÙħÛĮ": 5753,
      "ĠÙĤØ¯ÙĪØ³": 5754,
      "ĠØ¨ÙĨØ§ÙĨØ§": 5755,
      "ĠÙħØ§ÙĦÛĮ": 5756,
      "ĠÙħØ¬Ú¾Ú¾": 5757,
      "ĠÚ¯Ø±Ø¬": 5758,
      "ĠØ§Ø¹Ø§Ø¯Ûģ": 5759,
      "ĠÙħÙĦÛĮÚº": 5760,
      "Ø¨ÛģØª": 5761,
      "ĠÙ¾ÚĳÙĨØ§": 5762,
      "ĠÙ¾ÚĳÚ¯Ø¦ÛĮ": 5763,
      "ĠØ§Ù¹Ú¾Ú©Ø±": 5764,
      "ĠØ¨ÙĨØ¯ÛĮ": 5765,
      "ĠØ¨ÙĨØ¯Ø±": 5766,
      "ĠØ±ÛģÙĪÚ¯ÛĴ": 5767,
      "ĠÙ¾Ú¾ÙĨ": 5768,
      "ĠÙ¾Ú¾Ø§ÙĨ": 5769,
      "ĠÚ¯Ú¾Ø¨Ø±": 5770,
      "ĠÚ¯Ú¾ÚĳØ§": 5771,
      "ĠÚ¯Ú¾Ù¹Ø§": 5772,
      "ĠØ¨Ú¾ÙĦÛĮ": 5773,
      "ĠØ¨Ú¾ÙĦÛĴ": 5774,
      "ĠØ¨Ú¾Ú¯ÙĪ": 5775,
      "ĠØ¨Ú¾Ù¹Ú©Ø§": 5776,
      "ĠØ¨ÙĪØªÛĴ": 5777,
      "ĠØ¨ÙĪÚĳÚ¾Ø§": 5778,
      "ĠØ³Ø±Ø¯Ø§Ø±Ú©Ø§Ûģ": 5779,
      "ĠÙģÛĮØ¶": 5780,
      "ĠÛĮØ§Ø¯Ú¯Ø§Ø±ÛĮ": 5781,
      "ĠØ§ÚĨÚ©": 5782,
      "ĠØ¨ÙĦØ§ÙĪÛĴ": 5783,
      "ĠØ¯ÙĪØ²Ø®ÛĮÙĪÚº": 5784,
      "ĠÚ©ÙĪÙĨØ³ÛĮ": 5785,
      "ĠØªÚ¾Ø§ÙĦ": 5786,
      "ĠÙħÙĨØ§ÙģÙĤØª": 5787,
      "ÙĪØ´ÙĪÚº": 5788,
      "ĠØ³ÙĨØ§ÙĪ": 5789,
      "ĠØ¨Ú¾Ø±ØªÛĴ": 5790,
      "ĠÚĨÚ¾Ø§ØªÛĮ": 5791,
      "ĠÚ©ÙĨÙĪØ§Ø±": 5792,
      "ĠØ±ÙĪØ²ÙĪÚº": 5793,
      "ĠÙĨØ´Ø§ÙĨÙĪÚº": 5794,
      "ĠØªØ±ØªÛĮØ¨": 5795,
      "ĠÙĦÚ¯Ø§ÙĨØ§": 5796,
      "ĠØ¯Ú©Ú¾Ø§ÙĪ": 5797,
      "ĠÙ¹Ú¾ÛģØ±ØªÛĴ": 5798,
      "ĠÙ¾Ú©ÚĳÛĮÚº": 5799,
      "ĠØ§Ø¨Ø±Ø§ÛģØ§Ùħ": 5800,
      "ĠØ¨Ø§ÙĦØ§Ø¦ÛĮ": 5801,
      "ĠØ¨Ø§ÙĦØ¶Ø±ÙĪØ±": 5802,
      "ĠØªØ¹ÙĦÛĮÙħØ§Øª": 5803,
      "ĠÙĪØ³ÛĮØ¹": 5804,
      "ĠÙ¾ÛģÙĨÚĨØ§Ø¦ÛĮ": 5805,
      "ĠÚ©Ú¾ÙĪÙĦÛĮ": 5806,
      "ĠÙħØ·Ø§ÙĦ": 5807,
      "ĠØ±ØŃÙħÙĪÚº": 5808,
      "ĠØ«ÙĨØ§": 5809,
      "ĠØ³ÛĮÙĨØ§": 5810,
      "ĠÙĨÛĮÚĨÛĮ": 5811,
      "ĠÙĨÙĪØ¬ÙĪØ§ÙĨ": 5812,
      "ĠØ¨ÚĳÚ¾ÙĨØ§": 5813,
      "ĠØ¨ÚĳÚ¾Ø§ØªØ§": 5814,
      "ĠØ¨ÚĳÚ¾Ø§ØªÛĴ": 5815,
      "ĠØ¹Ø¯Ùħ": 5816,
      "ĠØ¹Ø¯ÙĪÙĦ": 5817,
      "ĠØ´ÛĮØ·Ø§ÙĨÛĮ": 5818,
      "ĠÙ¹Ú¾ÛģØ±Ø§Ø¤": 5819,
      "ĠÙ¾ÛĮØ±Ø§": 5820,
      "ĠØ´Ú©Ø±Ú¯Ø²Ø§Ø±": 5821,
      "ĠØ®ÛĮØ§ÙĦÙĪÚº": 5822,
      "ĠÙĨÙĤØ´": 5823,
      "ĠÙĨÙħØ§ÛĮØ§Úº": 5824,
      "ĠØ®Ø±ÚĨÛģ": 5825,
      "ĠØ®ÙĪÙĨÛĮ": 5826,
      "ĠØ¨ÙĪÙĦÙĨØ§": 5827,
      "ĠØ§ÙĨØªÙĤØ§ÙĦ": 5828,
      "ĠÙĤØ±ÛĮØ¨Ø§": 5829,
      "ĠÙħØ§Ø±ÛĮÚº": 5830,
      "ĠÙħÚ©Ø±ÙĪÛģ": 5831,
      "ĠÙĨÙĪØ±Ø§ÙĨÛĮ": 5832,
      "ĠÚ¯Ø²Ø§Ø±ÛĮ": 5833,
      "Ø¬ÛĮØ³ÛĴ": 5834,
      "ĠÙĨÙģÛĮØ³": 5835,
      "ĠÙħØ±ÛĮØ¯": 5836,
      "ĠØ¨Ø§ØºÛĮ": 5837,
      "ĠØ±Ú©Ú¾ÛĮØ¦ÛĴ": 5838,
      "ĠØªÚ©ÙĦÛĮÙģÛĮÚº": 5839,
      "ĠØ¬ØªØ§ØªÛĴ": 5840,
      "ĠØ¯Ú¾ÙĪØ§Úº": 5841,
      "Ø¨Ø§Ù¾": 5842,
      "ĠÚ¯Ø±Ø¯ÙĨÙĪÚº": 5843,
      "ĠÚ¯Ø±Ø¯Ø§ÙĨØªÛĴ": 5844,
      "ĠØ§ÙħÛĮØ±": 5845,
      "ĠÚ¯Ø²Ø±ÙĨÛĴ": 5846,
      "ĠÙ¾ÛģÚĨØ§ÙĨÛĮÚº": 5847,
      "ĠÙħØ³ØŃ": 5848,
      "Ø®ÙĪØ§Ûģ": 5849,
      "ĠØ±ÙĪÙ¹ÛĮÙĪÚº": 5850,
      "ĠÛģÙĪÙĨÙ¹ÙĪÚº": 5851,
      "ĠØ§Ú¯ÙĦÛĮ": 5852,
      "ĠÙħÚ©Ú¾ÛĮ": 5853,
      "ĠØ¨ÚĳÚ¾Ø§ÛĮØ§": 5854,
      "ĠØ¨ÚĳÚ¾Ø§Ø¦ÛĴ": 5855,
      "ĠØ¨ÚĳÚ¾Ø§Ù¾ÛĴ": 5856,
      "ĠÙĪØ§Ø±Ø«ÙĪÚº": 5857,
      "ĠÚ©Ø§Ø±ÙĪØ¨Ø§Ø±": 5858,
      "ĠÙħÛģÛĮÙĨÛģ": 5859,
      "ĠÙħÛģØ§Ø¬": 5860,
      "ĠÛĮÙĪÙĨØ³": 5861,
      "ĠÙħÙĪÙħÙĨÙĪ": 5862,
      "ĠÙħØµØ±ÛĮ": 5863,
      "ĠØ¨ØªØ§ÙĨÛĴ": 5864,
      "ĠÙĤØµØ§Øµ": 5865,
      "ĠØ¬ÙħØ§Ø¹ØªÙĪÚº": 5866,
      "ĠØªÙĪÚĳÛĮÚº": 5867,
      "ĠØªÙĪÚĳÙĨÛĴ": 5868,
      "ĠÚ¯Ø§ÛģÛĮÚº": 5869,
      "ĠØ¨ØŃØ±": 5870,
      "ĠØ¨ØŃØ§ÙĦ": 5871,
      "ĠØ¨ØŃØ±ÛĮ": 5872,
      "ĠÙħÙĤØ§Ø¨ÙĦÛĴ": 5873,
      "ĠØ¨Ú¾Ø§Ú¯ÙĨÛĴ": 5874,
      "ĠØ´Ø±ÙħØ§ØªØ§": 5875,
      "ĠØªÙĨÚ©ÛĴ": 5876,
      "ĠÚĨÚ¾Ù¾Ø§Ø¤": 5877,
      "ĠÙħÙĨØ¯ÛĮ": 5878,
      "ĠÙĨÚ¯ÛģØ§Ø¨": 5879,
      "ĠÛģØ§Ø±ÙĪ": 5880,
      "ĠØ³ÙħÛĮÙ¹": 5881,
      "ĠØºÛĮØ±ÙĤÙĪÙħÛĮÚº": 5882,
      "ĠÙ¾Ø±Ø³Ø´": 5883,
      "ĠØ§Ø²ÙĦÛĮ": 5884,
      "ĠØºÙĦØ§ÙħÙĪÚº": 5885,
      "ĠØ¯Ú¾Øª": 5886,
      "ĠØ¯Ú¾ÙħÚ©": 5887,
      "ĠÙħØ´Ú©ÛĮÚº": 5888,
      "ĠØ¯ÛĮÙĪØ§ÙĨÛĴ": 5889,
      "ĠÚĪÚ¾ÙĪÙĨÚĪØªØ§": 5890,
      "ĠØ§Ø´ÛĮØ§Ø¡": 5891,
      "ĠÙ¾ÛģÙĨÛĮÚº": 5892,
      "ĠÙħØ¹ÙħØ§Ø±ÙĪÚº": 5893,
      "ĠØŃØ±Ø§Ø±Øª": 5894,
      "ĠØªÙĤÙĪÛĮØª": 5895,
      "ĠØŃØ¬Øª": 5896,
      "ĠØµØ§ÙĦØŃÛģ": 5897,
      "ĠÚĨÚĳÚ¾Ø§ÛĮØ§": 5898,
      "ĠÚ¯Ú¾Ù¹ÙĨØ§": 5899,
      "ĠØ¯ÙĪÙĦØªÙħÙĨØ¯ÙĪÚº": 5900,
      "ĠØ§ØµÙĦØ§": 5901,
      "ĠØ§ÚĳØ§Ø¦ÛĮÚº": 5902,
      "ĠØ¨Ú©Ú¾Ø±": 5903,
      "ĠØ¨Ú©Ø«Ø±Øª": 5904,
      "ĠÛģÙĪØ´Ø¹ÙĨØ§": 5905,
      "ĠÚ©Ú¾ÙĦØ§ØªØ§": 5906,
      "ĠÙħØ³ØªØŃÚ©Ùħ": 5907,
      "ĠØ³ØªØ§Ø¦ÛĮÚº": 5908,
      "ĠØ³ØªØ§ÛĮØ´": 5909,
      "ĠØªØŃØ±": 5910,
      "ĠÙģÙĪØ¬ÛĮÚº": 5911,
      "ĠÙģÙĪØ¬Ø¯Ø§Ø±ÛĮ": 5912,
      "ĠØ¨Ø§Ø´ÙĨØ¯Ú¯Ø§ÙĨ": 5913,
      "ĠÙħØ¹Ø§ÙĪÙĨ": 5914,
      "ĠØ¨Ø±ØªÙĨÙĪÚº": 5915,
      "ĠÛģÙĪØ¬Ø§ÙĨØ§": 5916,
      "ĠÚĨÚ¾Ø§Ú¯ÛĮØ§": 5917,
      "ĠÙĤØ·Ø¹": 5918,
      "ĠØ®ÙĪØ§Ø¨ÙĪÚº": 5919,
      "ĠÚĨØ±Ø§ØºØ¯Ø§ÙĨ": 5920,
      "ĠØ³ÛģØªÛĴ": 5921,
      "ĠØ®Ø·Ø§Ø¤Úº": 5922,
      "ĠÚĨÙħÚ©ØªØ§": 5923,
      "ĠØ¨ÛĮÙĨØ§Ø¦ÛĮ": 5924,
      "ĠØ§Ø®ÙĦØ§": 5925,
      "ĠØ¯ÛĮÙĨØ¯Ø§Ø±": 5926,
      "ĠØ³Ø§ÙħØ±ÛĮÙĪÚº": 5927,
      "ĠØ§Ø±ØªÙħØ³": 5928,
      "ĠØ§Ø±ØªÙĤØ§Ø¡": 5929,
      "ĠØ³ÛĮØ§ÛģÛĮ": 5930,
      "Ø¯Ø±ØŃÙĤÛĮÙĤØª": 5931,
      "ĠÙ¾Ø´ØªÙĪÚº": 5932,
      "ĠØ§Ø¶Ø·Ø±": 5933,
      "ĠÛģÙĪÚĨÚ©ÛĴ": 5934,
      "ĠÙħØ¤ÙħÙĨÙĪÚº": 5935,
      "ĠÙ¾Ø§ÙĦÚ©": 5936,
      "ĠÙħÙĨØ²ÙĦØª": 5937,
      "ĠØ´Ø±Ø§Ø¨ÛĮ": 5938,
      "ĠÙĦØ¹ÙĨØªÛĮ": 5939,
      "ĠÙħØ³Ø§ÙģØ±ÙĪÚº": 5940,
      "ĠÙ¾Ø±Ø¯ÛĮØ³": 5941,
      "ĠÙ¾ÛĮÙĪØ³ØªÛģ": 5942,
      "ĠØ¨Ú¾Ø±ÙĪØ³ÛĴ": 5943,
      "ĠÚĨÚ¾ÚĳØ§ÛĮØ§": 5944,
      "ÙĪØµØ§": 5945,
      "ĠÚ©ÙģØ§Ø±Ûģ": 5946,
      "ĠØŃÛĮØ¶": 5947,
      "ĠØ¢Ù¾Ú©ÚĳÛĴ": 5948,
      "ĠØ³Ø§ÙĨÙ¾ÙĪÚº": 5949,
      "ĠØªØ±Ø§Ø²ÙĪ": 5950,
      "ĠÙĨØªÛĮØ¬": 5951,
      "ĠØ§Ø¨Ú¾Ø§Ø±Ø§": 5952,
      "ĠÙħÙĤØµÙĪØ¯": 5953,
      "ĠÚ©Ø±ÛĮÙĨÛĮ": 5954,
      "ĠØ¢ÙħÙĨÛĴ": 5955,
      "Ø¯ÛĮÙħØ³": 5956,
      "ĠÙ¹Ú¾ÙĨÚĪØ§": 5957,
      "ĠÙ¹Ú¾ÙĨÚĪÛĮ": 5958,
      "ĠÙĨØ§ÙħØ®ØªÙĪÙĨ": 5959,
      "ĠØ±ÛĮØ§Ú©Ø§Ø±ÙĪ": 5960,
      "ĠÚ¯Ø°Ø§Ø±ØªÛĴ": 5961,
      "ĠÚ¯Ú¾ÙĪÙħ": 5962,
      "ĠÙĤØ¨ÛĮÙĦÙĪÚº": 5963,
      "Ø³Ø±Ø¯Ø§Ø±": 5964,
      "ĠÙĦÙ¹Ú©Ø§ÛĮØ§": 5965,
      "ĠÙĤØ§Ø¶ÛĮ": 5966,
      "ĠÙĤØ§Ø¹Ø¯Ûģ": 5967,
      "ĠÙħÙĪÛĮØ´ÛĮÙĪÚº": 5968,
      "ĠÙĦØ°Øª": 5969,
      "ĠÚ¯Ø³ØªØ§Ø®": 5970,
      "ĠÚ¯Ø³ØªØ§Ø®ÛĮ": 5971,
      "ĠØ¯ÛĮÛģØ§ØªÛĮ": 5972,
      "ĠÙĦÙģØ¸ÛĮ": 5973,
      "ĠØ®ØµÙĪØµØ§": 5974,
      "ĠØŃÚ©ÛĮÙħÙĪÚº": 5975,
      "ĠØ²ÛĮÙĪØ±": 5976,
      "ĠØ¯ÛĮÙĪØ§ÙĨÚ¯ÛĮ": 5977,
      "ĠØªÙģØ±ÙĤÛģ": 5978,
      "ĠØªÙģØ±ÙĤÛĴ": 5979,
      "ĠÚ©Ø±ÚĨÚ©ÛĴ": 5980,
      "ĠÚ©Ø±ÚĨÚ©Ø§": 5981,
      "ĠÚĨÛĮØ®": 5982,
      "ĠØ§ÙĦØªØ¬Ø§": 5983,
      "ĠÙģØ±ÛĮÙĤ": 5984,
      "ØºÙĪØ§ÙĨÛĮ": 5985,
      "ĠØ¨ÙĨÛĮØ§ÙħÛĮÙĨ": 5986,
      "ĠØ§Ø´Ø±ÙģÛĮ": 5987,
      "ĠØ§Ø±Ø¯Ú¯Ø±Ø¯": 5988,
      "ĠØ¨Ú¯Úĳ": 5989,
      "ĠØ¢Ø±ÛģØ§": 5990,
      "ĠØ§ÙĦÛĮÙĤÛĮÙĨ": 5991,
      "ĠØ·ÙħØ§ÙĨÚĨÛģ": 5992,
      "ĠÙ¾ÛĮØ³ÙĨØ§": 5993,
      "ĠØ³Ø±Ú¯ÙĪØ´ÛĮØ§Úº": 5994,
      "ĠØªÚ¾Ø³ÙĦÙĨÛĮÚ©ÛĴ": 5995,
      "ĠÙħØ¸ÙĦÙĪÙħ": 5996,
      "ĠØ¨ÛĮÚ©Ø§Ø±": 5997,
      "ĠØªØ§ÙĨØ¨ÛĴ": 5998,
      "Ú¯ÙĨØ§Ûģ": 5999,
      "ĠØ¯Ú¾ÛĮØ§ÙĨ": 6000,
      "ĠÙĦØ±Ø²": 6001,
      "ĠØ®ÙĦÙĪØª": 6002,
      "ĠØ¨ÛĴÙĪÙĤÙĪÙģ": 6003,
      "ĠÚ¯Ú¾Ø³ÛĮÙ¹": 6004,
      "ĠØ´Ø§Ø¹Ø±": 6005,
      "ĠÙĦØ³ØªØ±Ûģ": 6006,
      "ĠØ¢ÙħÛĮØ²Ø´": 6007,
      "ĠÙĤØ§ÙģÙĦÛģ": 6008,
      "ĠØ§ØªÚ¾ÛĮÙĨÛĴ": 6009,
      "ĠÙ¾ÙĪØ´ÛĮØ¯Ú¯ÛĮ": 6010,
      "ĠØ§Ø³ØªÛģØ²Ø§Ø¡": 6011,
      "ĠØ§Ø³ØªØ¹Ø¯Ø§Ø¯": 6012,
      "ĠÙħÙħÙĦÙĪÚ©": 6013,
      "ĠÚ¯ÚĳÚ¯ÚĳØ§": 6014,
      "ĠØ³Ø·ØŃ": 6015,
      "ĠÙĨØ²ÙĪÙĦ": 6016,
      "ĠÙĨÙĤÙĪØ´": 6017,
      "ĠÙĨÙĨØ§ÙĨÙĪÛĴ": 6018,
      "ĠÙĪÙģØ§Ø¯": 6019,
      "ĠÙĪØºÛĮØ±Ûģ": 6020,
      "Ø¬ÙĨÛģÙĪÚº": 6021,
      "ĠØŃØ¯ÛĮØ¨ÛĮÛģ": 6022,
      "ĠØ²ÙĦØ²ÙĦÛģ": 6023,
      "ĠØ°Ø§Ø¦ÙĤÛģ": 6024,
      "ĠØ®ÙĪØ´Ø¨ÙĪØ¯Ø§Ø±": 6025,
      "ĠØ§ØªØ¨Ø§Ø¹": 6026,
      "ĠØªØ¹Ø§ÙĤØ¨": 6027,
      "ĠØ³Ø±Ø¯Ø§Ø±Ú©Ø§ÛģÙĨÙĪÚº": 6028,
      "ĠÙħÛģØ§Ø¬Ø±ÛĮÙĨ": 6029,
      "Úĺ": 6030,
      "ĠÛĴ": 6031,
      "ĠÚ¾ÛĴ": 6032,
      "ĠÙĪØ±Ø§": 6033,
      "Ø§ÛĮØ§": 6034,
      "Ø§Ø´": 6035,
      "Ø§ÙĪÙĨ": 6036,
      "Ø§Ø·": 6037,
      "ÛĮÙĦÙħ": 6038,
      "ÙĪØ¯Ûģ": 6039,
      "ÙĪØ¨ÛĮ": 6040,
      "ÙĪØ§Ø±ÙĪÚº": 6041,
      "ÙĪØ¨ÛĴ": 6042,
      "ÙĪØ·ÙĨ": 6043,
      "ÛģØ§Ø¦ÛĴ": 6044,
      "Ú©Ø²": 6045,
      "Ú©Ú¾ÛĴ": 6046,
      "Ú©Ú¾ÙĪ": 6047,
      "Ú©ÙģØ§Ø±": 6048,
      "Ú©Ø´Ø§": 6049,
      "ĠÚ©ÚĨ": 6050,
      "ĠÚ©ØªÛĴ": 6051,
      "ĠÚ©Ø¨Ø±": 6052,
      "ĠÚ©ÙĦÙĪ": 6053,
      "ĠÚ©ÙģØ§": 6054,
      "ĠÚ©Ø´ÛĮ": 6055,
      "ĠÚ©Ø¬Ø±": 6056,
      "ĠÚ©ÚĨÙĦ": 6057,
      "ĠÚ©Ù¹ÙĪØ§": 6058,
      "ĠØ§ÙģØ±": 6059,
      "ÙĨØ¹ÙħØª": 6060,
      "ÙĨÙĪÚ©Ø±": 6061,
      "ÙħØ²": 6062,
      "ÙħØ¬Ú¾": 6063,
      "ÙħÙģÛĮ": 6064,
      "ÙħÙĪØ³ÛĮ": 6065,
      "ĠÛģØ²": 6066,
      "ĠÛģÙĨÚ¯": 6067,
      "Ø³ÙħØª": 6068,
      "Ú¾Ø§Ø±": 6069,
      "ĠÙħÙĤØª": 6070,
      "ĠÙħÚ©Ø§Ø±": 6071,
      "ĠÙħØµÙĦ": 6072,
      "ĠÙħÚ©ÙĪ": 6073,
      "ĠØ¨ÙĪØ¯": 6074,
      "ĠØ¨Ú©ÙĪ": 6075,
      "ĠØ¨Ú©Øª": 6076,
      "ĠØ¨Ø³ØªÛģ": 6077,
      "ĠØ³Ø¯Ø§": 6078,
      "ÙĪØ±ÙĨÛģ": 6079,
      "ĠØªØ´Ú©": 6080,
      "ĠØªØ¨Ø±": 6081,
      "ĠØªØ³ÙħÛģ": 6082,
      "ĠÙĨÛĮØ²": 6083,
      "ĠÙĨÙĪØ´": 6084,
      "ĠÙĨÙħÙĪØ¯": 6085,
      "Ú¯Ø³": 6086,
      "Ú¯Ø§ÙĨÛĴ": 6087,
      "Ú¯ÛĮØ±ÛĮ": 6088,
      "Ø¯ÛĮÚº": 6089,
      "Ø¯Ø±ÛĮ": 6090,
      "ĠØ¬Ø²": 6091,
      "ĠØ¬ÙĨÛĮ": 6092,
      "ĠØ¬ÙħÛĴ": 6093,
      "Ø¨Ø´": 6094,
      "Ø¨Ú¾ÛĮ": 6095,
      "ĠÙ¾Ø´ÛĮ": 6096,
      "ĠÙ¾Ù¹Ú©": 6097,
      "ĠÙ¾Ù¹Ú©Ø§": 6098,
      "ĠÙ¾Ù¹ÙĪØ§": 6099,
      "ĠÙ¾ÙħÙģÛĮ": 6100,
      "Ø¦Ùħ": 6101,
      "ĠØ§ÙĪØ±Ø§ÙĦÙĦÛģ": 6102,
      "ĠÙĪÙ¾": 6103,
      "ĠÙĪØŃ": 6104,
      "ĠÙĪÙĦÛĮ": 6105,
      "ĠÙĪÙģØ§": 6106,
      "ĠÙĪÙĤÙģ": 6107,
      "ĠÙĪÙĤÙĪÙģ": 6108,
      "ĠÙĪØ²ÙĨ": 6109,
      "ĠÙĪØ²ÛĮØ±": 6110,
      "ĠØ¯Ø´": 6111,
      "ĠØ¯ÙĤ": 6112,
      "ĠØ¯Ø§Ûģ": 6113,
      "ĠØ¯Ø§ÙĨÛģ": 6114,
      "ĠØ¯Ø¨ÛĴ": 6115,
      "ĠØ§Ø³Ùħ": 6116,
      "Ø§ÙĨØ³Ø§ÙĨ": 6117,
      "ĠÙĦØ§ØªÛĮ": 6118,
      "ĠÚ©Ø±Ûģ": 6119,
      "ĠÚ©Ø±Ø§ØªØ§": 6120,
      "ĠÚ©Ø±Ú©ÛģØ§": 6121,
      "ĠÚ©ÛģÚ©Ø´Ø§": 6122,
      "ĠÚ¯Ø§ÙĦ": 6123,
      "ĠÚ¯ÚĨÚ¾": 6124,
      "ĠÚ¯Ø§Ø±ÙĪÚº": 6125,
      "ĠÚ¯Ú¾ÛĮØ±ÛĴ": 6126,
      "ĠØ§ÙĨÙĤ": 6127,
      "ĠØ§ÙĨÚ©Ø§Ø±ÛĮ": 6128,
      "ĠØ±ÛĮØª": 6129,
      "ĠØ±ÛĮØ²ÛĮ": 6130,
      "ĠÚ©ÙĪÙ¹": 6131,
      "Ù¾Ûģ": 6132,
      "Ù¾ÛĮØ§": 6133,
      "Ù¾Ø§Ø³": 6134,
      "ÚĨÚ©ÛĴ": 6135,
      "Ø¹Ø§ÙĦ": 6136,
      "Ø¹Ø²": 6137,
      "Ø¹ÙħØ§ÙĦ": 6138,
      "ĠÛģÙĪÙĪÚº": 6139,
      "ĠÛģÙĪÙĨÛĮ": 6140,
      "ĠØ¢ÙĦÙĪ": 6141,
      "ĠØ¢Ù¹ÛĴ": 6142,
      "ĠØ¢Ø«Ø§Ø±": 6143,
      "Ø§ÙĦÛĮÛģ": 6144,
      "ÙĤØ³Ùħ": 6145,
      "ÙģØ³": 6146,
      "ÙģØ¶ÙĦ": 6147,
      "Ø²Ú©Ø±": 6148,
      "Ø²Ø§Ø¯": 6149,
      "Ø²Ú¯ÛĮ": 6150,
      "Ø²ÙĪØ§ÙĦ": 6151,
      "ØŃÙĦ": 6152,
      "ĠØ¬ÙĪØ§ÙĨÙĪÚº": 6153,
      "ĠÛģÙħÛģ": 6154,
      "ĠÙ¾Ø±ÛĴ": 6155,
      "ĠÙ¾Ø±ØªÙĪ": 6156,
      "ĠÙ¾Ø±ÙĪØ±ÛĮ": 6157,
      "ĠÙ¾Ø±Ø¯ÛĴ": 6158,
      "ĠÙ¾Ø±ÙĪØ§Ûģ": 6159,
      "ĠØ¹ÛĮØ§Úº": 6160,
      "ĠØ¹Ø¬Ø²": 6161,
      "ÚĳÚ©ÛĮ": 6162,
      "ĠÚĨÛĮØª": 6163,
      "ĠÚĨÛĮÙĨ": 6164,
      "Ø§ÛģÙĦ": 6165,
      "Ø§ÛģÙ¹": 6166,
      "ĠÙģÙĨ": 6167,
      "ĠÙģØ§Ø³": 6168,
      "ĠÙģÛĮÙĨ": 6169,
      "Ø®ÛĮØ±": 6170,
      "Ø®Ø¶Ø±": 6171,
      "ĠØŃØµ": 6172,
      "ĠØŃØ±Ùģ": 6173,
      "ĠØŃØ§Ø¦ÙĦ": 6174,
      "Ø¯Ø§Ø¡": 6175,
      "ÙĪÙĨÛĮÛģ": 6176,
      "ÙĪÙĨÙ¹ÛĮ": 6177,
      "ĠÙĤÙĨØ§": 6178,
      "ĠÙĤØ§ÙĨØ§": 6179,
      "ĠÙĤØ³ÙħØª": 6180,
      "ÛĮØ±Ø§": 6181,
      "ĠØ´Ø§Ø¯": 6182,
      "ĠØ´ÙģÛĮÙĤ": 6183,
      "ĠØ´ÙĨØ§Ø³": 6184,
      "ĠØ§ÙĦÛģ": 6185,
      "ĠØ§ÙĦÛĮØ§Ø³": 6186,
      "ĠÙĦÙĪØ¯ÛĮÚ©": 6187,
      "ĠØ·Ø¨ÛĮØ¨": 6188,
      "ØµØ±Ùģ": 6189,
      "ĠÙģØ±ÙħØ§ÙĦ": 6190,
      "ĠÙģØ±Ø³ØªØ§": 6191,
      "ĠÙģØ±ÙĪØ´ÙĪÚº": 6192,
      "ĠØ¨ÛĮØ¬Ø§": 6193,
      "ĠØ¨ÛĮØ¹Øª": 6194,
      "ĠØ¨ÛĮØ¯Ø§Ø±": 6195,
      "ĠØ¨ÛĮÙĦÙĪÚº": 6196,
      "ĠØ¬Ø§ÚĳÛĴ": 6197,
      "ĠØ²ÙĪØ§ÙĦ": 6198,
      "ĠØ²Ø§Ø¦Ø¯": 6199,
      "Ø·Ø§ÙĨ": 6200,
      "ĠØ§ÛĮØ°Ø§": 6201,
      "ĠØ§ÛĮØ¬Ø§Ø¯": 6202,
      "Ø§ÙħÛĮ": 6203,
      "Ø§ÙħÛģ": 6204,
      "Ø§ÙħÙĨØ¯": 6205,
      "Ø³ÙĪØ®": 6206,
      "ÙĨØ¯ÙĪÙĤ": 6207,
      "Ø¶Øª": 6208,
      "ÙħØ§Ø¡": 6209,
      "ĠÚ¯Ø§Ø¦ÛĮÚº": 6210,
      "ĠØ®ÙĪÛĮØ´": 6211,
      "ĠØ§ÛĮÚ©Ûģ": 6212,
      "ĠØµÙģØ§": 6213,
      "ĠØµØ±Ø§Ùģ": 6214,
      "ĠØµØ±ÛĮØŃØ§": 6215,
      "ĠØµÙĨØ¯ÙĪÙĤ": 6216,
      "ĠØ¯ÙĪØ³ÙĪ": 6217,
      "ĠØ±ÙĪÙħ": 6218,
      "ĠØ¬Ø¨Ø±": 6219,
      "ĠØ¬Ø¨Ø±ÛĮÙĦ": 6220,
      "Ø¯ÛģÛĮ": 6221,
      "ĠÙ¾ÛĮÙĪÚº": 6222,
      "Ú©Ú¾Ø§ÙĨÛĴ": 6223,
      "ĠØ¨ÛģÙĨÙĪÚº": 6224,
      "ĠØ¨ÛģØ§Ø¯Ø±": 6225,
      "Ø±Ø§Ø¶": 6226,
      "ĠØ¨ÚĳÚ¾ÛĴ": 6227,
      "ĠØ¨ÚĳØ¨ÚĳØ§": 6228,
      "ĠÙģØ±ÙħØ§Úº": 6229,
      "ĠÙ¾Ú¾Ø±ØªÛĮ": 6230,
      "ĠØ¬ÙĨÚ©ÛĮ": 6231,
      "ĠØ¬ÙĨÚ¯ÛĮ": 6232,
      "ĠÙħØ¬Ø¨": 6233,
      "ĠÙħØ¬ÙĪØ³ÛĮ": 6234,
      "Ø¯ÛĮØ§ÙĨØª": 6235,
      "ĠØºÛĮ": 6236,
      "ĠØºØ§Ø±Øª": 6237,
      "ĠÛĮØ§Ø¨ÛĮ": 6238,
      "ĠÛĮØ§Ø¬ÙĪØ¬": 6239,
      "ÙģØ±ÙĤ": 6240,
      "ÙģØ±Ø´ØªÙĪÚº": 6241,
      "Ú©ÛĮÙĦ": 6242,
      "Ú©ÛĮÙĪÚº": 6243,
      "Ø°Ø§Øª": 6244,
      "ÙĤÛĮØª": 6245,
      "ĠÙ¾Ø§Ø´": 6246,
      "ĠÙ¾Ø§Ø¬Ø§": 6247,
      "ĠÙħØ¹Ø±": 6248,
      "ĠÙħØ¹Øª": 6249,
      "ĠÙħØ¹Ø±Ø§Ø¬": 6250,
      "ĠØªØ§ÙĪØ§ÙĨ": 6251,
      "ĠØªØ§Ø²Ú¯ÛĮ": 6252,
      "ĠØ¯Ø±ÙĪÛĮ": 6253,
      "ĠØ¯Ø±Ø¨Ø§ÙĨ": 6254,
      "ĠØ¯Ø±Ø¨ÛĴ": 6255,
      "Ø§Ø¯Ú¯ÛĮ": 6256,
      "ĠÚ©Ú¾Ø§ÙĦ": 6257,
      "ĠÚ©Ú¾ÙĨÚĨ": 6258,
      "ĠØ³ÙĪØ§Ø±ÛĮ": 6259,
      "ĠØ³ÙĪÚ¯ÛĮØ§": 6260,
      "ĠØ³ÙĪÚ¯ÙĨØ§": 6261,
      "ĠÙĦØ§Ø²ÙĪØ§ÙĦ": 6262,
      "ĠÙħØ±ØŃ": 6263,
      "ĠÙħØ±ÙĪØ§": 6264,
      "ĠÙħØ±ÙħØª": 6265,
      "ĠÙħØ±Ø¯Ø§Ø±": 6266,
      "ĠÙħØ±Ú¯Ø¦ÛĮ": 6267,
      "ĠØ¨Ø±Ø¬": 6268,
      "ĠØ¨Ø±ØªÙĦ": 6269,
      "ĠÙ¹Ù¾": 6270,
      "ĠÙ¹ÚĪ": 6271,
      "ĠÙ¹ÙĨÚĪ": 6272,
      "ĠÙ¹Ú¾ÛĮØ³": 6273,
      "ĠØ³ÙĨØªÛĮ": 6274,
      "ĠØ³ÙĨØ¬ÛĮØ¯": 6275,
      "ØºÙĦ": 6276,
      "ØºÙħØ¨Ø±": 6277,
      "ĠÙħÙĪØªÛĮÙĪÚº": 6278,
      "ĠÙħØŃÙĦ": 6279,
      "ĠÙħØŃØ³ÙĪØ¨": 6280,
      "ĠÙĨØ§Ú©Ø§Ùħ": 6281,
      "ĠÙĨØ§Ø®ÙĪØ´": 6282,
      "ĠÙĨØ§Ø§ÙħÛĮØ¯": 6283,
      "ĠØ¨Ø¯Ú¯": 6284,
      "ĠØ¨Ø¯ÙĦØ§": 6285,
      "ĠØ¨Ø¯Ú©Ø±": 6286,
      "ĠØ¨Ø¯Ø¹Øª": 6287,
      "ĠØ¨Ø¯Ø¯ÛĮØ§ÙĨØª": 6288,
      "ĠØ§Ù¹Ú¾ÛĮ": 6289,
      "ĠØ§Ù¹Ú¾ÙĪ": 6290,
      "ĠØ³Ø±ÙĪÚº": 6291,
      "ĠØ³Ø±ØŃØ¯": 6292,
      "ĠÙħÙĤØ¯Ø§Ø±": 6293,
      "ĠÙħÙĤØ¨ÙĪ": 6294,
      "ĠØ¨ÛĴØ´Ø±": 6295,
      "ĠØ¨ÙĨØ§Ú©Ø±": 6296,
      "ĠØ¨ÙĨØ§ÙĪÙĨÚ¯Ø§": 6297,
      "ĠØ¨ÛĮÙ¹ÛĮÙĪÚº": 6298,
      "ĠØŃÙĤØ§Ø±Øª": 6299,
      "ĠØŃÙĤØ§Ø¦ÙĤ": 6300,
      "ĠÙĨÚ©ÙħÛĴ": 6301,
      "ĠØ°Ø®": 6302,
      "ĠØ°Ø±Ûģ": 6303,
      "ĠÙħÙĨØŃ": 6304,
      "ĠÙħÙĨØ³ÙĪØ¨": 6305,
      "ĠÙħÙĨØ³ÙĪØ®": 6306,
      "ĠØ³Ú©ØªÛĮÚº": 6307,
      "ĠÙ¾ÛģÙĨÚĨØªÛĴ": 6308,
      "ĠÙ¾ÛģÙĨÚĨÙĨØ§": 6309,
      "Ø§Ø¦ÛĮØ§Úº": 6310,
      "ĠÚĪØ§ÙĦÛĮØ§Úº": 6311,
      "ĠÚĪØ§ÙĦÛĮÙĪÚº": 6312,
      "ĠÙ¹Ú¾Ù¹Ú¾ÛĴ": 6313,
      "ĠÙĨØ§ÙħØ±Ø§Ø¯": 6314,
      "ĠÚ¯Ú¾Ø±Ø§ÙĨØ§": 6315,
      "Ú©Ø§Ùģ": 6316,
      "Ú©Ø§Ø¦ÛĮ": 6317,
      "ĠØ¨Ø®ÙĪØ¨ÛĮ": 6318,
      "ĠÙĨØ´ÙĪ": 6319,
      "ĠØ¬Ú¾Ú©ÛĮ": 6320,
      "ĠØ¬Ú¾Ú©ÛĴ": 6321,
      "ĠÚĪØ±ÙĨØ§": 6322,
      "ĠØ¨ÚĨÙĨÛĴ": 6323,
      "ĠØ¨ÚĨØ§ØªØ§": 6324,
      "ĠØ¨ÚĨØ§ÙĦÛĮÚº": 6325,
      "ĠØ¨Ø®Ø´ÙĪÚº": 6326,
      "ĠÙĦÛĮÙĨ": 6327,
      "ĠÚ¯ÙĨØ§ÛģÚ¯Ø§Ø±": 6328,
      "ÙĦÙĪÚ¯ÙĪ": 6329,
      "Ø§ÙģØ³ÙĪØ³": 6330,
      "ĠÙ¾ÙĪÚĨÚ¾ÛĴ": 6331,
      "ĠÙĨÛĮÚ©ÛĮØ§Úº": 6332,
      "ĠÙħØ¯Ø¹": 6333,
      "ĠÙħØ¯ØªÙĪÚº": 6334,
      "ĠØ¨ÙĨØ¬Ø±": 6335,
      "ĠØŃØ§Ø¶Ø±ÛĮ": 6336,
      "ĠÙħØ§ÙĦÙĪÚº": 6337,
      "ĠÚ¯Ø±ÛĮÚº": 6338,
      "ĠÚ¯Ø±Ø§ÙħÛĮ": 6339,
      "ĠÙħÙĦØ¨Ø³": 6340,
      "ĠØ§Ù¹Ú¾Ø§ÙĪ": 6341,
      "ĠØ§Ù¹Ú¾Ø§Ø¦ÛĮ": 6342,
      "ĠØ§ÙĪÙĤØ§Øª": 6343,
      "ĠØ§ÙĪÚĳÚ¾ÛĴ": 6344,
      "ĠÙ¾ÚĳÙĨÛĴ": 6345,
      "ĠÙĦÚ¯Ø§Ø¦ÛĮ": 6346,
      "ĠÙĦÚ¯Ø§Ø¦ÛĮÚº": 6347,
      "ĠØ´Ú©ÙĨ": 6348,
      "ĠØ´Ú©ÙĨÛĮ": 6349,
      "ĠØ´Ú©Ø³Øª": 6350,
      "ĠØ§Ù¹Ú¾ÙĨØ§": 6351,
      "ĠØ§Ù¹Ú¾Ø§ÙĦÛĴ": 6352,
      "ĠØ¶Ø±ÙĪØ±ÛĮ": 6353,
      "Ú¯Ø§Ø±ÙĪÚº": 6354,
      "ĠØ¨ÙĨØ¯ÙĪØ¨": 6355,
      "ĠØ¨Ú¾ÛĮØ¬ÙĨØ§": 6356,
      "ĠØ¨Ú¾ÛĮØ¬Ø¯ÛĮØ§": 6357,
      "ĠØ¢Ú¯Ú¾ÛĮØ±Ø§": 6358,
      "ĠÙ¾Ú¾Ù¹Ø§": 6359,
      "ĠÙ¾Ú¾ÙĨØ¯ÛĴ": 6360,
      "ĠÚĨÚ¾ÙĪÚĳÙĨÛĴ": 6361,
      "ĠÙģØ¶ÙĪÙĦ": 6362,
      "ĠÚ¯Ú¾ÚĳÛĴ": 6363,
      "ĠÚ¯Ú¾ÙħÙĨÚĪ": 6364,
      "ĠÙĤÛĮØ§Ø³": 6365,
      "ĠÙĪØ¹ÛĮØ¯": 6366,
      "ĠØ®Ø§Ú©ÛĮ": 6367,
      "ĠÚ©Ø³Ø¨": 6368,
      "Ù¾Ø§Ø¦ÛĮ": 6369,
      "Ø±Ø§Ø¦ÛĮÛĴ": 6370,
      "ĠØ¨ÙĦØ§Ø¤": 6371,
      "ĠØªÚ¾Ú©": 6372,
      "ĠØªÚ¾Ø¢": 6373,
      "ÙĪØ´ÙĦÛĮÙħ": 6374,
      "ĠØ³ÙĨØ§Ø¦ÛĴ": 6375,
      "ĠØ³ÙħØ¬Ú¾Ø§ÙĨÛĴ": 6376,
      "ĠØ¹Ø²ØªÛĮ": 6377,
      "Ø¨Ø§Ø²ÛĮ": 6378,
      "ĠÚ©ÙĨØ¹": 6379,
      "ĠÚ©ÙĨØ¬": 6380,
      "ĠÚ©ÙĨÚ©Ø±": 6381,
      "ĠÙħÙĦØ§Ø²Ùħ": 6382,
      "ĠØªØ±Ú©Ø§Ø±ÛĮ": 6383,
      "ĠÙĦÚ¯ÙĨÛĴ": 6384,
      "ĠÙĦÚ¯ÙĪØ§": 6385,
      "ĠÙ¹Ú¾ÛģØ±ÙĪÚº": 6386,
      "ĠÙ¹Ú¾ÛģØ±ÙĨÛĴ": 6387,
      "ĠÙ¹Ú¾ÛģØ±ÙĨØ§": 6388,
      "Ø´ÛĮØ·Ø§ÙĨ": 6389,
      "ĠØ§Ú©Úĳ": 6390,
      "ĠÙħØªÙģØ±ÙĤ": 6391,
      "ĠØ¨Ø§ÙĦÛĮÚº": 6392,
      "ĠÚ©Ú¾ÙĪØ¦ÛĮ": 6393,
      "ĠÚ©Ú¾ÙĪØ¯ÛĮ": 6394,
      "ĠÚ©Ú¾ÙĪÙ¾ÚĳÛĮ": 6395,
      "ĠÙħØ·ÛģØ±": 6396,
      "ĠÚ©Ø´Ø§Ø¦Ø´": 6397,
      "ĠÚ©Ø´Ø§Ø¯Ú¯ÛĮ": 6398,
      "ĠØ³ÛĮÙĨÛĴ": 6399,
      "ĠÙĨÛĮØªÛĮ": 6400,
      "ĠÙĨÛĮÚĨØ§": 6401,
      "ĠÙĨÙĪØ´ØªÙĪÚº": 6402,
      "ĠÙĨÙĪØ§ÙĦÛģ": 6403,
      "ÙģÛĮÙģ": 6404,
      "ĠÙħØ®Ø§Ø·": 6405,
      "ĠÛĮØ±ÙĪØ´ÛĮÙĦÙħ": 6406,
      "ĠØ¨Ø³ÙĨÛĴ": 6407,
      "ĠÙħÙĪØ§ÙģÙĤØª": 6408,
      "ĠØ¹Ø¯ÙĨ": 6409,
      "ĠÙĪØ§ÙĤØ¹Ø§Øª": 6410,
      "ĠØªÚ¾ÙĪÚ©": 6411,
      "ĠÙĦÚĳÚ©": 6412,
      "ĠÙĦÚĳØ§Ø¦ÛĮØ§Úº": 6413,
      "ĠÙĨØ§ÙģØ±ÙħØ§ÙĨÛĮÙĪÚº": 6414,
      "ĠØ³Ø§ØªÙĪÛĮÚº": 6415,
      "ĠÙ¾ÙĦÚĳÛĴ": 6416,
      "ĠÙ¾ÙĦØ§ØªÛĮ": 6417,
      "ĠÙĨÙĤØ¨": 6418,
      "ĠØ§ÙģÙĪØ§Ûģ": 6419,
      "ĠØ®ÙĪÙĨØ±ÛĮ": 6420,
      "ĠÙģØ§Ø¦Ø²": 6421,
      "ĠØ¨ÙĪÙĦÙĪÚº": 6422,
      "ÛģÙħØ§Ø±ÛĮ": 6423,
      "ĠÙ¾ÛĮØ§Ø³": 6424,
      "ĠÙ¾ÛĮØ§Ø±ÛĮ": 6425,
      "ĠÙ¾ÛĮØ§Ø¯ÛĴ": 6426,
      "ĠÙħØ§Ø±ÙĨØ§": 6427,
      "ĠØ¨Ø±Ø§Ø¯Ø±Ø§ÙĨÛģ": 6428,
      "ĠØªØ³ÙĦÛĮÙħ": 6429,
      "ĠÚ¯ÙĪØ§ÛģÛĮØ§Úº": 6430,
      "ĠÚ©ÙĦÛĮØ³ÛĮØ§Ø¦ÛĮÚº": 6431,
      "ĠÚ¯Ø²Ø´ØªÛģ": 6432,
      "ĠØ´Ø§ÙħØª": 6433,
      "ĠÙ¾Ú©Ø§Ø±ÛĮÚº": 6434,
      "ĠÙħØ±ÛĮÚ¯Ø§": 6435,
      "ĠÙĨÙħØ§Ø²ÙĪÚº": 6436,
      "ĠÙ¾ØªÚ¾Ø±ÛĮ": 6437,
      "ĠØ¢Ø¦ÛĮÙĨÛģ": 6438,
      "ĠÙ¾ÚĳÚ¾ÛĮÚº": 6439,
      "ĠÙ¾ÚĳÚ¾ØªØ§": 6440,
      "ĠÙ¾ÚĳÚ¾ÙĨØ§": 6441,
      "ĠØŃØ¯ÛĮÚº": 6442,
      "ĠØŃØ±Ø§ÙħÚ©Ø§Ø±ÙĪÚº": 6443,
      "Ø§ØŃØ¨": 6444,
      "ĠØ¬ØªØ§ØªØ§": 6445,
      "ĠØ¬ØªÙĨÙĪÚº": 6446,
      "ĠØ¯Ú¾ÙĪÙĨÛĴ": 6447,
      "ĠØ¯Ú¾ÙĪÚ©ÛĴ": 6448,
      "ĠÙħØ«ÙĦØ§": 6449,
      "ĠØªÛĮÙĨÙĪÚº": 6450,
      "ĠÚ©Ø±Ø³Ú©ÛĮÚº": 6451,
      "ĠØ¨Ø±Ø³Ø§ÙĨÛĴ": 6452,
      "ĠÙ¾ÙĦÙ¹ÙĨÛĴ": 6453,
      "ĠØ¨ÛĮÙ¹Ú¾Ú¾": 6454,
      "ĠØ¨ÛĮÙ¹Ú¾Ú©Ø±": 6455,
      "ĠÙĨØ¸Ø±ÙĪÚº": 6456,
      "ĠØ¬Ø¯Ø§Ú¯Ø§ÙĨÛģ": 6457,
      "ĠØ´Ø§Ø¡": 6458,
      "ĠØ§ÙħØ¯Ø§Ø¯": 6459,
      "ĠÙĦÚ©Ú¾ÙĪÚº": 6460,
      "ĠØ¬ÙĨÚ¯ÙĦÙĪÚº": 6461,
      "ĠÚ©Ú¾ÙĪÙĦÙĨÛĴ": 6462,
      "ĠÙħØ®ØªØ§Ø±ÛĮ": 6463,
      "ĠÚ¯Ø²Ø±Ø§ÙĨ": 6464,
      "ĠÚ¯Ø²Ø±ØªØ§": 6465,
      "ĠÚ©Ø§ÙĨÙ¹ÙĪÚº": 6466,
      "ĠØŃÙĤÛĮÙĤØªÙĪÚº": 6467,
      "ĠØªØ§Ø¨Ø¹Ø¯Ø§Ø±ÛĮ": 6468,
      "ĠØ§ÙĨÚ¯ÙĦÛĮØ§Úº": 6469,
      "ĠÚ©ÙĪØ´Ø§Úº": 6470,
      "ĠÙĦÙĪÙ¹ÙĨÛĴ": 6471,
      "ĠÙĦÙĪÙ¹Ø§ÛĮØ§": 6472,
      "ĠÙħÙĪØ¬ÙĪØ¯Ø§Øª": 6473,
      "ĠØ¨Ø¯ÙĦÙĨØ§": 6474,
      "ĠÙ¾ÙĪÚĨÚ¾Ø¦ÛĴ": 6475,
      "ĠÙħÙĤØ§ÙħØ§Øª": 6476,
      "ĠØ³ÙħØ¬Ú¾ÛĮ": 6477,
      "ĠØ§Ø±Ø³ØªØ±": 6478,
      "ĠØ§Ø±ØºÙĪØ§ÙĨÛĮ": 6479,
      "ĠØ¹Ø±Ø¨": 6480,
      "ĠØ§Ø·Ø§ÙĦÛĮÛģ": 6481,
      "ĠØ³ÙĪØ±ÙĪÚº": 6482,
      "ĠØ¨ÛĮÚĨÙĨÛĴ": 6483,
      "ĠØ¨ÚĳÚ¾Ø§Ù¾Ø§": 6484,
      "ĠØªØ®Ú©Ø³": 6485,
      "ĠØªØ®ØªÛĮÙĪÚº": 6486,
      "ĠÚ©Ù¾ÚĳÙĪÚº": 6487,
      "ĠØ´Ø¹ÙĦÛĴ": 6488,
      "ĠØ¨Ø§ÙĨØ¯Ú¾ØªØ§": 6489,
      "ĠØ§ØªØ§Ø±ÙĨÛĴ": 6490,
      "ĠØ¯Ø³ØªØ±": 6491,
      "ĠÚĨØ§ÙĦÛĮÚº": 6492,
      "ĠÙħÛĮÙ¹Ú¾Ø§": 6493,
      "ĠÙħÛĮØ®ÙĪÚº": 6494,
      "ĠØªÛĮØ³Ø±Ø§": 6495,
      "ĠØ¢Ø±ÛģÛĮ": 6496,
      "ĠÚ©Ø§Ù¹ØªÛĴ": 6497,
      "ĠÚ©Ø§Ù¹ØªØ§": 6498,
      "ĠÙħØ§Ø¯ÛĮ": 6499,
      "ĠÙħØ§Ø¤Úº": 6500,
      "ĠÙħØ§Ø¬ÙĪØ¬": 6501,
      "ĠÙ¾ÙĨØ·Ø³": 6502,
      "Ù¾ÛĮØºÙħØ¨Ø±": 6503,
      "ĠØ¹Ø§ÙĦÙħÙĪÚº": 6504,
      "ĠÚĨØ§Ø±Ù¾Ø§Ø¦ÛĮ": 6505,
      "ĠÙĨÙĪØ§Ø²ÛĴ": 6506,
      "ĠÙĨÙĪØ§Ø²ÙĨÛĴ": 6507,
      "ĠÚĨØ±Ø¨ÛĮ": 6508,
      "ĠØµØ§ØŃØ¨ÙĪ": 6509,
      "ĠØ¬ÛģÙĨÙħÛĮ": 6510,
      "ĠÚ©ÛģÙĦØ§ÙĨÛĴ": 6511,
      "ĠÙħØ¹Ø¬Ø²Ø§Øª": 6512,
      "ĠÛģÙĪØ¬Ø§ÙĪ": 6513,
      "ĠÙ¹Ú©ÚĳØ§": 6514,
      "ĠÚ¯Ø±Ø§ÛĮØ§": 6515,
      "ĠØ³ÙĦØ³": 6516,
      "ĠÚĨÚ¾Ù¾Ø§ÛĮØ§": 6517,
      "ĠÚĨÚ¾Ù¾Ø§Ø¦ÛĮÚº": 6518,
      "ĠØ¬Ú¾ÙĪÙ¹ÙĪÚº": 6519,
      "ĠØ§Ø³ØªØŃ": 6520,
      "ĠØ´ÛģØ¯": 6521,
      "ĠØ´ÛģØ§Ø¯Øª": 6522,
      "ĠØªØ¯Ø¨ÛĮØ±ÛĮÚº": 6523,
      "ĠÙĦÚ©ÚĳÛĮ": 6524,
      "ĠÙħØŃØªØ§Ø¬ÛĮ": 6525,
      "ĠÙ¾ÚĨÚ¾Ùħ": 6526,
      "ĠÙ¾ÚĨÚ¾Øª": 6527,
      "ĠÙ¾ÚĨÚ¾ØªØ§": 6528,
      "ĠØ¯ÙĦØ§ÙĪ": 6529,
      "ĠØ§ÙĨØ¯Ø§Ø²ÛĮ": 6530,
      "ĠØ±ÛĮØ§Ú©Ø§Ø±ÙĪÚº": 6531,
      "ĠØ±ÛĮØ§Ø¶Øª": 6532,
      "ĠØ®Ø²Ø§ÙĨÙĪÚº": 6533,
      "ĠØ¨ÛĮØ§ÛģÛĮ": 6534,
      "ĠØ¯ÛĮÙĪØªØ§": 6535,
      "ĠÙ¾ÛģÙĨÙĪ": 6536,
      "ĠÙħØ¹ÙħØ§Ø±": 6537,
      "ĠØªØµÙĪØ±": 6538,
      "ĠØ®Ø·ÙĪÚº": 6539,
      "ĠØŃØ±Ø¬": 6540,
      "ĠÙĤØ±Ø¨Ø§ÙĨÚ¯Ø§Ûģ": 6541,
      "ĠØ®ÛĮØ¨Ø±": 6542,
      "ĠØ¬ÙĦØ§Ú©Ø±": 6543,
      "ĠØ¬ÙĦØ§ÙĪØ·ÙĨ": 6544,
      "ĠØºØ±Ø¨Ø§": 6545,
      "ĠÙħÙģØµÙĦ": 6546,
      "ĠÚ¯Ú¾Ù¹ÙĨÙĪÚº": 6547,
      "ĠÚ©Ú¾ÛĮØªÛĮØ§Úº": 6548,
      "ĠØ¢Ø²ÙħØ§ÛĮØ´ÙĪÚº": 6549,
      "ĠØ¯Ø³ØªØ§ÙĪ": 6550,
      "ØªÙħÛģØ§Ø±ÛĮ": 6551,
      "ĠØ¨Ú©ÙĨÛĴ": 6552,
      "ĠØ¨Ú©Ú¾ÛĮØ±": 6553,
      "ĠÚ¯Ø±ÛĮÚ¯Ø§": 6554,
      "ĠÚ¯Ø±ÛĮØ¨Ø§ÙĨ": 6555,
      "ĠØ¹Ø§Ø¯Øª": 6556,
      "ĠØ¹Ø§Ø¯ÙĦ": 6557,
      "ĠÚĨÚ©Ú¾Ø§ØªÛĴ": 6558,
      "ĠØ§Ø¹ØªÙĤØ§Ø¯ÛĮ": 6559,
      "ĠÛģÙĦÚ©ÛĮ": 6560,
      "ĠÛģÙĦÚ©ÛĴ": 6561,
      "ĠÙħÙĤØ¯Ùħ": 6562,
      "ĠØ§Ø¹Ø¶Ø§Ø¡": 6563,
      "ĠÚ¯Ú¾Ø¨Ø±Ø§Ø¦ÛĴ": 6564,
      "ĠØ¨Ø´Ø±ÛĮ": 6565,
      "ĠÙħØ®Ø§ÙĦÙģÙĪÚº": 6566,
      "ĠØ³ØªØ§Ø¦Ø´": 6567,
      "ĠØªØŃÙģÛģ": 6568,
      "Ø¬ØªÙĨÛĴ": 6569,
      "ĠØ¨Ø§Ø´ÙĨØ¯Ûģ": 6570,
      "ĠØ¨Ø§ÙĦØ§Ø®Ø§ÙĨÛģ": 6571,
      "Ø¯ÛĮÚ©Ú¾": 6572,
      "ĠÚ©Ø±Ø³ÛĮØ§Úº": 6573,
      "ĠÚ©Ø±Ø³Ú©ÙĪ": 6574,
      "ĠÚ©ÛģÙĦØ§ÙĪ": 6575,
      "ĠÚ¯Ø°Ø§Ø±ÛĮ": 6576,
      "ĠÛģÙĪØ¬Ø§ØªÛĴ": 6577,
      "ĠÚĨØ±Ø§ØºÙĪÚº": 6578,
      "ĠØ§Ø¹ØªÙĤØ§Ø¯ÙĪ": 6579,
      "ĠØ§ÚĳØ§ÙĨÛĴ": 6580,
      "ĠØ³ÛģØ§Ø±Ø§": 6581,
      "ĠØ®Ø·Ø§Ú©Ø§Ø±": 6582,
      "ĠØ§Ø®ÛĮØ±": 6583,
      "ĠØ®Ø±ÛĮØ¯ÛĴ": 6584,
      "ĠØŃÙĦÙĤÛģ": 6585,
      "ĠØ·Ø¨ÙĤ": 6586,
      "ĠÙģØ±ÙĤÛĴ": 6587,
      "ĠÙ¾Ú©ÚĳÙĪØ§Ø¦ÛĮÚº": 6588,
      "ĠÚ©Ø±Ø¯ÛĮØ¦ÛĴ": 6589,
      "ĠÙģØ±ÙħØ§ÙĨØ¨Ø±Ø¯Ø§Ø±ÙĪÚº": 6590,
      "ĠØ³ÙĦÙĪØ§ÙĨØ³": 6591,
      "ĠÙ¾Ø´ØªÛĮÚº": 6592,
      "ĠÛĮÚ©Ø¯ÙĦ": 6593,
      "ĠÙħÙĨØµÙĪØ¨ÛĴ": 6594,
      "ĠØªØ±Ø³Ø³": 6595,
      "ĠØµÛĮÙĪÙĨ": 6596,
      "ĠØ§Ú©ÛĮÙĦÛĴ": 6597,
      "ĠØ³ÛĮÚ©Ú¾Ø§": 6598,
      "ĠØ³ÛĮÚ©Ú¾ÙĪ": 6599,
      "ĠÙĤÙĦØ¹": 6600,
      "ĠÚ¯Ú¾ÚĳØª": 6601,
      "ĠÛģØ§Ø¯ÛĮ": 6602,
      "ĠØµØŃÙĨ": 6603,
      "ĠÙħÙĨØ²ÙĦÛĮÚº": 6604,
      "ĠØ¨Ú¯Ø§ÚĳØ§": 6605,
      "ĠØªÚ©Ø±ÛĮÙħ": 6606,
      "ĠØ±Ø§Ø²ÙĪÚº": 6607,
      "ÙĦÛĮØªØ³": 6608,
      "ĠØ¬Ø§Ú¯ØªØ§": 6609,
      "ĠÙĨØ§Ø±Ø§Ø³Øª": 6610,
      "ĠÚ¯Ø°Ø±Ø§ÙĨÛĮ": 6611,
      "ĠØ¢Ø¨Ø§Ø¯ÛĮ": 6612,
      "ĠÙħØ±ØºÙĪØ¨": 6613,
      "ĠØ§ÙģØ³Ø§ÙĨÛĴ": 6614,
      "ĠÚ¯Ø±Ø¯ÙĨÙĪØ§ØŃ": 6615,
      "ĠÚ©Ú¾Ø¬ÙĪØ±ÛĮÚº": 6616,
      "ĠÙĨØªÛĮØ¬ÛĴ": 6617,
      "ĠØ¬Ú¾Ø§ÚĳÛĮ": 6618,
      "ĠÙ¾ÙĦØ§Ø¦ÛĴ": 6619,
      "ĠÚ©Ø±Ø§ÛĮØ§": 6620,
      "ĠÙ¾Ø±ÛĮØ´Ø§ÙĨÛĮ": 6621,
      "ĠØ¬ØªØ§Ø¦ÛĴ": 6622,
      "ĠØ¢ÙħÙĪØ¬ÙĪØ¯": 6623,
      "ĠØ¢ÙħØ¯ÛĮØ¯": 6624,
      "ĠØ®Ø·Ø±Ûģ": 6625,
      "ĠØ¶ÛĮØ§ÙģØªÙĪÚº": 6626,
      "ĠØµØŃÛĮÙģÛģ": 6627,
      "ĠØ¨Ú©Ø±ÙĪÚº": 6628,
      "ĠØ¬Ø§ÛģÙĦÛĮØª": 6629,
      "ĠÙĪØµØ§ÙĦ": 6630,
      "ĠÙĦÙĨÚ¯ÚĳØ§": 6631,
      "ĠÙĦÚĳØ§Ø¦ÛĮÙĪÚº": 6632,
      "ĠØ¹ØµÙħØª": 6633,
      "ĠÙģØ§ÙĤÛģ": 6634,
      "ĠØµØ¯ÙĪÙĤÛĮ": 6635,
      "ĠØ¨Ø±Ø§Ø¨Ø±ÛĮ": 6636,
      "ĠÙ¹Ú¾ÙĨÚĪÚ©": 6637,
      "ĠØ§Ø¹ÙĦØ§ÙĨ": 6638,
      "ĠØ§Ø¹ÙĦØ§ÙĨÛĮÛģ": 6639,
      "ĠØ§Ú©Ø±Ø§Ùħ": 6640,
      "ĠÚ¯ÛģØ±Ø§Ø¦ÛĮ": 6641,
      "ĠÚ¯Ú¾ÙĪÚĳÙĪÚº": 6642,
      "ĠØªÙħØ§Ø´ÛĴ": 6643,
      "ĠØŃÙħØ§ÛĮØª": 6644,
      "ĠØ¨ÛĮÙĪØ§Ø¦ÛĮÚº": 6645,
      "ĠØ±ÙĪÙħÛĮÙĪÚº": 6646,
      "ĠØ§ÙĨØªÛģØ§Ø¡": 6647,
      "ĠØ§Ú¯Ø§Ø¦ÛĴ": 6648,
      "ĠÛģÙĨØ³ÙĨÛĴ": 6649,
      "ĠÛģÙĨØ³ØªÛĴ": 6650,
      "ĠÙħØ®ÙĦØµ": 6651,
      "ĠØ¹ÙĨØ§Ø¯": 6652,
      "ĠÚĨÙħÚ©ÛĴ": 6653,
      "ĠÚĨÙħÚ©Ø§": 6654,
      "ĠØºÙĦØ·ÛĮ": 6655,
      "ĠÚ¯Ø±ÛĮØ²Ø§Úº": 6656,
      "ĠØ¨Ù¹Ú¾Ø§ÛĮØ§": 6657,
      "ĠÙĨÙĨÚ¯ÛĴ": 6658,
      "ĠÙĦØ°ØªÙĪÚº": 6659,
      "ĠØ¹ÙĦÙħØ§Ø¡": 6660,
      "ĠØ²Ø±Ø¯": 6661,
      "ĠØ±Ø§ØŃØªÙĪÚº": 6662,
      "ĠÙħÚĨØ§ØªÛĴ": 6663,
      "ĠØ³ÙĪÙĨÙ¾Ø§": 6664,
      "ĠØªÙĦØ®": 6665,
      "ĠÙĪØ³ÙĪØ³ÙĪÚº": 6666,
      "ĠØ±Ø¹Ø¨": 6667,
      "ĠÙħÛģÛĮÙĨÙĪÚº": 6668,
      "ĠØ³ÛĮÚ©Ú¾ÛĮÚº": 6669,
      "ĠØªÙĤØ±Ø¨": 6670,
      "ĠÙĪØ³Ø§Ø·Øª": 6671,
      "ĠÚĨÛĮÙĪÙĨÙ¹ÛĮ": 6672,
      "ĠØ§ÙĦØªÙģØ§Øª": 6673,
      "ĠØ¨ÙĨÛĮØ§Ø¯ÛĮ": 6674,
      "ĠØ§Ø´Ø±ÙģÛĮØ§Úº": 6675,
      "ØªÚ¾ÙĪÚĳÛĴ": 6676,
      "ØªÚ¾ÙĪÚĳÛĮ": 6677,
      "ĠØ¨Ø²Ø¹Ùħ": 6678,
      "ĠÙĦØ§Ø³Ú©ØªØ§": 6679,
      "ĠØ¢Ú©Ú¾ÚĳÛĴ": 6680,
      "ĠØŃÙĪØ§Ø±ÛĮÙĪÚº": 6681,
      "ĠØ´ÛĮØ±ÛĮÚº": 6682,
      "ĠÙģØ±Ø§Ø®ÛĮ": 6683,
      "ĠØ²Ø®Ùħ": 6684,
      "ĠÙĦØ§ÚĨØ§Ø±": 6685,
      "ĠÙĦØ§ÚĨØ§Ø±ÛĮ": 6686,
      "ĠØ¬Ø§Ø³ÙĪØ³": 6687,
      "ĠÙ¾Ú¯Ú¾ÙĦ": 6688,
      "ĠÙĪÚĪÛĮØ±ÛĴ": 6689,
      "ĠÙĪÚĪÛĮØ±ÙĪÚº": 6690,
      "ĠØ§Ø³Ú©ÙĨØ¯": 6691,
      "ĠØ±ÙĪÙĨÙĤ": 6692,
      "ĠØ²ÛĮØ¨Ø§": 6693,
      "ĠÙħØ´Ø§Ø¨ÛģØª": 6694,
      "ĠØ¢Ø²ÙħØ§ØªØ§": 6695,
      "ĠØ¢Ø²ÙħØ§ØªÛĴ": 6696,
      "ĠØ§Ú©ÙĦÙĪØªØ§": 6697,
      "ĠÙĨÙħÚ©ÛĮÙĨ": 6698,
      "ĠØ±ÛĮØ´Ùħ": 6699,
      "ĠÙģØ§Ø±Ø³": 6700,
      "ĠÙĤØ§ØªÙĦ": 6701,
      "ĠÙĨØ§Ú¯ÙĪØ§Ø±": 6702,
      "Ú©Ø§ÙģØ±ÙĪÚº": 6703,
      "ĠØªØ±ÙĪØ¢Ø³": 6704,
      "ĠØ§ÙģØªØ±Ø§": 6705,
      "ĠØ³Ú©ÛĮÚ¯Ø§": 6706,
      "ĠÙĦØºØ²Ø´": 6707,
      "ĠØ±Ø³ÙħÙĪÚº": 6708,
      "ĠØ®Ø´ÛĮØª": 6709,
      "ĠØŃØ§ÙħÙĦ": 6710,
      "ĠØµØ¯Ø§ÙĤØª": 6711,
      "ĠØ³ÙĨØ¨Ú¾Ø§ÙĦ": 6712,
      "ĠØ§ÙĨØ¯ÛĮÚ©Ú¾ÛĮ": 6713,
      "ĠØ³Ø±Ú©ÙĨÚĪÛĴ": 6714,
      "ĠÙħØ¨Ø§Ø¯Ø§": 6715,
      "ĠØ¨ÙħØ´Ú©ÙĦ": 6716,
      "ĠØ¨Ø¯Ø§Ø¹ÙħØ§ÙĦ": 6717,
      "ĠØ³ÛĮØ§Ø±ÙĪÚº": 6718,
      "ĠØ±Ø¶Ø§ÙħÙĨØ¯": 6719,
      "ĠÛĮÙĪØ³ÛĮØ³": 6720,
      "ĠÚĨÙĪØªÚ¾Ø§Ø¦ÛĮ": 6721,
      "ĠØªØ§Ø¦ÛĮØ¯": 6722,
      "ĠØ¯Ø±Ø¨Ø§Ø±ÛĮ": 6723,
      "ĠÙ¾Ú¾ÙĨØ³ÛĴ": 6724,
      "ĠÙ¾Ú¾Ø§ÙĨØ³ÛĮ": 6725,
      "ĠÚ©ÙĨÙĪØ§Ø±ÛĮØ§Úº": 6726,
      "ĠÙħØ·Ø§ÙĦØ¨Ûģ": 6727,
      "ĠÙĨÚ¯ÛģØ§Ø¨Ø§ÙĨÛĮ": 6728,
      "ĠØ§Ø®ÙĦØ§Øµ": 6729,
      "ĠØ§Ø¶Ø·Ø±Ø§Ø¨": 6730,
      "ĠÚ¯Ú¾ÙĪÙħØªÛĴ": 6731,
      "ĠÙĪØ±Ø§Ø«Øª": 6732,
      "ĠÚ©ÙģØ§ÛĮØª": 6733,
      "ĠÚ©Ø¬Ø±ÙĪ": 6734,
      "ÙħØ²ÛĮØ¯": 6735,
      "ĠÙħØµÙĦØŃØª": 6736,
      "ĠØªØ´Ú©ÛĮÙĦ": 6737,
      "ĠÙ¾ÙħÙģÛĮÙĦÛĮÛģ": 6738,
      "ĠÚ©ÛģÚ©Ø´Ø§Ø¤Úº": 6739,
      "ĠØ¢ÙĦÙĪØ¯Ûģ": 6740,
      "Ø®Ø¶Ø±Ø¹ÙĦÛĮÛģ": 6741,
      "ĠØŃØµÙĪÚº": 6742,
      "ĠÙĤØ§ÙĨØ§ÛĮ": 6743,
      "ĠÙĦÙĪØ¯ÛĮÚ©ÛĮÛģ": 6744,
      "ĠÙģØ±Ø³ØªØ§Ø¯Ûģ": 6745,
      "ĠØµØ±Ø§ÙģÙĪÚº": 6746,
      "ĠØ¯Ø±ÙĪÛĮØ´": 6747,
      "ĠØ¨Ø±ØªÙĦÙħØ§Ø¦ÛĮ": 6748,
      "ĠØ³ÙĨØ¬ÛĮØ¯Ú¯ÛĮ": 6749,
      "ĠÙħÙĤØ¨ÙĪÙĦÛĮØª": 6750,
      "ĠØ¨ÙĨØ¯ÙĪØ¨Ø³Øª": 6751,
      "ĠÙħØ®Ø§Ø·Ø¨": 6752,
      "ĠØ¯Ø³ØªØ§ÙĪÛĮØ²": 6753,
      "ĠØ¨Ø¯Ø§Ø¹ÙħØ§ÙĦÛĮÙĪÚº": 6754,
      "ĠØ¦": 6755,
      "ĠØĽ": 6756,
      "ÛĮØ¦": 6757,
      "ÛĮØ·": 6758,
      "ÛĮØ¯Ø§Ø±": 6759,
      "ÙĪÙĪÚº": 6760,
      "ÙĪØ§ÙĨÛĮ": 6761,
      "ÙĪØ¦ÛĮÙĦ": 6762,
      "ÛģØ§Ø±": 6763,
      "Ú©Ø´": 6764,
      "Ú©ÙĦØ§": 6765,
      "Ú©Ø§Ø±ÛĴ": 6766,
      "Ú©Ø§ÙĨÛĴ": 6767,
      "Ú©ØªÙĪÚº": 6768,
      "Ú©Ù¾ÙĦØ³": 6769,
      "Ø±Ø¨Ûģ": 6770,
      "Ø±ÛģÛĮ": 6771,
      "Ø±ÙĪØ²": 6772,
      "ĠÚ©Ø¯": 6773,
      "ĠÚ©Ø¬": 6774,
      "ĠÚ©ÙĨØ¯": 6775,
      "ĠÚ©ÚĳØ§": 6776,
      "ĠÚ©Ù¹Ø§": 6777,
      "ĠÚ©ØªÙĪÚº": 6778,
      "ĠÚ©ÙħÛģ": 6779,
      "ĠÚ©Ø°Ø¨": 6780,
      "ĠØ§ÛĮØ§": 6781,
      "ĠØ§Ø±ÛĮ": 6782,
      "ĠØ§Ø¯ÛĮ": 6783,
      "ĠØ§Ø«": 6784,
      "ĠØ§ØµØ±": 6785,
      "ĠØ§ÙĤØ¯Ø³": 6786,
      "ĠØ§ÙĤØ³": 6787,
      "ĠØ§Úĺ": 6788,
      "ÙĨÚ©Ø§": 6789,
      "ÙĨØªÙĪÚº": 6790,
      "ÙħÙĪØ±": 6791,
      "ÙħØ¯Ûģ": 6792,
      "ÙħÛĮØ§Ûģ": 6793,
      "ĠÛģØ§ÙĨÚ©": 6794,
      "ĠÛģØ§Ø¨ÙĦ": 6795,
      "ØªÙĨ": 6796,
      "ØªÙĪØ±": 6797,
      "ÙĦØªÛĴ": 6798,
      "ÙĦÙ¹": 6799,
      "ÙĦÙĪØ§": 6800,
      "Ø³ÙĨÙĪÚº": 6801,
      "Ø³ÙĦÛĮÙħØ§ÙĨ": 6802,
      "Ø³ÛĮØ§Ø³": 6803,
      "Ú¾ÙĨÛĴ": 6804,
      "ĠÙħÙĪØ±": 6805,
      "ĠÙħÙħØ§ÙĨ": 6806,
      "ĠÙħÙĨÛĮ": 6807,
      "ĠÙħØ§Ùħ": 6808,
      "ĠÙħØ§Ø±ÛĮ": 6809,
      "ĠÙħÙĪØ±Øª": 6810,
      "ĠÙħØ¦ÙĪØ§": 6811,
      "ĠÙħØ³Ú©": 6812,
      "ĠÙħÚĨØ§": 6813,
      "ĠÙħÙĤÛĮÙħ": 6814,
      "ĠÙħÙĪÙĨÛģ": 6815,
      "ĠÙħØ§Ø¯ÙĪÚº": 6816,
      "ĠØ¨ÙĤ": 6817,
      "ĠØ¨Ø®Øª": 6818,
      "ĠØ¨Ø³ÛĴ": 6819,
      "ĠØ¨Ú©Ø§": 6820,
      "ĠØ¨Ø§Ø³ÛĮ": 6821,
      "ĠØ¨ÙģØ±Ø¶": 6822,
      "ĠØ³Ø§Ûģ": 6823,
      "ĠØ³Ø§ÙĦÙħ": 6824,
      "ĠØ³ØªÙĪ": 6825,
      "ĠØ³ÛĮØ§ÙĦ": 6826,
      "ĠØ³ØŃØ±": 6827,
      "ĠØªÛĮÚº": 6828,
      "ĠØªØ§ÙĦ": 6829,
      "ĠØªÙĨÛĴ": 6830,
      "ĠØªØ±ÛĮ": 6831,
      "ĠØªØ±Ùģ": 6832,
      "ĠØªØŃØª": 6833,
      "ĠØªØŃÙĤ": 6834,
      "ĠÙĨÚ¯Ø±": 6835,
      "ĠÙĨØ°": 6836,
      "ĠÙĨÙĪÛĮ": 6837,
      "ĠÙĨÙģÙĤ": 6838,
      "ĠÙĨØªÙĨ": 6839,
      "Ú¯ØªØ§": 6840,
      "Ú¯ÛĮØ±": 6841,
      "Ú¯Ø§ÙĨÛĮ": 6842,
      "Ø¯Ùħ": 6843,
      "Ø¯Ø¯": 6844,
      "Ø¯Ø¦ÛĴ": 6845,
      "Ø¯ÛĮØ±": 6846,
      "Ø¯Ø¹Ø§": 6847,
      "ĠØ¬ÙħØ§": 6848,
      "ĠØ¬Ø°": 6849,
      "ĠØ¬Ú¯Ø§": 6850,
      "ĠØ¬ØªÙĦ": 6851,
      "Ø¨ÙĦØ§": 6852,
      "Ø¨Ûĥ": 6853,
      "ĠÙ¾Ù¹": 6854,
      "ĠÙ¾Ø§Ùħ": 6855,
      "ĠÙ¾ÙĪØ¯ÛĮ": 6856,
      "ĠÙ¾ÙĨØª": 6857,
      "ĠÙ¾ÙĨØ¯Ø±": 6858,
      "Ø¦Ú©Ûģ": 6859,
      "ĠØ§ÙĪØ±Ù¾": 6860,
      "ĠØ¯Ø§Ø³Øª": 6861,
      "ĠØ¯Ø®ÙĦ": 6862,
      "ĠØ¯ÙĦØ§ÛĮØ§": 6863,
      "ĠØ¯Ú©Ù¾ÙĦØ³": 6864,
      "ĠØ§Ø³ØªÙĪ": 6865,
      "Ø§ÙĨØ¬": 6866,
      "ĠÙĦØ¨": 6867,
      "ĠÙĦÚ©Ø§": 6868,
      "ĠÙĦÙ¹Ø§": 6869,
      "ĠÙĦÛģÙĪ": 6870,
      "ĠÙĦØºÙĪ": 6871,
      "ĠÚ©Ø±Ø¦ÛĴ": 6872,
      "ĠÚ©Ø±Ø§Ø³": 6873,
      "ĠÚ©Ø±ÙĪØ§": 6874,
      "ĠÚ©Ø±Ø§ÙĨØ§": 6875,
      "ĠÚ©Ø±ØªÛģ": 6876,
      "ĠÚ©Ø±Ø±ÛģÛĮ": 6877,
      "ĠÚ©ÛģÙĨÛĮ": 6878,
      "ĠÚ¯Øª": 6879,
      "ĠÚ¯Ø§Ø±ÛĮ": 6880,
      "ĠÚ¯Ù¹Ú¾": 6881,
      "ĠÚ¯ÛĮØ±ÛĮ": 6882,
      "ĠÚ¯Ø¯Ú¾": 6883,
      "ĠÚ¯ÙĨØ¯ÛĴ": 6884,
      "ĠÚ¯ÛģØ±ÛĴ": 6885,
      "ÛĮØ§Øª": 6886,
      "ÛĮØ§ØªÛĮ": 6887,
      "ÛĮØ§ÙĤÛĮÙħ": 6888,
      "ĠØ§ÙĨÚĪ": 6889,
      "ĠØ§ÙĨØ§Ø¨Øª": 6890,
      "ĠØ§ÙĨÛĮØ³": 6891,
      "ĠØ±Ø´": 6892,
      "ĠØ±Ø³ÛĮ": 6893,
      "ĠØ±ÙĪÙĨØ¯": 6894,
      "ĠØ±Ú©Ø§": 6895,
      "ĠØ±ÙģØª": 6896,
      "ĠØ±ÙģØ§": 6897,
      "ĠØ±Ø¶ÛĮ": 6898,
      "ĠØ±ØªÚ¾": 6899,
      "ĠØ±Ø§ØŃØ¨": 6900,
      "ĠÚ©ÙĪØ³": 6901,
      "ĠÚ©ÙĪØ¦": 6902,
      "ĠÚ©ÙĪØ§Úº": 6903,
      "ĠÚ©ÙĪÙĨÚĨ": 6904,
      "ĠÚ©ÙĪÚĳÛĮ": 6905,
      "ĠÚ©ÙĪÚĳÚ¾": 6906,
      "Ù¾Úĳ": 6907,
      "Ù¾ØªÛĮ": 6908,
      "Ù¾ÙĦÙ¹": 6909,
      "ÚĨÙĨØ¯": 6910,
      "Ø§Ø±Ø§Øª": 6911,
      "Ø¹Ø±Ø¶": 6912,
      "ĠÛģÙĪÙĦÛĮÚº": 6913,
      "ĠØªÙħØª": 6914,
      "ĠØ¢ÙħØ§": 6915,
      "ĠØ¢Ø²Ø±": 6916,
      "ĠØ¢ÙĦÛĮØ§": 6917,
      "Ø´ÙĨØ§": 6918,
      "Ø´ÙĦÛĮÙħ": 6919,
      "Ø´Ø±ÛĮØ¹Øª": 6920,
      "Ø´Ø§ÛĮ": 6921,
      "Ø´ÙĪØ¹": 6922,
      "ĠÙĨÛģÛĮ": 6923,
      "Ø§ÙĦÛĮØ§": 6924,
      "Ø§ÙĦØ²": 6925,
      "Ø§ÙĦØªÙĪÚº": 6926,
      "Ø§ÙĦØ¨ØªÛģ": 6927,
      "Ø¬ÙĦ": 6928,
      "Ø¬Ú¾ÙĪ": 6929,
      "Ø¬Ø¯ÙĪÚº": 6930,
      "Ø¬ÙħØ¹": 6931,
      "Ø¬Ø±Ûģ": 6932,
      "ĠÛĮÙĪØ±": 6933,
      "ĠÛĮÚ©ÛĴ": 6934,
      "ĠÛĮÙĪØ³": 6935,
      "ĠÛĮØ´ÙĪØ¹": 6936,
      "Ø§ØªÙĪÚº": 6937,
      "ÙĤØªØ§": 6938,
      "ÙĤØ¯ÙĪØ³": 6939,
      "ĠØ®Ùħ": 6940,
      "ĠØ®Ø±Ùħ": 6941,
      "ĠØ®Ø¨Ø±ÛĮ": 6942,
      "ĠÚ©Ø§Ø´Øª": 6943,
      "ÙģØ±ÛĮØ¨": 6944,
      "Ø²Ø§ÙĨÛĮ": 6945,
      "ØŃÛģ": 6946,
      "ØŃØ·": 6947,
      "ØŃØ§Ø¨": 6948,
      "ĠØªÙĪÙĦØ§": 6949,
      "ĠØªÙĪØ§Ùħ": 6950,
      "ĠØªÙĪÛĮÛģ": 6951,
      "ĠØªÙĪÛģÙħ": 6952,
      "ĠØ¬ÙĪØ§": 6953,
      "ĠØ¬ÙĪÙĦ": 6954,
      "ĠØ¬ÙĪØªÛĴ": 6955,
      "ĠØ¬ÙĪÙĨÛģ": 6956,
      "ĠØ¬ÙĪØ¢Ù¾": 6957,
      "ĠØ¬ÙĪÚĳÙĪÚº": 6958,
      "ĠÛģÙħØ¯Ø±": 6959,
      "ĠÙ¾Ø±ÙĪÚº": 6960,
      "ĠÙ¾Ø±ÙĪØ§Ø²": 6961,
      "ĠÙ¾Ø±Ø³Ú©": 6962,
      "ØªØ§Ùħ": 6963,
      "ØªØ§Ø²": 6964,
      "ĠØ¹ÙħÛĮÙĨ": 6965,
      "ĠØ¹Ø¬Ø¨": 6966,
      "ĠØ¹ÙĦÙĪÙħ": 6967,
      "ĠØ¹Ø´Ø§": 6968,
      "ĠØ¹Ø§ÙĦÛĮ": 6969,
      "Ø§ÙĪØ±Ø§Ø³": 6970,
      "Ø§ÙĪØ±Ø¬Ø¨": 6971,
      "ĠÚĨÚ¯": 6972,
      "ĠÚĨÙĨÛĮ": 6973,
      "ĠÚĨÙĪÙħ": 6974,
      "ĠÚĨÙĪØ±Ø§": 6975,
      "Ø¦ÛĮÙĦÛĮ": 6976,
      "Ø§ÛģÙħ": 6977,
      "ĠÙģÙĤ": 6978,
      "ĠÙģÙĦØ§": 6979,
      "ĠÙģÚ¯ÛĴ": 6980,
      "ĠÙģØ¬Ø±": 6981,
      "Ø®ÙĪØ¯": 6982,
      "ĠØ¨Ú¾ÛĮØ¬ÙĪ": 6983,
      "ĠØ¨Ú¾ÛĮÚĳÛĮÙĪÚº": 6984,
      "ĠØ§Ù¾ÙģØ±": 6985,
      "ĠØŃÙĨØ§": 6986,
      "ĠØŃÙĪØ§": 6987,
      "ĠØŃØµØ±": 6988,
      "ĠØŃÙĪØ±ÙĪÚº": 6989,
      "ĠØŃÛĮØ±Øª": 6990,
      "ĠØŃÙĦÛĮÙħÛĮ": 6991,
      "Ø¯Ø§Ø´": 6992,
      "ÙĦØ§Ø¨": 6993,
      "ÙĦØ§Ø¦ÛĮ": 6994,
      "ÙĪÙĨÚ©": 6995,
      "ĠÙĤÙĦÙħ": 6996,
      "ĠÙĤÛĮÙĨ": 6997,
      "ĠÙĤØŃØ·": 6998,
      "ĠØ´ØŃ": 6999,
      "ĠØ´Ø§Ø¨": 7000,
      "ĠØ´Ø§ÛģÛĮ": 7001,
      "ĠØ´ÛĮØ±Ûģ": 7002,
      "ĠØ§ÙĦØ¬Ú¾": 7003,
      "ĠØ§ÙĦÙģØ§Ø¸": 7004,
      "ĠØ§ÙĦÛĮØ¹": 7005,
      "ĠØ§ÙĦÛĮØ§ÙĤÛĮÙħ": 7006,
      "ĠØ§ÙĦÙĤØ¯ÙĪØ³": 7007,
      "ÙĨØ§ÛĮØ§": 7008,
      "ÙĨØ§Ùģ": 7009,
      "ÙĨØ§Ø¦ÛĮ": 7010,
      "ÙĨØ§ÙħÛĮ": 7011,
      "Ù¹Ûģ": 7012,
      "Ù¹ÛĮÚº": 7013,
      "ĠÙĦÙĪÙħ": 7014,
      "ĠÙĦÙĪÚ©Ûģ": 7015,
      "ĠÙĦÙĪÙĤØ§": 7016,
      "ĠÙĦÙĪØªÚ¾": 7017,
      "ĠÙĦÙĪØ³ÛĮØ§Ø³": 7018,
      "ÙħØ§ÙĨØª": 7019,
      "ĠØ·ÙĪØ§": 7020,
      "ĠØ·ÙĪÙĦ": 7021,
      "ØµØ§ÙĦØŃ": 7022,
      "ĠØ±ÛģØ¨Ø±ÛĮ": 7023,
      "ĠÙģØ±Ø¯": 7024,
      "ĠÙģØ±ØŃØª": 7025,
      "ĠÙģØ±Ø¯ÙĪØ³": 7026,
      "ĠØ¨ÛĮÚ¾": 7027,
      "ĠØ¨ÛĮÚ¯Ø§Ø±": 7028,
      "ĠØ¨ÛĮØ¯Ø§Ø±ÛĮ": 7029,
      "ĠØ¬Ø§ÙĪÚº": 7030,
      "ĠØ¬Ø§ÚĳØ§": 7031,
      "ĠØ¬Ø§ÚĳÙĪÚº": 7032,
      "ĠØ¬Ø§Ø¦ÛĮÛĴ": 7033,
      "ĠØ¬Ø§Ù¾Úĳ": 7034,
      "ĠØ²ÙħÛĮ": 7035,
      "ĠØ²Ø§Ø¯": 7036,
      "ĠØ²Ø±Ø¨": 7037,
      "ĠØ²Ú©Ø§Ø¦ÛĮ": 7038,
      "Ø·ÛĮ": 7039,
      "Ø·ÛĴ": 7040,
      "ĠØ§ÛĮÙĨ": 7041,
      "ĠØ¯ÛĮÛĴ": 7042,
      "ĠØ¯ÛĮØ¯ÙĪ": 7043,
      "ĠØ¯ÛĮÙħØ§Ø³": 7044,
      "Ú©Ø±ÙĪÚº": 7045,
      "ĠØ³Ø¨Ø§": 7046,
      "ĠØ³Ø¨Ø²Ûģ": 7047,
      "ÙħÛĮØ³": 7048,
      "ĠØ¨Ø§ÙĤØ§": 7049,
      "ĠØ¨Ø§Ø¯ÛĮÛģ": 7050,
      "ĠØ¬Ø§ÙĨØ¯Ø§Ø±ÙĪÚº": 7051,
      "ĠØ®ÙĪØ§Ø±": 7052,
      "ĠØ®ÙĪØ¯ÛĮ": 7053,
      "ĠØ®ÙĪØ§Øµ": 7054,
      "ĠØ®ÙĪØ¬ÛĴ": 7055,
      "Ø±ÛĮØ¨ÛĮ": 7056,
      "Ø±ÛĮØ¬Ø§": 7057,
      "ĠØªÚ¾Ø§Ùħ": 7058,
      "ĠØªÚ¾Ø§Ú©Ûģ": 7059,
      "ĠØµÙģØª": 7060,
      "ĠÙ¾ÛģÙĦÙĪÚº": 7061,
      "ĠØ±ÙĪÙĪ": 7062,
      "ĠØ±ÙĪÙĨÛĴ": 7063,
      "ĠØ±ÙĪÚ©ÙĪ": 7064,
      "ÙĪØ§Ø¦ÛĮ": 7065,
      "ÙĪØ§Ø¯ÛĴ": 7066,
      "ĠØ¯ÙĨÚ¯": 7067,
      "ĠÙ¾ÛĮÙ¹Ø§": 7068,
      "ĠÙ¾ÛĮÙĪÙĨÚ¯Ø§": 7069,
      "ĠØ¨ÛģÙĪ": 7070,
      "ĠØ¨ÛģÙħ": 7071,
      "ĠØ¨ÛģØ§ÙĨÛĴ": 7072,
      "Ø±Ø§Ú©": 7073,
      "ĠØ¨ÚĳÙĪÚº": 7074,
      "ĠÙ¾Ú¾Ø±ÛĮ": 7075,
      "ĠØ¬ÙĨÙĪÙĨ": 7076,
      "ĠØ¬ÙĨØ³ÙĪÚº": 7077,
      "ĠØ¬ÙĨØ¨Ø´": 7078,
      "ĠÙ¾Ø§Ø³Ú©ØªØ§": 7079,
      "ĠÚĪÚ¾ÛĮ": 7080,
      "ĠÚĪÙĪÙĨÚ¯ÛĮ": 7081,
      "Ø¯ÛĮÙĨÛĮ": 7082,
      "ĠØºØ§Ø±ÙĪÚº": 7083,
      "ĠÛĮØ§Ø¨": 7084,
      "ÙģØ±Ø´ØªÛģ": 7085,
      "Ú©ÛĮØ³": 7086,
      "Ú©ÛĮÙĨÙĪÚº": 7087,
      "Ø°ÙĪØ§ÙĦ": 7088,
      "ĠÙ¾Ø§Ù¹": 7089,
      "ĠÙ¾Ø§Ø¯Ø§Ø´": 7090,
      "Ø¨ÛĮÙĦ": 7091,
      "Ø¨ÛĮØ¯": 7092,
      "ĠØªÚ©ØªÛĴ": 7093,
      "ĠØªÚ©ÙħÛĮÙĦ": 7094,
      "ĠØªØ§Ø«Ø±": 7095,
      "ĠØªØ§Ø®ÛĮØ±": 7096,
      "ĠØ¯Ø±ÙĪØ¯": 7097,
      "ĠØ¯Ø±Ù¾ÛĴ": 7098,
      "Ø§Ø¯ÛĮØ§": 7099,
      "ĠÚ©Ú¾ØªÛĴ": 7100,
      "ĠÚ©Ú¾Ø§ÙĨÙĪÚº": 7101,
      "ĠÚ©Ú¾ÙĦØ¨": 7102,
      "ĠÚ©Ú¾Ø§ÙĦÙĪ": 7103,
      "ĠÚ©Ú¾ÚĳÚ©ÛĮ": 7104,
      "ĠØ³ÙĪØªØ§": 7105,
      "ĠØ³ÙĪØ®Øª": 7106,
      "ĠØ³ÙĪÚ©Ú¾ÛĴ": 7107,
      "Ø«Ûģ": 7108,
      "Ú¯ÛĮÛģ": 7109,
      "ĠÙĦØ§ØŃØ§": 7110,
      "ĠÙħØ±Ø¨ÛĮ": 7111,
      "ĠÙħØ±Ø¬Ú¾": 7112,
      "ĠÙħØ±Ø¬Ø§ÙĨ": 7113,
      "ĠÙħØ±Ú©Ø²": 7114,
      "ĠØ§Ø¨ÛĮØ§Ûģ": 7115,
      "Ø¢ÙĨÛĮ": 7116,
      "Ø¢Ø³Ø§ÙĨ": 7117,
      "ĠØ¨Ø±Ø§ØªÛĮ": 7118,
      "ĠØ¨Ø±ÙĪØ²": 7119,
      "ĠÙ¹ÙĦÛĮÚº": 7120,
      "ĠÙ¹Ø§ÙĨÚ¯": 7121,
      "ĠØ³ÙĨØ§ÙĨØ§": 7122,
      "ĠØ³ÙĨØ¬ÛĮØ¯Ûģ": 7123,
      "ĠÙħÙĪØ¹": 7124,
      "ĠÙħÙĪÙģÙĤ": 7125,
      "ĠØ¸ÛģØ§Ø±": 7126,
      "ĠÙħØŃÙĪ": 7127,
      "ĠÙħØŃØ§ÙĦ": 7128,
      "ĠÙħØŃÚ©Ùħ": 7129,
      "ĠÙħØŃØ´Ø±": 7130,
      "ĠÙħØŃÙħÙĪØ¯": 7131,
      "ĠÙħØŃÛĮØ·": 7132,
      "ĠÙħØŃÙĨØªÙĪÚº": 7133,
      "ĠÙħØŃØ³ÙĨÙĪÚº": 7134,
      "ĠÙĨØ§Ú©ÛĴ": 7135,
      "ĠÙĨØ§Ú¯Ûģ": 7136,
      "ĠØ¢Ø³Ú©ÛĴ": 7137,
      "ĠØ¨Ø¯Ø³Øª": 7138,
      "ĠØ¨Ø¯Ø®ÙĪ": 7139,
      "ĠØ¨Ø¯ÙĨØ§ÙħÛĮ": 7140,
      "ĠÚ©Ø§ÙħÙĦØ§": 7141,
      "ĠØ³Ø±ÙĪØ±": 7142,
      "ĠØ³Ø±Ø®": 7143,
      "ĠØ³Ø±Ø²Ø¯": 7144,
      "ĠØ¨ÛĴÚ©Ø§Ø±": 7145,
      "ĠØ¨ÛĮÙ¹Ú¾ÙĪ": 7146,
      "Ø³ØªØ§ÙĨÛĮÙĪÚº": 7147,
      "ÙĪØ¯ÛĴ": 7148,
      "Ø¹ØªÛģ": 7149,
      "ĠØ°Ø¨ÛĮØŃ": 7150,
      "ĠØ°ÙħÛĴ": 7151,
      "ĠØ°Ø±ÛĮØª": 7152,
      "ĠØ¯ÙĦÚ©Ø´": 7153,
      "ĠØ¯ÙĦÚ¯ÛĮØ±": 7154,
      "ĠÙ¾Ø³ØªÛĮ": 7155,
      "ĠØ®ÙĪØ´Ú¯ÙĪ": 7156,
      "ĠÙħÙĨØŃØª": 7157,
      "ĠÙħÙĨØ¨Ø¹": 7158,
      "ĠØ²ÙĨØ¯Ú¯Ø§ÙĨÛĮ": 7159,
      "ĠØ³Ú©ÙĪÚº": 7160,
      "ĠØ³Ú©ÙĨÛĴ": 7161,
      "Ø¬Ø¨Ú©Ûģ": 7162,
      "ĠÛģÙĪØ§Ø¦ÛĮÚº": 7163,
      "ĠÙ¹Ú¾Ø§ÙĨ": 7164,
      "ĠØ¬ÛĮÙĨÛĴ": 7165,
      "ĠÚĨÚ¾ÙĪÙĦÛĮÚº": 7166,
      "ĠÙĤØ±Ø§Øª": 7167,
      "ĠÙĤØ±Ø¢ÙĨÛĮ": 7168,
      "ĠØ¬ÛģØ¯": 7169,
      "ĠØ´Ø±Ø¹ÛĮ": 7170,
      "ĠÙĨØ´ÛĮ": 7171,
      "ĠØ¬Ú¾Úĳ": 7172,
      "ĠØ¬Ú¾Ø§ÙĨÚ©": 7173,
      "ĠØªØ¹ÛĮÙĨ": 7174,
      "ĠØªØ¹Ø§ÙĪÙĨ": 7175,
      "ĠÚĪØ±ØªÛĮ": 7176,
      "ĠÚĪØ±Ø§ØªÛĴ": 7177,
      "ĠÚĪØ±Ú¯Ø¦ÛĴ": 7178,
      "ĠØ¨ÚĨÛĮ": 7179,
      "ĠØ¨ÚĨÚ¾ÙĪ": 7180,
      "ĠØ¨ÚĨØ§ØªÛĴ": 7181,
      "ĠØ³ÙħÙĪØ¦ÛĮÙĦ": 7182,
      "ĠØ¨Ø®Ø´ÛĮÚº": 7183,
      "ĠØ¨Ø®Ø´ØªÛĮ": 7184,
      "ĠØ¶Ø¯": 7185,
      "ĠØ¶Ø§Ø¨": 7186,
      "ĠØ¶ÙħØ§ÙĨØª": 7187,
      "ØµÛĮØ¨": 7188,
      "ĠÙħØ§ÙĨÙĨØ§": 7189,
      "ĠÙħØ§ÙĨØ¯Ûģ": 7190,
      "ÙĦÙĪØ®": 7191,
      "Ø·Ø±Ø¨": 7192,
      "ĠÚ¯ÛĮØ³": 7193,
      "ĠØ¹ÙħØ±Ûģ": 7194,
      "ĠÙ¾ÙĪØªÛĴ": 7195,
      "ĠÙ¾ÙĪØªØ§": 7196,
      "Ø¬ÙĪØ¦ÛĮ": 7197,
      "ĠØ¬ÙĦÙĨÛĴ": 7198,
      "ĠØ¬ÙĦØªØ§": 7199,
      "ĠØ¬ÙĦØªÛĮ": 7200,
      "ĠØ³ÚĨÙĪÚº": 7201,
      "ĠØ¯ÙĪÙĨÙĪ": 7202,
      "ĠÚ¯Ø±Ûģ": 7203,
      "ĠÚ¯Ø±Ø¯Ø§": 7204,
      "ĠÚ¯Ø±Ø§Ø³ÛĮ": 7205,
      "ĠØ±Ú©Ø§Ø¨ÛĮ": 7206,
      "ĠØ§Ø¹Ø±Ø§Ùģ": 7207,
      "Ú¯Ø²Ø§Ø±ÛĮ": 7208,
      "ĠÚĨÙĦØ§ÙĨÛĴ": 7209,
      "ĠÚĨÙĦØ§ØªÛĮ": 7210,
      "ĠÚĨÙĦÙĪÙĨÚ¯Ø§": 7211,
      "ÛĮÙĨÙĪÚº": 7212,
      "ÛĮÙĨÚ¯ÙĪ": 7213,
      "ĠÙħÙĦÙĪÚº": 7214,
      "ĠÙ¾Ø§Ú©Ø¯Ø§": 7215,
      "ĠÙĤØ¨Ø·ÛĮ": 7216,
      "ĠØ§Ù¹Ú¾Ø§Ú©Ø±": 7217,
      "ÙĪØŃÛģ": 7218,
      "ÙħØ±Ø¯ÙĪÚº": 7219,
      "ĠØ´Ú©ÙħÙĪÚº": 7220,
      "ĠÛĮÛģÙĪØ¯ÛĮÙĪ": 7221,
      "ĠØ§Ù¹Ú¾Ø§Ø±Ûģ": 7222,
      "ĠØ¨ÙĨØ¯Ú¾ÛĮ": 7223,
      "ĠØ¨ÙĨØ¯Ú¾ÛĴ": 7224,
      "ĠØ¨ÙĨØ¯Ú¯Ø§ÙĨ": 7225,
      "ĠØ¢Ú¯Ø¦ÛĮÚº": 7226,
      "ĠÙ¾Ú¾ÙĦØ§": 7227,
      "ĠÙ¾Ú¾Ø³ÙĦ": 7228,
      "ĠÚĨÚ¾ÙĪÚĳÛĮÚº": 7229,
      "ĠÚĨÚ¾ÙĪÚĳØªÛĮ": 7230,
      "ĠØ®Ø¨Ø±ÙĪÚº": 7231,
      "ĠÙģØ¶Ø§Ø¦ÛĴ": 7232,
      "ĠÙ¾Ú©ÚĳÛĮ": 7233,
      "ĠØ¨Ú¾Ú¯Ø§": 7234,
      "ĠÙħØ´ÛĮØ±": 7235,
      "ĠÙħØ´ÙĪØ±ÛĴ": 7236,
      "ĠØ¨ÙĪØ¦ÛĴ": 7237,
      "ĠØ¨ÙĪØ¹Ø²": 7238,
      "ĠÙħÙĪØ³ÙĦØ§Ø¯": 7239,
      "ĠÛģÙĦØ§Ø¦ÛĮ": 7240,
      "ĠÚ©ÙģØ±Ø§ÙĨ": 7241,
      "ĠÙĨØµÛĮØ¨ÛĮ": 7242,
      "ØªÙĪÙĨÛĴ": 7243,
      "ĠØ¨ÙĦØ§ÙĪ": 7244,
      "ĠØªÚ¾Ú©Ø§": 7245,
      "ĠÙħÙĨØ§Ø³Ú©": 7246,
      "ĠÙĨÚ©Ø§ÙĦÛĮ": 7247,
      "ĠÙĨÚ©Ø§ÙĦÙĨØ§": 7248,
      "ĠØ³ÙĨØ§Ø¦ÛĮÛĴ": 7249,
      "ĠØ¨Ú¾Ø±ØªØ§": 7250,
      "ÛĮÙĦÙĪÚº": 7251,
      "ĠÚĨÚ¾Ù¹Ú©": 7252,
      "ĠÙ¾Ú¾ÛĮØ±ÛĮ": 7253,
      "ĠÙ¾Ú¾ÛĮØ±Ø§": 7254,
      "ĠÙ¾Ú¾ÛĮÙĦÛĴ": 7255,
      "ĠÙ¾Ú¾ÛĮÙĨÚ©Ø§": 7256,
      "ĠÚ©ÙĨØ§Ø±ÙĪÚº": 7257,
      "ĠÚ©ÙĨØ¨ÛĴ": 7258,
      "ĠÙĨØ´Ø§ÙĨØ§Øª": 7259,
      "ĠØ®ÙĪØ§ÛģØ§Úº": 7260,
      "ĠÙħÙĦØ§ÛĮØ§": 7261,
      "ĠÙħÙĦØ§Ø¦Ú©Ûģ": 7262,
      "ĠØ±Ø§ØªÛĮÚº": 7263,
      "ĠØªØ±Ø³ÛĮ": 7264,
      "ĠÚĨÙĦØ§Ø¦ÛĮÚº": 7265,
      "ĠØ¯Ú©Ú¾Ø§Ø¤": 7266,
      "ĠØ¯Ú©Ú¾Ø§Ø¤Úº": 7267,
      "ĠØ§ØŃÙħ": 7268,
      "ĠØ§ØŃØ±Ø§Ùħ": 7269,
      "ĠÛĮØ±ÙħÛĮØ§Ûģ": 7270,
      "ĠÛĮØ±Ø´ÙĦÛĮÙħ": 7271,
      "ĠØ¨Ø§ÙĨØ¯ÛĮÙĪÚº": 7272,
      "ĠØ¨Ø§ÙĨØ³ÙĦÛĮ": 7273,
      "ĠØ¨Ø§ÙĦØº": 7274,
      "ĠØ³Ø§ÛĮÙĪÚº": 7275,
      "ĠØ³Ø§Ú©ÙĨ": 7276,
      "ĠØ§Ø¬Ø±Ø§Ùħ": 7277,
      "ÛĮØ³Ø¹": 7278,
      "ÙĨØªÙĨ": 7279,
      "ĠÚ©Ú¾ÙĪÛģ": 7280,
      "ĠÚ©Ú¾ÙĪÛĮØ§": 7281,
      "ĠÙħØ·ÛĮØ¹": 7282,
      "ĠØºÛĮØ±ØŃØ§": 7283,
      "ĠØ±ØŃÙħØ¯ÙĦ": 7284,
      "ĠØ¨Ú¾ÛĮÚĳÛĮØ§": 7285,
      "ĠØ¨Ú¾ÛĮÚĳØ¦ÛĴ": 7286,
      "ĠØŃØ³ÙĨÛģ": 7287,
      "ĠØ´ÛĮÙĦÙĪØ®": 7288,
      "ĠØ«Ø¨Øª": 7289,
      "ĠØ³ÛĮÚĳÚ¾ÛĮ": 7290,
      "ĠØ§ÙħØªÛĮÚº": 7291,
      "ĠØ¨ÚĳÚ¾Ø§ÙĨÛĴ": 7292,
      "ĠÙĨØ²Ø¯ÛĮÚ©ÛĮ": 7293,
      "ĠØ¨Ø³ÛĮØ±Ø§": 7294,
      "ĠØ¢ÙĪØ§Ø²ÙĪÚº": 7295,
      "ĠØ¹Ø¯Ø§ÙĦØªÙĪÚº": 7296,
      "ĠØŃÙĤÛĮÙĤØªØ§": 7297,
      "ĠÙĪØ§ÙĤØ¹ØªØ§": 7298,
      "ÙĪØ§ÙĦÛĴ": 7299,
      "ĠØ±ÙĪØ´ÙĨØ§Ø¦ÛĮ": 7300,
      "ĠØªÚ¾ÙĪÚ©Ø§": 7301,
      "ĠØ¨ÛĮÙĪÛĮÙĪ": 7302,
      "ĠÙĦÚĳÙĨÛĴ": 7303,
      "ĠØ´Ú©Ø±Ú¯Ø²Ø§Ø±ÛĮ": 7304,
      "ĠÙĨØ¸Ø§Ø±Ûģ": 7305,
      "ĠÙ¾ÙĦØ§ØªÛĴ": 7306,
      "ĠÙ¾ÙĦÙĨÚ¯": 7307,
      "ĠØ¢Ø¬Ø§ØªÛĮ": 7308,
      "ĠÙĨÙĤÙĦ": 7309,
      "ĠØ¨Ø¯ÙĨØµÛĮØ¨": 7310,
      "ĠØ§ÙģØ³ÛĮÙĪÚº": 7311,
      "ĠØ§ÙģØ¹Ø§ÙĦ": 7312,
      "Ø§Ø±ÛģØ§": 7313,
      "Ø§Ø±ÛģÛĴ": 7314,
      "ĠØ¯Ú©Ú¾ÙĨØ§": 7315,
      "Ø§Ø¨Ø±ÛģØ§Ùħ": 7316,
      "ĠØµÙĪØ±ØªÛĮÚº": 7317,
      "ĠØ¹ÛģØ¯Ûģ": 7318,
      "ÙģØ±ÙħØ§ÛĮØ§": 7319,
      "ÙģØ±ÙħØ§Ø¯ÛĮØ¬Ø¦ÛĴ": 7320,
      "ĠÙħØ²ÛĴ": 7321,
      "ĠÙħØ²ÙħÙĪØ±": 7322,
      "ĠÙ¾ÛĮØ§Ø³ÛĴ": 7323,
      "ĠØ§Ø¹ØªØ±Ø§Ùģ": 7324,
      "ĠØ§Ø¹ØªÚ©Ø§Ùģ": 7325,
      "ĠÙħØ§Ø±Ú©Ø±": 7326,
      "ĠØ¨Ø§Ø²Ø§Ø±": 7327,
      "ĠØ§Ø±Ø§Ø¯ÙĪÚº": 7328,
      "ĠØ¨Ø§ÙĨØ¯Ú¾ÙĪ": 7329,
      "ĠØ¢Ø²ÙħØ§ÙĪ": 7330,
      "ĠÙ¾ØªÛģ": 7331,
      "ĠØ§Ú©Ø«Ø±ÙĪÚº": 7332,
      "ĠÙħØ¶Ø·Ø±Ø¨": 7333,
      "ĠØ¨ÚĨØ§ÙĪ": 7334,
      "ĠØ¨ÚĨØ§ÛĮØ§": 7335,
      "ĠØ¯ÛģØ±Ø§": 7336,
      "ĠØ¯ÛģÚ©ØªÛĮ": 7337,
      "ĠØ¨Ø§ØºØ¨Ø§ÙĨ": 7338,
      "ĠØ¨Ø²Ø±Ú¯ÙĪ": 7339,
      "ĠÚĪÚ¾Ø§ÙĨ": 7340,
      "ĠÚĪÚ¾Ø§ÙĨÚ©": 7341,
      "ĠÚĪÚ¾ÙĨÚ©ÛĴ": 7342,
      "ĠÙ¾Ø±Ø³ØªØ§Ø±": 7343,
      "ĠØ³ØªØ§ØªÛĴ": 7344,
      "ĠÙģØ±Ø¹ÙĪÙĨÛĮÙĪÚº": 7345,
      "ĠÙĤØ¯Ø±ØªÛĮ": 7346,
      "ĠØªÚ©ÙĦÛĮÙģÙĪÚº": 7347,
      "ĠØ¬ØªÙĦØ§": 7348,
      "ĠØ¯Ú¾ÙĪÙħ": 7349,
      "ĠÙħØ«ÙĤØ§ÙĦ": 7350,
      "ĠØ¨ØªØ§Ø¦ÛĮÚº": 7351,
      "ĠØ¨ØªØ§Ø¦ÛĮÛĴ": 7352,
      "ĠØ¨Ø±Ø³ÙĨÛĴ": 7353,
      "ĠÙ¾ÙĦÙ¹ÙĪ": 7354,
      "ĠØ¨ÛĮÙ¹Ú¾ÙĨÛĴ": 7355,
      "ĠØ´Ø§Ú©Ø±": 7356,
      "ĠÙĤØ¨Ø±ÛĮÚº": 7357,
      "ĠÚĨÙĪÙ¹ÛĮ": 7358,
      "ĠØ¢Ù¾ÛģÙĨÚĨØªÛĮ": 7359,
      "ĠØ¯Ø±Ø¯ÙħÙĨØ¯": 7360,
      "ĠØ§ØªØ±Ú©Ø±": 7361,
      "ĠØ§ØªØ±ØªÛĮ": 7362,
      "ĠÙĨÙĪÚ©Ø±ÙĪ": 7363,
      "ĠÙħØ®ØªØµØ±": 7364,
      "ĠÚ¯Ø²Ø±ØªÛĴ": 7365,
      "ĠÙ¾ÛģÚĨØ§ÙĨÙĨÛĴ": 7366,
      "ĠÙħØ³Ø¦": 7367,
      "ĠÙħØ³Ø±Øª": 7368,
      "ĠÙħØ³Ø±ÙĪØ±": 7369,
      "ĠÙħØ³Ø¬Ø¯ÙĪÚº": 7370,
      "ĠØ¨Ú¾ÙĦØ§Ø¦ÛĮÙĪÚº": 7371,
      "ĠØªØ§Ø¨Ø¹Ø¯Ø§Ø±": 7372,
      "ĠØ§ÙĨÚ¯ÙĪØ±ÙĪÚº": 7373,
      "ĠØ§ÙĨØµØ§Ø±": 7374,
      "ĠÙģØ±Ø²ÙĨØ¯ÙĪ": 7375,
      "ĠÙĤÙĪØªÛĮÚº": 7376,
      "Ø®ÙĪØ¨": 7377,
      "Ø®ÙĪØ§ÙĨ": 7378,
      "ĠÙħÙĪØ¬ÙĪØ¯Ú¯ÛĮ": 7379,
      "ĠØ¨Ø¯ÙĦØªÛĴ": 7380,
      "ĠØ´ÙĪÛģØ±ÙĪ": 7381,
      "ĠØŃÙĪØ§ÙĦÛĴ": 7382,
      "ĠØ§Ø±Ø®": 7383,
      "ĠØ§Ø±Ø²Ø§ÙĨÛĮ": 7384,
      "ĠØ§Ú¯Ø§ØªÛĮ": 7385,
      "ĠÚ¯ÙĦÛĮÙĦÙĪÚº": 7386,
      "ĠØ§Ø·ÛģØ±": 7387,
      "ĠØ§Ø·ÙĦØ³": 7388,
      "ĠØ§ÙĦØ²ÙħØ§Úº": 7389,
      "ĠØ¨ÛĮÚĨØ§": 7390,
      "ĠØ¨ÛĮÚĨÛĮ": 7391,
      "ĠÚ©Ø§Ø±Ø³ØªØ§ÙĨÛĮÙĪÚº": 7392,
      "ĠØ¹ÙĦØ§ÙĤÙĪÚº": 7393,
      "ĠØ¨Ø§ÙĨØ¯Ú¾ÙĪÚº": 7394,
      "ĠØ¨Ø§ÙĨØ¯Ú¾ÙĨØ§": 7395,
      "ĠØ¢ÙĪØ§Ø±Ûģ": 7396,
      "ĠÛĮÙĪÙĨØ§ÙĨ": 7397,
      "ĠØ²ÙĪØ±Ø¯Ø§Ø±": 7398,
      "ĠÙħÛĮÙĦÛĴ": 7399,
      "ĠÙħÛĮÙĦÛĮØªØ³": 7400,
      "ĠÙħÛĮÙĪÙĪÚº": 7401,
      "ĠØ¨ØªØ§ØªÛĴ": 7402,
      "ĠÚ©Ø§Ù¹ÛĮÚº": 7403,
      "ĠÙ¹Ú¾ÙĪÚĳÛĮÙĪÚº": 7404,
      "ĠØ³ÙħÙĨØ¯Ø±ÙĪÚº": 7405,
      "ĠØ¬ÛģØ§Ø²ÙĪÚº": 7406,
      "ĠÙ¾ÙĨÚĪ": 7407,
      "ĠØ¬ÙħØ§Ø¹ØªÛĮÚº": 7408,
      "ĠØ±Ø³Ø§Úº": 7409,
      "ĠØªÙħØ«ÛĮÙĦÛĮÚº": 7410,
      "ĠÚĨØ±ÙĨÛĮ": 7411,
      "ĠÚĨØ±Ø§ØªÛĴ": 7412,
      "ĠÚ©ÛģÙĦØ§ØªÛĴ": 7413,
      "ĠØ¨Ú¾Ø§Ú¯ÛĮÚº": 7414,
      "ĠØ¨Ú¾Ø§Ú¯ØªÛĴ": 7415,
      "ĠÙħØµØ±ÙĪÙģ": 7416,
      "ĠÚ©Ú¾ÙĦØ§Ø¦ÛĮÚº": 7417,
      "ĠØ´Ø±ÙħØ§ØªÛĴ": 7418,
      "ĠØªØ¯Ø±ÛĮØ¬Ø§": 7419,
      "ĠÛģÙĪØ¬Ø§ÛĮØ§": 7420,
      "ĠÚ¯Ø±Ø§Ø¦ÛĴ": 7421,
      "ĠØ§ÛĮÙĦÚĨÛĮ": 7422,
      "ĠØªÙĨÙĪØ±": 7423,
      "ĠØ¢ÚĨÙħÚ©Ø§": 7424,
      "ĠÚ©ÙħØ²ÙĪØ±ÛĮÙĪÚº": 7425,
      "ĠÛģÛĮØ±ÙĪØ¯ÛĮÙĪÚº": 7426,
      "ĠÙħØ¨ØªÙĦØ§Ø¡": 7427,
      "Ú©Ø³Ø§Ø±ÛĮ": 7428,
      "ĠÙ¾ÛĮÙ¹ÙĪÚº": 7429,
      "ĠØ§Ø³ØªÙĤØ§ÙħØª": 7430,
      "ĠØ´ÛģÙĨ": 7431,
      "ĠØªØ¯Ø¨ÛĮØ±ÙĪÚº": 7432,
      "ĠØ¹ÙħØ±Ø§ÙĨ": 7433,
      "ĠÙ¾ÚĨÚ¾ÙĦÛĮ": 7434,
      "ĠØ¯ÙĦØ§Ø¦ÛĴ": 7435,
      "ĠÚ¯Ø²Ø§Ø±ÛĮÚº": 7436,
      "ĠÚĨÚĳÚ¾ØªÛĴ": 7437,
      "ĠØ¨ÛĮØ§ÛģØ§": 7438,
      "ĠÙĨÚ¯Ø§ÛģÛĮÚº": 7439,
      "ĠÙĨØ°Ø±ÙĪÚº": 7440,
      "ĠØ¯ÙĪÚĳØªØ§": 7441,
      "ĠØ§Ø´Ø§Ø±ÛĴ": 7442,
      "ĠÙ¾ÛģÙĨÙĨÛĴ": 7443,
      "ĠÙ¾ÛģÙĨØªÛĴ": 7444,
      "ĠÙ¾ÛģÙĨÙĨØ§": 7445,
      "ĠØªÛģÛģ": 7446,
      "ĠØ®Ø·Ø§Ø¨": 7447,
      "ĠÚĨÚ¾Ù¾Ø§ØªØ§": 7448,
      "ĠØ§Ø¯Ø±Ø§Ú©": 7449,
      "ĠØŃØ¬Ø±": 7450,
      "ĠØºØ±ÙĪØ¨": 7451,
      "ĠØ³ÙĨÚ¯Øª": 7452,
      "ĠÚĨÚĳÚ¾Ø§Ø¦ÛĴ": 7453,
      "ÙħÙĦÚ©Ûģ": 7454,
      "ĠÙħÙģØ³": 7455,
      "ĠÙħÙģØ§Ø¯": 7456,
      "ĠÚ¯Ú¾Ù¹ÙĨ": 7457,
      "ĠÚ©Ú¾ÛĮÙĨÚĨØªÛĴ": 7458,
      "ĠØ³ÙħØ¬Ú¾Ø§ÛĮØ§": 7459,
      "ĠÙħØªÙĪØ§ÙĦÛĴ": 7460,
      "ĠØ¯Ø³ÙĪÚº": 7461,
      "ĠØŃÚ©ÙĪÙħØªÛĮÚº": 7462,
      "ĠØ§ØµØŃØ§Ø¨": 7463,
      "ĠØ¨Ú©Ú¾ÛĮØ±Ø§": 7464,
      "ĠÚ¯Ø±ÛĮÛģ": 7465,
      "ĠÚĨÚ©Ú¾ØªÛĴ": 7466,
      "ĠÚĨÚ©Ú¾ÙĨØ§": 7467,
      "ĠÚ©Ú¾ÙĦØ§ÙĨÛĴ": 7468,
      "ĠØ¬Ú¾Ù¹ÙĦØ§ØªØ§": 7469,
      "ĠÛģÙĦØªÛĴ": 7470,
      "ĠÛģÙĦÚĳ": 7471,
      "ĠÛģÙĦÚĨÙĦ": 7472,
      "ĠØ¨Ø±ÙĨÛĮÚ©ÛĴ": 7473,
      "ĠÚ¯Ú¾Ø¨Ø±Ø§ÙĪ": 7474,
      "ĠØ³Ø±Ú©Ø´ÙĪÚº": 7475,
      "ĠØ¨Ø´Ø±ÛĮØª": 7476,
      "ĠØªÙĤØ§": 7477,
      "ĠØªÙĤØ¯ÛĮØ±": 7478,
      "ĠØ¯Ø§ÙĨØ§ÙĪ": 7479,
      "ĠØ±Ø§Ø³ØªÛĮ": 7480,
      "ĠÙ¾Ú¾Ù¹ÙĨÛĴ": 7481,
      "ĠÙĦÚĳÚ©ÛĮÙĪÚº": 7482,
      "ĠØ§ÙħØ§ÙĨØªÙĪÚº": 7483,
      "ĠØ³ÙĨÛĮÚ¯Ø§": 7484,
      "ĠØ¨Ø±ØªØ±ÛĮ": 7485,
      "ÙĦÛĮØ§Øª": 7486,
      "ĠÚ©Ø±Ø³Ú©ÛĮ": 7487,
      "ĠÚĨÚ©ÛĮÚº": 7488,
      "ĠÚĨÚ©ÙĨÛĮ": 7489,
      "ĠØ³ÛģÙĨÛĴ": 7490,
      "ĠØ³ÛģØ±Ø§": 7491,
      "ĠØ±Ø¶Ø§Ø¦ÛĴ": 7492,
      "ĠØ±Ø¶Ø§Ø¬ÙĪØ¦ÛĮ": 7493,
      "ĠÚĨÙħÚ©Ø¯Ø§Ø±": 7494,
      "ĠÙ¾ÚĳÛĮÚ¯Ø§": 7495,
      "ĠØ§ÙĨØ¯Ú¾ÛĮØ±ÙĪÚº": 7496,
      "ĠØ¨Ú¾ÛĮØ¬ÛĮÚ¯Ø§": 7497,
      "ĠÙ¾Ú¾ÛĮÙĦØªØ§": 7498,
      "ĠÙ¾Ú¾ÛĮÙĦØ§ØªØ§": 7499,
      "ĠÙ¾Ú¾ÛĮÙĦØ§ØªÛĴ": 7500,
      "ĠÙħØ´Ú©ÙĦØ§Øª": 7501,
      "ĠØ¨ÚĨÚ¾ÙĪÙĨØ§": 7502,
      "ĠØªØ¬Ø±Ø¨Ûģ": 7503,
      "ĠØªØ¬ÙĦÛĮØ§Øª": 7504,
      "ĠÙģØ±ÙĤÙĪÚº": 7505,
      "ĠØ¨Ø¬ÙĨÛĴ": 7506,
      "ĠØ¨Ø¬Ø§ÙĨÛĴ": 7507,
      "ĠØ¨ØµØ§Ø±Øª": 7508,
      "ĠÚ©Ø±Ø¯ÛĮØªØ§": 7509,
      "ĠØ§ÙĨØ¨ÛĮØ§": 7510,
      "ĠØ¢ÛģÙ¹": 7511,
      "Ø¹ÛĮÙģ": 7512,
      "ĠÛĮÚ©ÙĪÙĨ": 7513,
      "ĠØ¬Ú¾Ú©ÙĨÛĴ": 7514,
      "ĠÙ¹ÙĪÙ¹": 7515,
      "ĠÙĨØ§Ù¾Ø³ÙĨØ¯ÛĮØ¯Ûģ": 7516,
      "ĠÙ¾Ú¾ÛĮÙĦØ§Ø¦ÛĴ": 7517,
      "ĠÙĨØµØ§Ø±ÛĮ": 7518,
      "ĠØ¬Ø§ÙĦÙĪØª": 7519,
      "ĠÙĤÙĦØ²Ùħ": 7520,
      "ĠØ¨ÛģÙĨÛĮÚº": 7521,
      "ĠÚ©Ú¾Ø¬ÙĪØ±ÙĪÚº": 7522,
      "ĠÙ¹Ú¾ÛĮÚ©ÛĴ": 7523,
      "ĠØ³Ø§Ø²Ø´ÛĮ": 7524,
      "ĠÙ¾Ø§ÙĦÛĮØ§": 7525,
      "ĠØ¨ÛĮÙĪÙĤÙĪÙģÛĮ": 7526,
      "ĠÙ¾ÚĳÙĪØ³ÛĮÙĪÚº": 7527,
      "ĠÛģÚĪÛĮ": 7528,
      "ĠØ¨Ú¯Ø§ÚĳÙĨÛĴ": 7529,
      "ĠØ³Ú©Ú¾Ø§ØªÛĴ": 7530,
      "ĠÙ¾Ø±Ø¯ÛĮØ³ÛĮÙĪÚº": 7531,
      "ĠØ¹ÙħØ§Ø±ØªÛĮÚº": 7532,
      "ĠÚĨÚ¾ÚĳØ§Ø¦ÛĴ": 7533,
      "ĠÙħØ§Ø¬Ø±Ûģ": 7534,
      "ĠÙ¾Ø§Ø¨ÙĨØ¯ÛĮ": 7535,
      "ĠÚ©ÙģÙĨ": 7536,
      "ĠÚ©ÙģÙĨØ§ÛĮØ§": 7537,
      "ĠÙĨØŃØ³ÙĪÙĨ": 7538,
      "ĠØ¯Ø¨Ø§Øº": 7539,
      "ĠÚĨÙ¹ÛĮÙĦ": 7540,
      "ĠØŃÛĮÙĦÛģ": 7541,
      "ĠØŃÛĮÙĪØ§ÙĨ": 7542,
      "ĠØ±ÛģÙĨÙħØ§": 7543,
      "ĠØ¯ÛĮÚ¯Ø±ÛĴ": 7544,
      "ĠØ¨Ø±Ø³Ø§Ø¦ÛĮ": 7545,
      "ĠÚ¯Ø±Ø¯ÙĨÛĮÚº": 7546,
      "ĠÛģØ¬ÙĪÙħ": 7547,
      "ĠØªØ±Ø§Ø´ÛĮ": 7548,
      "ĠØµÙĦØ§ØŃÛĮØª": 7549,
      "ĠÚ©Ú¾Ù¹Ø±Ø§": 7550,
      "ĠØ¨Ø§ÙĨÙ¹ÙĨÛĴ": 7551,
      "ĠØªÙĨØ¯Ø±Ø³ØªÙĪÚº": 7552,
      "ĠØ¬ØªØ§ÛĮØ§": 7553,
      "ĠÙĦÙħØ¨ÛĮ": 7554,
      "ĠÛģÙĪØ³Ú©Ø§": 7555,
      "ĠØ¢ÙħØ¯ÙĨÛĮ": 7556,
      "ĠØ·ÙĪÙģØ§ÙĨÛĮ": 7557,
      "ĠØ³ÛĮÙĦØ§Ø¨": 7558,
      "ĠØµØŃÛĮÙģÛĴ": 7559,
      "ĠØ¨Ú©Ø±ÛĮ": 7560,
      "ĠØ¬Ø§ÛģÙĦÙĪÚº": 7561,
      "ĠÙĦÙĨÚ¯ÚĳÙĪÚº": 7562,
      "ĠÚ¯ÙĪÙĨÚ¯ÛĮ": 7563,
      "ĠØ¨Ø¯Ú¯ÙĪØ¦ÛĮØ§Úº": 7564,
      "ĠÚ¯Ø°Ø§Ø±ØªØ§": 7565,
      "ÙĨÛĮÚ©Ø¯ÛĮÙħØ³": 7566,
      "ÙĨØ¨ÛĮÙĪÚº": 7567,
      "ĠÚ¯ÛģØ±Ø§": 7568,
      "ĠÚ¯Ú¾ÙĪÚĳÛĴ": 7569,
      "ĠØŃÙħØ§ÙĤØª": 7570,
      "ĠÙģØ±ÙĪÚ¯ÛĮÛģ": 7571,
      "ĠØ§ÙĨØ¯ÙĪØ²ÛĮ": 7572,
      "ĠÚĪØ§Ú©ÙĪÙĪ": 7573,
      "ĠØ³Ø±Ø§ÛĮ": 7574,
      "ĠØ¢ÙĦÙĪØ¯Ú¯ÛĮ": 7575,
      "ĠÙħØªÚ©Ø¨Ø±ÙĪÚº": 7576,
      "ĠØ¨Ø±Ú¯Ø²ÛĮØ¯Ú¯ÛĮ": 7577,
      "ĠØ¬Ø§Ø±ÛģÛĴ": 7578,
      "ĠÚ¯ÙĦÚ¯ØªØ§": 7579,
      "ĠØ¢Ø´Ú©Ø§Ø±Ø§": 7580,
      "ÙģØ±ÛĮØ³ÛĮ": 7581,
      "ĠØ±ÙĪÙ¾ÛĮÙĪÚº": 7582,
      "ĠÚ¯Ú¾ÙĨÙ¹Ûģ": 7583,
      "ĠÙĦÙģØ¸ÙĪÚº": 7584,
      "ĠØ³ÙĪÙĨÙ¾": 7585,
      "ĠØªÙĦÙģÛĮ": 7586,
      "ĠØªÙ¾Ø´": 7587,
      "ĠÙĦÙ¾Ù¹Ø§": 7588,
      "ĠÙĦÙ¾Ù¹ÛĴ": 7589,
      "ĠÙħØ±ÙĪÚĳ": 7590,
      "ĠÙħØ±ÙĪÚ¯ÛĴ": 7591,
      "ĠÙĨØ§Ù¾ØªÛĴ": 7592,
      "ĠÚ©ÙĨÚ¯ÙĨ": 7593,
      "ĠØ³ÛĮÚ©Ú¾ØªÛĴ": 7594,
      "ĠÙħÚĳÚ©Ø±": 7595,
      "ĠÙħÙ¹ÙĨÛĴ": 7596,
      "ĠØ¬Ø±Ø§Ø¦Ùħ": 7597,
      "ĠÚ¯ÙĦÛĮÙĪ": 7598,
      "ĠÙģØ±ÛĮØ¶Ûģ": 7599,
      "ÙĨÛĮØ³Ø±Øª": 7600,
      "ĠÙ¾ÛĮØ±ÙĪÚ©Ø§Ø±ÙĪÚº": 7601,
      "ĠØ§ÙģØ±Ø§Ø¯ÛĮ": 7602,
      "ĠØ³ØªÙģÙĨØ§Ø³": 7603,
      "ĠÚ©Ø§ÙĨÙ¾ØªÛĴ": 7604,
      "ĠÚ©Ø§Ø±ÛĮÚ¯Ø±ÛĮ": 7605,
      "ĠÙħÙħØªØ§Ø²": 7606,
      "ĠÙħØ±Ø§ØŃÙĦ": 7607,
      "ĠÙħÛĮØ²Ø¨Ø§ÙĨÛĮ": 7608,
      "ĠÙ¾Ú¾Ø§ÚĳÛĴ": 7609,
      "ĠØ¯Ø¨ÛĮØ²": 7610,
      "ĠØ¯Ú¾Ø±ÙħÛĮ": 7611,
      "ĠÙĦØ§Ø³Ú©ØªÛĴ": 7612,
      "ĠØ¢Ú©Ú¾ÚĳØ§": 7613,
      "ĠØ¹ÙĪØ¨ÛĮØ¯": 7614,
      "ĠØ²Ø®ÙħÛĮ": 7615,
      "ĠØ¨ÛģØ±ØµÙĪØ±Øª": 7616,
      "ĠØ°ÙĪØ§ÙĦÙĤØ±ÙĨÛĮÙĨ": 7617,
      "ĠØ¢ÙĨØ³ÙĪÙĪ": 7618,
      "ĠÚĪÚ¾ÙĪÙĨÚĳÙĪÚ¯ÛĴ": 7619,
      "ĠÙ¾Ú¯Ú¾ÙĦÛĴ": 7620,
      "ĠØ§Ø³Ú©ÙĨØ¯Ø±": 7621,
      "ĠØ¢Ø±ÛģÛĴ": 7622,
      "ĠØ¹ÛĮØ³ÙĪ": 7623,
      "ĠØ¹Ø§Ø±Ø¶ÛĮ": 7624,
      "ĠØ§ÙĦÙħÙĤØ¯Ø³": 7625,
      "ĠØ·ÙħØ§ÙĨÚĨÛĴ": 7626,
      "ĠØ¨Ø±Ø¢ÙħØ¯Ûģ": 7627,
      "ĠÙħÙĪØ¬ÙĪÚº": 7628,
      "ĠÚ¯Ú¾ÙĪÙĨÙ¹ÛĴ": 7629,
      "ĠØ§Ú©ÙĦÙĪØªÛĴ": 7630,
      "ĠÙĦÚ©Ú¾ÙĪØ§": 7631,
      "ĠÚ¯Ø°Ø±Ø§ÙĨÙĨÛĴ": 7632,
      "ĠØ³Ø±Ú¯ÙĪØ´ÛĮ": 7633,
      "ĠØªÚ¾Ø³ÙĦÙĨÛĮÚ©ÛĮÙĪÚº": 7634,
      "ĠØ§Ø±Ø¶ÛĮ": 7635,
      "ÙħÙĨØ§ÙģÙĤ": 7636,
      "ĠØ¨Ø¬Ú¾ÙĨÛĴ": 7637,
      "ĠØ³Ø§Ø¦Ø¨Ø§ÙĨ": 7638,
      "ĠÙĨÚĨÙĦÛĴ": 7639,
      "ĠÙĨÚĨÙĪÚĳ": 7640,
      "ĠØ¬Ú©ÚĳÛĴ": 7641,
      "ĠÙĦÙĤØ¨": 7642,
      "ĠØ±ÛĮØ´ÙħÛĮ": 7643,
      "Ø¬Ø§Ø¯ÙĪ": 7644,
      "ĠÙģØ§Ø±Øµ": 7645,
      "ĠÙĤØ§ØªÙĦÙĪÚº": 7646,
      "ĠØ´Ø§ÛĮØ§ÙĨ": 7647,
      "ĠØ´Ø§ÛĮØ³ØªÚ¯ÛĮ": 7648,
      "Ù¹Ú¾ÙĪÛĮÚº": 7649,
      "ĠÚĪØ¨ÙĪÛĮØ§": 7650,
      "ĠÙĨØ§Ú¯ÙĪØ§Ø±ÛĮ": 7651,
      "ĠØ°ÛģÙĨ": 7652,
      "ĠØ°ÛģÙĨÙĪÚº": 7653,
      "ĠÙħØ¹Ø§Ø´Ø±ÛĴ": 7654,
      "ĠØ¨ÛĮØ±ÛĮÛģ": 7655,
      "ĠØ³ÙĪØ±Ø§Ø®": 7656,
      "ĠÙ¾ÙĪÙĨÚĨÚ¾ÛĴ": 7657,
      "ĠÙĦØ§Ø¯ÛĴ": 7658,
      "ĠØ¬ÙĪØªÛĮØ§Úº": 7659,
      "ĠØŃØ±ÙħØªÛĮ": 7660,
      "ĠØŃÙĦÙģØ¦ÛĮ": 7661,
      "ĠØ·Ø§ÙĦØ¨Ø§ÙĨ": 7662,
      "ĠØ·Ø§ÙĦÙĪØª": 7663,
      "ĠØ¨ÛĮØ¹Ø²Øª": 7664,
      "ĠÚĪØ§ÙĨÙ¹Ø§": 7665,
      "Ø¢Ø¯Ú¾ÛĮ": 7666,
      "Ø¢Ø¯ÙħÛĮ": 7667,
      "ĠÙ¹Ú©Ø±Ø§": 7668,
      "ĠØ¨Ø¯ÚĨÙĦÙĨ": 7669,
      "ĠØ¨Ø¯ÚĨÙĦÙĨÛĮ": 7670,
      "ĠÚ¯ÙĨØ¬Ø§ÛĮØ´": 7671,
      "ĠÚ¯ÙĨØ¬Ø§Ø¦Ø´": 7672,
      "ĠÙħØ´Ø¹ÙĦÛĮÚº": 7673,
      "ĠÙħÙĦØ§ØŃØ¸Ûģ": 7674,
      "ĠÙĨØ±Ø³ÙĨÚ¯Ø§": 7675,
      "ĠÙĨØ±Ø³ÙĨÚ¯ÛĴ": 7676,
      "ĠØ²ÙĨØ¬ÛĮØ±ÛĮÚº": 7677,
      "ĠØ¯ØºØ§Ø¨Ø§Ø²ÛĮ": 7678,
      "ĠÚĳØ§ÙĦ": 7679,
      "ĠØ§ÙĦØ§ÙħÛĮÙĨ": 7680,
      "ĠÙħØ´ØªÙħÙĦ": 7681,
      "ĠØ¨Ø²Ø¯ÙĦÛĮ": 7682,
      "ĠØ³ÙĦÙħÙĪÙĨ": 7683,
      "ĠØ¬Ø§ØªÛĮÚº": 7684,
      "ĠØ§Ø³Ø±Ø¦ÛĮÙĦÛĮ": 7685,
      "ĠÙĦÙ¹Ú©ØªÛĮ": 7686,
      "ĠÚ©Ø±Ø§ÛģØªÛĴ": 7687,
      "ĠØ¢Ø³Ø§Ø¦Ø´": 7688,
      "ĠÙ¾Ø±Ø¯Ø§Ø²ÛĮ": 7689,
      "ĠØ¹ÙĤÛĮØ¯Ûģ": 7690,
      "ĠÙģÙĪÙĤÛĮØª": 7691,
      "ĠØµØ§Ø¯ÙĤ": 7692,
      "ĠÙħØ¹ØµÛĮØª": 7693,
      "ĠØ³Ø±ØºÙĨÙĪÚº": 7694,
      "ĠØŃÚ©ÙħØ±Ø§ÙĨÛĮ": 7695,
      "ĠÚ¯Ú¾Ø¨Ø±Ø§ÛģÙ¹": 7696,
      "ĠØªØŃØ±ÛĮØ±": 7697,
      "ĠÙħØ¹Ø§ÙĪÙĨØª": 7698,
      "ĠÙĨØªÛĮØ¬Ûĥ": 7699,
      "ĠÙĦØ±Ø²ÙĨÛĴ": 7700,
      "ĠÙĪÙģØ§Ø¯Ø§Ø±ÛĮ": 7701,
      "ĠØ§ÙģØ±ÙĪØ²": 7702,
      "ÙĨØ¹ÙħØªÙĪÚº": 7703,
      "ĠÛģÙĨÚ¯Ø§ÙħÛģ": 7704,
      "ĠÙħÚ©ÙĪÚĳÛĴ": 7705,
      "ĠØ¨Ú©ÙĪØ§Ø³": 7706,
      "ĠØªØ¨Ø±ÛĮØ§Ø³": 7707,
      "ĠÙĨÙĪØ´ØªÛĴ": 7708,
      "ĠØ¬Ø²ÛĮÛģ": 7709,
      "Ø¨Ú¾ÛĮÚĳ": 7710,
      "ĠÙĪØŃØ´ÛĮ": 7711,
      "ĠØ§ÙĨÙĤÙĦØ§Ø¨": 7712,
      "Ù¾ÛģÙĦÛĴ": 7713,
      "Ø²Ú©Ø±ÛĮØ§": 7714,
      "ĠÙģÛĮÙĨÛĮÚ©ÛĴ": 7715,
      "ĠÙĤÙĨØ§Ø¹Øª": 7716,
      "ĠØ§ÛĮØ°Ø§Ø¡": 7717,
      "ĠØµÙģØ§Ø¦ÛĮ": 7718,
      "ĠÙħØ¬Ø¨ÙĪØ±ÛĮ": 7719,
      "ĠÙħØ¬ÙĪØ³ÛĮÙĪÚº": 7720,
      "ĠÙħØ¹Ø±Ú©Ûģ": 7721,
      "ĠÙħØ±ØŃÙĦÛģ": 7722,
      "ĠÙ¹ÚĪÛĮØ§Úº": 7723,
      "ĠØ¨Ø¯Ú¯ÙħØ§ÙĨ": 7724,
      "ĠØ¨ÛĴØ´Ø±Ø¹": 7725,
      "ĠØ°Ø®ÛĮØ±Ûģ": 7726,
      "ĠÙħØ¯Ø¹ÛĮÙĪÚº": 7727,
      "ĠÚ©ÙĨØ¹Ø§ÙĨ": 7728,
      "ĠÚ©ÙĨØ¬ÛĮØ§Úº": 7729,
      "ĠÙħØ·ÛģØ±Ø§Øª": 7730,
      "ĠØ§ÙģÙĪØ§ÛģÛĮÚº": 7731,
      "ĠÙ¾ØªÚ¾Ø±ÛĮÙĦÛĮ": 7732,
      "ĠØ§Ø±Ø³ØªØ±Ø®Ø³": 7733,
      "ĠØ³ÙĦØ³ÙĦÛģ": 7734,
      "ĠÙĨØ§Ø±Ø§Ø³ØªÙĪÚº": 7735,
      "ĠØ§Ø³Ú©ÙĨØ¯Ø±ÛĮÛģ": 7736,
      "ĠÙĦØºØ²Ø´ÙĪÚº": 7737,
      "ĠÚ©ÚĳØ§ÚĳÛĴ": 7738,
      "ĠÚ©ÙħÛģØ§Ø±": 7739,
      "ĠØ§Ø±ÛĮÙĪ": 7740,
      "ĠØ§ØµØ±Ø§Ø±": 7741,
      "ĠØ§ÙĤØ³Ø§Ùħ": 7742,
      "ĠÙħÙħØ§ÙĨØ¹Øª": 7743,
      "ĠØ³ÛĮØ§ÙĦØªÛĮ": 7744,
      "ĠØªØ±ÙģÙħØ³": 7745,
      "ĠØªØŃÙĤÛĮØ±": 7746,
      "ĠÙĨØ°Ø¯ÛĮÚ©": 7747,
      "ĠÙĨÙĪÛĮØ³ÛĮ": 7748,
      "ĠØ¬Ø°Ø¨Ûģ": 7749,
      "ĠØ¬Ú¯Ø§ÛĮØ§": 7750,
      "ĠØ¬ØªÙĦØ§ØªÛĴ": 7751,
      "ĠÙ¾Ø§ÙħØ§ÙĦ": 7752,
      "ĠØ±ÙģØ§ÙĤØª": 7753,
      "ĠÚ©ÙĪÙĨÚĨÛĮÚº": 7754,
      "Ù¾ÙĦÙ¹ÙĨ": 7755,
      "ĠØ¢ÙħØ§Ø¯Ûģ": 7756,
      "ĠØ¬ÙĪÙĨÛģÛĮ": 7757,
      "ĠÙ¾Ø±Ø³Ú©ÙĦÛģ": 7758,
      "ĠØ¹ÙħÛĮÙĨØ¯Ø§Ø¨": 7759,
      "ĠÚĨÙĨÛĮØ¯Ûģ": 7760,
      "ĠÙģÙĦØ§Úº": 7761,
      "ĠØŃØµØ±ÙĪÙĨ": 7762,
      "ĠØ´Ø§Ø¨Ø§Ø´": 7763,
      "ĠØ§ÙĦÛĮØ¹Ø²Ø±": 7764,
      "ĠØ·ÙĪØ§Ùģ": 7765,
      "ĠØ²Ø±Ø¨Ø§Ø¨ÙĦ": 7766,
      "ĠØ¨Ø§ÙĤØ§Ø¹Ø¯Ûģ": 7767,
      "Ø°ÙĪØ§ÙĦÙĤØ±ÙĨÛĮÙĨ": 7768,
      "ĠÚ©Ú¾ÙĦØ¨ÙĦÛĮ": 7769,
      "ĠØ³ÙĪØ®ØªÙĨÛĮ": 7770,
      "ĠÙĦØ§ØŃØ§ØµÙĦ": 7771,
      "ĠÙ¹Ø§ÙĨÚ¯ÛĮÚº": 7772,
      "ĠØ¨Ø¯Ø®ÙĪØ§ÛģÛĮ": 7773,
      "ĠØ®ÙĪØ´Ú¯ÙĪØ§Ø±": 7774,
      "ĠÚ¯Ø±Ø§Ø³ÛĮÙĨÛĮÙĪÚº": 7775,
      "ÛĮÙĨÚ¯ÙĪØ¦ÛĮ": 7776,
      "ĠÙħÙĪØ³ÙĦØ§Ø¯Ú¾Ø§Ø±": 7777,
      "ĠØºÛĮØ±ØŃØ§Ø¶Ø±ÛĮ": 7778,
      "ÙĬ": 7779,
      "Ġ'": 7780,
      "Ġ,": 7781,
      "Ġ/": 7782,
      "ĠÚ¾": 7783,
      "ĠÚ¾ÙĪ": 7784,
      "ĠÚĳÚ¾": 7785,
      "Ø§Ù¹": 7786,
      "Ø§Ú©Ø±": 7787,
      "Ø§Ø¦ÛĮÚº": 7788,
      "Ø§Ú©ÛĮ": 7789,
      "Ø§ÚĳÛĴ": 7790,
      "Ø§ÛĮØ³ÛĮ": 7791,
      "Ø§Ù¹Ú¾": 7792,
      "Ø§Ù¹Ú¾ÙĪ": 7793,
      "Ø§ØºÙĦ": 7794,
      "ÛĮØ°": 7795,
      "ÛĮÚ¯Ø§": 7796,
      "ÛĮØ³Ùħ": 7797,
      "ÙĪÚ©": 7798,
      "ÙĪØ¯Ø§": 7799,
      "ÙĪÙ¹": 7800,
      "ÙĪÙħÛĮ": 7801,
      "ÙĪØ§Ø±ÛĮ": 7802,
      "ÙĪØ§ØªØ§": 7803,
      "ÙĪØº": 7804,
      "ÙĪÚ©Ú¾ÛĮ": 7805,
      "ÛģÛĮÚº": 7806,
      "ÛģØ§ÙĨ": 7807,
      "ÛģÙĨÛĮ": 7808,
      "ÛģÙħÛĮ": 7809,
      "ÛģÙĪØ§": 7810,
      "Ú©Ø§ÙĨ": 7811,
      "Ú©Ø§Øª": 7812,
      "Ú©ÙĨØ§": 7813,
      "Ú©ÙĪÙħ": 7814,
      "Ú©Ø§Ø±Ø§": 7815,
      "Ú©ØªØ§Ø¨": 7816,
      "Ú©ÙĪØ±Ûģ": 7817,
      "Ú©ÙģÙĦ": 7818,
      "Ú©ÙĪØŃÛģ": 7819,
      "Ø±Ø§ÙĨ": 7820,
      "Ø±Ø´": 7821,
      "Ø±Ø§Ø³Øª": 7822,
      "Ø±ÙĪØ§Ø¦ÛĮ": 7823,
      "ĠÚ©ÙĪØ±": 7824,
      "ĠÚ©ØªØ§": 7825,
      "ĠÚ©Ø§ÙĨØ§": 7826,
      "ĠÚ©Ø³Ø§ÙĨ": 7827,
      "ĠÚ©Ù¹ÛĮ": 7828,
      "ĠÚ©Ù¾Ø±": 7829,
      "ĠÚ©ÙĦÛģØ§": 7830,
      "ĠØ§ÙħÛĮÙĨ": 7831,
      "ĠØ§ÚĳÛĴ": 7832,
      "ĠØ§Ø´Øª": 7833,
      "ĠØ§Ø²Ø®": 7834,
      "ĠØ§ÙĤÙĪ": 7835,
      "ĠØ§ÙĦØ§Ùģ": 7836,
      "ĠØ§Ø¯ÙĪ": 7837,
      "ĠØ§ØµÙĪÙĦ": 7838,
      "ĠØ§Ø¨ÛĮÛģ": 7839,
      "ĠØ§ÙĤØµ": 7840,
      "ÙĨØªØ§": 7841,
      "ÙĨØ¯Ø§": 7842,
      "ÙĨÙĪÙĨ": 7843,
      "ÙĨÙģØ±": 7844,
      "ÙĨØ¬Ú¾": 7845,
      "ÙĨÙĤØ±ÛĮØ¨": 7846,
      "ÙĨÙħÚ©": 7847,
      "ÙĨÙĪØ²": 7848,
      "ÙĨØ¨ÙĪØª": 7849,
      "ÙĨØ·ÙģÛģ": 7850,
      "ÙħØ¬": 7851,
      "ÙħÙĪÙħ": 7852,
      "ÙħÚ¯Ø§": 7853,
      "ÙħØ±Øª": 7854,
      "ÙħØ³ÙĦ": 7855,
      "ÙħØ§Ø±ÙĪÚº": 7856,
      "ÙħÙĪØ¹": 7857,
      "ÙħØ´Ø±": 7858,
      "ĠÛģÙĪØ±": 7859,
      "ĠÛģØ³ØªÛĮ": 7860,
      "ĠÛģØªÚ¾ÙĪÚĳÛĴ": 7861,
      "ĠÛģØ§ØªÙĪÚº": 7862,
      "ØªØ¹": 7863,
      "ØªØ¬Ú¾ÛĴ": 7864,
      "ØªÛĮØ§Ûģ": 7865,
      "ØªØ´Ùħ": 7866,
      "ØªÛĮØ±ÛĴ": 7867,
      "ØªÛĮØ±ÛĮ": 7868,
      "ÙĦØ³ÛĮ": 7869,
      "ÙĦÙħØ§": 7870,
      "ÙĦØ§ØªØ§": 7871,
      "ÙĦÙĪÙĨÚ¯ÛĮ": 7872,
      "Ø³ÙĪØ±": 7873,
      "Ø³Ø§Ø³": 7874,
      "Ø³ÙĦÛĴ": 7875,
      "Ø³ÙģØ±": 7876,
      "Ú¾Ú©": 7877,
      "Ú¾Ùħ": 7878,
      "Ú¾ÛĮØ§Úº": 7879,
      "Ú¾ÚĨÛĴ": 7880,
      "ĠÙħØ¯Ø§": 7881,
      "ĠÙħØ³ÙĪ": 7882,
      "ĠÙħØ¯Ûģ": 7883,
      "ĠÙħØ§ÙĨÛĴ": 7884,
      "ĠÙħØ§ÛģÛĮ": 7885,
      "ĠÙħØ³Ùħ": 7886,
      "ĠÙħÚ©ÙĦ": 7887,
      "ĠÙħÚ©ÛĮÙĨ": 7888,
      "ĠÙħÙ¹Ú¾ÛĮ": 7889,
      "ĠÙħÙħÙĨ": 7890,
      "ĠÙħÚ©ÛĮÙĨÙĪÚº": 7891,
      "ĠØ¨Ø§Ø¨": 7892,
      "ĠØ¨Ø°": 7893,
      "ĠØ¨ÙĪÙĨØ¯": 7894,
      "ĠØ¨Ø¢": 7895,
      "ĠØ¨Ú©ÛĴ": 7896,
      "ĠØ¨Ù¹Ú¾": 7897,
      "ĠØ¨Ù¹ÙĪØ§": 7898,
      "ĠØ³Ø§ÙĨ": 7899,
      "ĠØ³Úĳ": 7900,
      "ĠØ³Ø§ÙĨÛĮ": 7901,
      "ĠØ³Ø¬Ú¾": 7902,
      "ĠØ³ÙĦÛĮÙħ": 7903,
      "ĠØ³ØªÙħ": 7904,
      "ĠØ³ÙģÛĮ": 7905,
      "ĠØ³ÙĦØ¨": 7906,
      "ĠØ³Ø§Ø¦ÙĦ": 7907,
      "ĠØ³Ø³Ø±": 7908,
      "ÙĪØ±Ø§Ûģ": 7909,
      "ÙĪØ±ØªÛĮ": 7910,
      "ÙĪØ±ÛĮØ§Úº": 7911,
      "ĠØªÙĨØ§": 7912,
      "ĠØªÙĦÛĮ": 7913,
      "ĠØªØ§Ø±ÛĴ": 7914,
      "ĠØªØ°": 7915,
      "ĠØªØ¨ÛĮ": 7916,
      "ĠØªØ¨Ø§Ø¯": 7917,
      "ĠØªØ¨ÙĪ": 7918,
      "ĠØªÚ©ÛĮÛģ": 7919,
      "ĠÙĨØ³": 7920,
      "ĠÙĨØ¶": 7921,
      "ĠÙĨÙĪØ§": 7922,
      "ĠÙĨÚĪ": 7923,
      "ĠÙĨÛĮÙĨ": 7924,
      "ĠÙĨÙģØª": 7925,
      "ĠÙĨØ²Ø§": 7926,
      "ĠÙĨØ¨ÙĪ": 7927,
      "ĠÙĨØ§Ø¯Ùħ": 7928,
      "Ú¯ØªÛĴ": 7929,
      "Ú¯ÙĪÙĨ": 7930,
      "Ú¯Ø§ØªÛĴ": 7931,
      "Ú¯ÙħÚ¯Ø§": 7932,
      "Ø¯ÙĤ": 7933,
      "Ø¯Ú¾Ø§": 7934,
      "Ø¯Ú©Ú¾": 7935,
      "Ø¯Ú¯ÛĮ": 7936,
      "Ø¯ÙĪÙĨÙĪÚº": 7937,
      "ĠØ¬Ø±": 7938,
      "ĠØ¬ÙĪÚº": 7939,
      "ĠØ¬Ø´": 7940,
      "ĠØ¬ÙħÛĮ": 7941,
      "ĠØ¬ÚĳÛĴ": 7942,
      "ĠØ¬ÙĦÙĪ": 7943,
      "ĠØ¬ÙħØ§ÙĦ": 7944,
      "ĠØ¬ØªÙĪ": 7945,
      "ĠØ¬ÙħÛĮÙĦ": 7946,
      "Ø¨ÙĦÛģ": 7947,
      "Ø¨ØªÛĮ": 7948,
      "Ø¨ÛģØ±": 7949,
      "Ø¨Ø«": 7950,
      "Ø¨Ø¬Ø§": 7951,
      "Ø¨ÚĳÛĴ": 7952,
      "Ø¨ÛĮØ§Ûģ": 7953,
      "Ø¨Ø´ÛĮ": 7954,
      "Ø¨ÙĦÛĮØ³": 7955,
      "Ø¨Ø§Ø¦ÛĮ": 7956,
      "Ø¨Ø¬Ø²": 7957,
      "Ø¨Ø´Ø±": 7958,
      "Ø¨Ø³ØªÛĮ": 7959,
      "Ø¨Ø±Ø§Ø¦ÛĮÛĴ": 7960,
      "ĠÙ¾Ø¬": 7961,
      "ĠÙ¾ÙĦÛĮ": 7962,
      "ĠÙ¾ØªÛĮ": 7963,
      "ĠÙ¾ÙĦÛĴ": 7964,
      "ĠÙ¾Ú©ÛĮ": 7965,
      "ĠÙ¾Ú©ÛĴ": 7966,
      "ĠÙ¾ØªÙĪ": 7967,
      "ĠÙ¾ØªÙĪÚº": 7968,
      "ĠÙ¾ÙĦÛĮØ¯ÛĮ": 7969,
      "ĠÙ¾ÙĪØ¯ÛĴ": 7970,
      "ĠÙ¾Ø¨ÙĦÛĮØ³": 7971,
      "Ø¦Ø³": 7972,
      "Ø¦ÙĪÚº": 7973,
      "Ø¦Ø·": 7974,
      "ĠØ§ÙĪØ±Ø¨": 7975,
      "ĠØ§ÙĪØ±Ø§Ø³": 7976,
      "ĠØ§ÙĪØ±Ø¬ÙĪ": 7977,
      "ĠØ§ÙĪØ±ÙĨÛģ": 7978,
      "ĠØ§ÙĪØ±Ø§ÙĨÛģÙĪÚº": 7979,
      "ĠØ§ÙĪØ±Ø§ÙĨÛģÛĮÚº": 7980,
      "ĠØ§ÙĪØ±ÛĮØ¹ÙĤÙĪØ¨": 7981,
      "ĠÙĪÙĤ": 7982,
      "ĠÙĪØ§Ûģ": 7983,
      "ĠÙĪÙĦØ§": 7984,
      "ĠÙĪÙĤÙĪ": 7985,
      "ĠÙĪØ¶Ø§": 7986,
      "ĠÙĪØŃØ¯": 7987,
      "ĠÙĪÚ©ÛĮÙĦ": 7988,
      "ĠØ¯Ú¾Ø§": 7989,
      "ĠØ¯Ø§Ø¨": 7990,
      "ĠØ¯Ø³ÙĪ": 7991,
      "ĠØ¯Ø±ÛĮ": 7992,
      "ĠØ¯Ø¨ÛĮ": 7993,
      "ĠØ¯ÙĦÙħ": 7994,
      "ĠØ¯ÙģØ§": 7995,
      "ĠØ¯Ø§Ø¯ÙĪÚº": 7996,
      "ĠÚ©ÛĮÙĦÙĪÚº": 7997,
      "ĠÚ©ÛĮÙĦØ¦ÛĴ": 7998,
      "ĠØ§Ø³Ùģ": 7999
    },
    "merges": [
      [
        "Ġ",
        "Ø"
      ],
      [
        "Ø",
        "§"
      ],
      [
        "Û",
        "Į"
      ],
      [
        "Ù",
        "Ī"
      ],
      [
        "Û",
        "ģ"
      ],
      [
        "Ú",
        "©"
      ],
      [
        "Û",
        "Ĵ"
      ],
      [
        "Ø",
        "±"
      ],
      [
        "Ġ",
        "Ù"
      ],
      [
        "Ġ",
        "Ú©"
      ],
      [
        "ĠØ",
        "§"
      ],
      [
        "Ù",
        "Ĩ"
      ],
      [
        "Ú",
        "º"
      ],
      [
        "Ù",
        "ħ"
      ],
      [
        "Ġ",
        "Ûģ"
      ],
      [
        "Ø",
        "ª"
      ],
      [
        "Ù",
        "Ħ"
      ],
      [
        "Ø",
        "³"
      ],
      [
        "Ú",
        "¾"
      ],
      [
        "ÛĮ",
        "Úº"
      ],
      [
        "ĠÙ",
        "ħ"
      ],
      [
        "ĠØ",
        "¨"
      ],
      [
        "ĠØ",
        "³"
      ],
      [
        "ÙĪ",
        "Ø±"
      ],
      [
        "ĠØ",
        "ª"
      ],
      [
        "ĠÙ",
        "Ĩ"
      ],
      [
        "Ú",
        "¯"
      ],
      [
        "Ø",
        "¯"
      ],
      [
        "ĠØ",
        "¬"
      ],
      [
        "Û",
        "Ķ"
      ],
      [
        "Ġ",
        "ÛĶ"
      ],
      [
        "Ø",
        "¨"
      ],
      [
        "ĠÙ",
        "¾"
      ],
      [
        "Ø",
        "¦"
      ],
      [
        "ĠØ§",
        "ÙĪØ±"
      ],
      [
        "Ġ",
        "ÙĪ"
      ],
      [
        "ĠØ",
        "¯"
      ],
      [
        "ĠÚ©",
        "ÛĴ"
      ],
      [
        "ÙĪ",
        "Úº"
      ],
      [
        "ĠÚ©",
        "ÛĮ"
      ],
      [
        "ĠØ³",
        "ÛĴ"
      ],
      [
        "ĠØ§",
        "Ø³"
      ],
      [
        "Ø§",
        "ÙĨ"
      ],
      [
        "ĠÙ",
        "Ħ"
      ],
      [
        "ĠÚ©",
        "Ø±"
      ],
      [
        "ĠÙħ",
        "ÛĮÚº"
      ],
      [
        "ĠÛģ",
        "ÛĴ"
      ],
      [
        "ĠÚ©",
        "Ûģ"
      ],
      [
        "Ġ",
        "Ú¯"
      ],
      [
        "ÛĮ",
        "Ø§"
      ],
      [
        "ĠØ§",
        "ÙĨ"
      ],
[...]
